{
  "version": "1.0",
  "truncation": null,
  "padding": null,
  "added_tokens": [
    {
      "id": 0,
      "content": "[MASK]",
      "single_word": false,
      "lstrip": false,
      "rstrip": false,
      "normalized": false,
      "special": true
    },
    {
      "id": 1,
      "content": "[PAD]",
      "single_word": false,
      "lstrip": false,
      "rstrip": false,
      "normalized": false,
      "special": true
    },
    {
      "id": 2,
      "content": "[UNK]",
      "single_word": false,
      "lstrip": false,
      "rstrip": false,
      "normalized": false,
      "special": true
    },
    {
      "id": 3,
      "content": "[CLS]",
      "single_word": false,
      "lstrip": false,
      "rstrip": false,
      "normalized": false,
      "special": true
    },
    {
      "id": 4,
      "content": "[SEP]",
      "single_word": false,
      "lstrip": false,
      "rstrip": false,
      "normalized": false,
      "special": true
    }
  ],
  "normalizer": null,
  "pre_tokenizer": {
    "type": "Whitespace"
  },
  "post_processor": null,
  "decoder": null,
  "model": {
    "type": "BPE",
    "dropout": null,
    "unk_token": "[UNK]",
    "continuing_subword_prefix": null,
    "end_of_word_suffix": null,
    "fuse_unk": false,
    "byte_fallback": false,
    "ignore_merges": false,
    "vocab": {
      "[MASK]": 0,
      "[PAD]": 1,
      "[UNK]": 2,
      "[CLS]": 3,
      "[SEP]": 4,
      "!": 5,
      "\"": 6,
      "#": 7,
      "$": 8,
      "%": 9,
      "&": 10,
      "(": 11,
      ")": 12,
      "*": 13,
      "+": 14,
      ",": 15,
      "-": 16,
      ":": 17,
      ";": 18,
      "<": 19,
      "=": 20,
      ">": 21,
      "?": 22,
      "@": 23,
      "W": 24,
      "X": 25,
      "[": 26,
      "\\": 27,
      "]": 28,
      "_": 29,
      "w": 30,
      "x": 31,
      "{": 32,
      "}": 33,
      "°": 34,
      "â": 35,
      "æ": 36,
      "ê": 37,
      "î": 38,
      "ï": 39,
      "ö": 40,
      "ü": 41,
      "ē": 42,
      "Ō": 43,
      "ō": 44,
      "̆": 45,
      "̍": 46,
      "̥": 47,
      "̱": 48,
      "ँ": 49,
      "ं": 50,
      "ः": 51,
      "अ": 52,
      "आ": 53,
      "इ": 54,
      "ई": 55,
      "उ": 56,
      "ऊ": 57,
      "ऋ": 58,
      "ऌ": 59,
      "ए": 60,
      "ऐ": 61,
      "ओ": 62,
      "औ": 63,
      "क": 64,
      "ख": 65,
      "ग": 66,
      "घ": 67,
      "ङ": 68,
      "च": 69,
      "छ": 70,
      "ज": 71,
      "झ": 72,
      "ञ": 73,
      "ट": 74,
      "ठ": 75,
      "ड": 76,
      "ढ": 77,
      "ण": 78,
      "त": 79,
      "थ": 80,
      "द": 81,
      "ध": 82,
      "न": 83,
      "ऩ": 84,
      "प": 85,
      "फ": 86,
      "ब": 87,
      "भ": 88,
      "म": 89,
      "य": 90,
      "र": 91,
      "ऱ": 92,
      "ल": 93,
      "ळ": 94,
      "व": 95,
      "श": 96,
      "ष": 97,
      "स": 98,
      "ह": 99,
      "ऽ": 100,
      "ा": 101,
      "ि": 102,
      "ी": 103,
      "ु": 104,
      "ू": 105,
      "ृ": 106,
      "ॄ": 107,
      "े": 108,
      "ै": 109,
      "ो": 110,
      "ौ": 111,
      "्": 112,
      "ॐ": 113,
      "क़": 114,
      "ज़": 115,
      "फ़": 116,
      "ॠ": 117,
      "ॡ": 118,
      "ॢ": 119,
      "।": 120,
      "॥": 121,
      "ḫ": 122,
      "ẖ": 123,
      "–": 124,
      "…": 125,
      "⏑": 126,
      "⟨": 127,
      "⟩": 128,
      "꣡": 129,
      "ꣳ": 130,
      "्य": 131,
      "्र": 132,
      "र्": 133,
      "्त": 134,
      "म्": 135,
      "्व": 136,
      "ान": 137,
      "ित": 138,
      "वि": 139,
      "त्": 140,
      "प्र": 141,
      "न्": 142,
      "स्": 143,
      "द्": 144,
      "ति": 145,
      "मा": 146,
      "्या": 147,
      "क्": 148,
      "वा": 149,
      "ना": 150,
      "ते": 151,
      "ष्": 152,
      "रा": 153,
      "नि": 154,
      "क्ष": 155,
      "ता": 156,
      "न्त": 157,
      "या": 158,
      "त्र": 159,
      "का": 160,
      "स्त": 161,
      "स्य": 162,
      "्वा": 163,
      "श्": 164,
      "सु": 165,
      "पा": 166,
      "तु": 167,
      "दे": 168,
      "र्व": 169,
      "सं": 170,
      "सा": 171,
      "त्त": 172,
      "पु": 173,
      "दा": 174,
      "क्त": 175,
      "मु": 176,
      "मह": 177,
      "था": 178,
      "द्र": 179,
      "ान्": 180,
      "पर": 181,
      "पि": 182,
      "भि": 183,
      "द्ध": 184,
      "ष्ट": 185,
      "रु": 186,
      "यो": 187,
      "ये": 188,
      "मि": 189,
      "दि": 190,
      "ज्": 191,
      "भा": 192,
      "कृ": 193,
      "ङ्": 194,
      "णा": 195,
      "त्य": 196,
      "वे": 197,
      "मे": 198,
      "सर्व": 199,
      "त्व": 200,
      "स्व": 201,
      "च्": 202,
      "तः": 203,
      "ज्ञ": 204,
      "श्र": 205,
      "कु": 206,
      "सि": 207,
      "ां": 208,
      "तो": 209,
      "श्च": 210,
      "ने": 211,
      "क्र": 212,
      "जा": 213,
      "लो": 214,
      "धि": 215,
      "हि": 216,
      "भू": 217,
      "िता": 218,
      "रे": 219,
      "रो": 220,
      "दु": 221,
      "स्थ": 222,
      "तं": 223,
      "ला": 224,
      "श्व": 225,
      "त्वा": 226,
      "यु": 227,
      "धा": 228,
      "द्व": 229,
      "ेन": 230,
      "द्य": 231,
      "रि": 232,
      "चा": 233,
      "मन": 234,
      "व्य": 235,
      "ग्": 236,
      "महा": 237,
      "र्थ": 238,
      "र्म": 239,
      "ान्त": 240,
      "ङ्ग": 241,
      "प्रा": 242,
      "ञ्": 243,
      "वर्": 244,
      "मान": 245,
      "शा": 246,
      "भव": 247,
      "शु": 248,
      "शि": 249,
      "र्य": 250,
      "वृ": 251,
      "ैः": 252,
      "मो": 253,
      "ग्र": 254,
      "पू": 255,
      "ैव": 256,
      "यं": 257,
      "ेष": 258,
      "ती": 259,
      "देव": 260,
      "चि": 261,
      "न्द्र": 262,
      "च्छ": 263,
      "ण्": 264,
      "गु": 265,
      "नु": 266,
      "ब्र": 267,
      "ल्": 268,
      "रं": 269,
      "नी": 270,
      "प्त": 271,
      "ष्ठ": 272,
      "नो": 273,
      "कि": 274,
      "ह्": 275,
      "एव": 276,
      "न्य": 277,
      "नं": 278,
      "णि": 279,
      "हा": 280,
      "मृ": 281,
      "रण": 282,
      "स्या": 283,
      "न्ति": 284,
      "दृ": 285,
      "नः": 286,
      "ैर्": 287,
      "लोक": 288,
      "्यं": 289,
      "यः": 290,
      "सो": 291,
      "वी": 292,
      "ण्ड": 293,
      "रू": 294,
      "बु": 295,
      "गा": 296,
      "ानि": 297,
      "परि": 298,
      "सम": 299,
      "चित": 300,
      "्य्": 301,
      "तम्": 302,
      "लि": 303,
      "को": 304,
      "री": 305,
      "षा": 306,
      "न्द": 307,
      "्ये": 308,
      "भु": 309,
      "तथा": 310,
      "स्तु": 311,
      "सह": 312,
      "नम्": 313,
      "न्ध": 314,
      "वै": 315,
      "ले": 316,
      "के": 317,
      "ितः": 318,
      "लं": 319,
      "्रा": 320,
      "सू": 321,
      "रः": 322,
      "समा": 323,
      "दं": 324,
      "ाना": 325,
      "तां": 326,
      "दी": 327,
      "यथा": 328,
      "यम्": 329,
      "हु": 330,
      "शो": 331,
      "से": 332,
      "राज": 333,
      "त्म": 334,
      "तत्": 335,
      "तस्य": 336,
      "पृ": 337,
      "त्रि": 338,
      "नम": 339,
      "प्रति": 340,
      "गो": 341,
      "ानां": 342,
      "भ्य": 343,
      "तस्": 344,
      "श्य": 345,
      "कं": 346,
      "षु": 347,
      "ष्ण": 348,
      "अ̱": 349,
      "त्रा": 350,
      "व्या": 351,
      "र्ण": 352,
      "रम्": 353,
      "भो": 354,
      "हं": 355,
      "ब्रह्": 356,
      "ितम्": 357,
      "ध्य": 358,
      "बुद्ध": 359,
      "वो": 360,
      "निर्": 361,
      "ञ्च": 362,
      "त्त्व": 363,
      "ष्य": 364,
      "ितं": 365,
      "पे": 366,
      "हे": 367,
      "धर्म": 368,
      "मू": 369,
      "बो": 370,
      "इति": 371,
      "क्षि": 372,
      "कम्": 373,
      "तद्": 374,
      "द्वि": 375,
      "प्": 376,
      "बा": 377,
      "ब्": 378,
      "गृ": 379,
      "सर्": 380,
      "ध्व": 381,
      "मित": 382,
      "जि": 383,
      "̍ः": 384,
      "कल्": 385,
      "मं": 386,
      "क्ति": 387,
      "यत्": 388,
      "प्य": 389,
      "भाव": 390,
      "कर्": 391,
      "हृ": 392,
      "स्म": 393,
      "दश": 394,
      "स्र": 395,
      "द्या": 396,
      "त्या": 397,
      "भिः": 398,
      "सी": 399,
      "मन्त": 400,
      "जग": 401,
      "र्या": 402,
      "स्त्र": 403,
      "दो": 404,
      "लम्": 405,
      "णं": 406,
      "चे": 407,
      "ज्ञा": 408,
      "दर्": 409,
      "ज्ञान": 410,
      "सम्": 411,
      "येत्": 412,
      "ऽपि": 413,
      "यि": 414,
      "तत्र": 415,
      "त्वं": 416,
      "धी": 417,
      "वः": 418,
      "णी": 419,
      "जी": 420,
      "व्र": 421,
      "भवे": 422,
      "ानु": 423,
      "जन": 424,
      "सौ": 425,
      "णो": 426,
      "दृष्ट": 427,
      "इन्द्र": 428,
      "ब्रह्म": 429,
      "म्य": 430,
      "सिद्ध": 431,
      "भे": 432,
      "रूप": 433,
      "हो": 434,
      "शी": 435,
      "̍म्": 436,
      "कार": 437,
      "ेषु": 438,
      "विश": 439,
      "अपि": 440,
      "योग": 441,
      "त्य्": 442,
      "मुख": 443,
      "धु": 444,
      "कथ": 445,
      "ताः": 446,
      "तेन": 447,
      "कः": 448,
      "की": 449,
      "पति": 450,
      "णां": 451,
      "तव": 452,
      "यते": 453,
      "वत्": 454,
      "किं": 455,
      "कल्प": 456,
      "̱ꣳ": 457,
      "परा": 458,
      "सः": 459,
      "श्रु": 460,
      "समु": 461,
      "नित": 462,
      "क्व": 463,
      "च्य": 464,
      "स्ति": 465,
      "मः": 466,
      "नृ": 467,
      "̍ꣳ": 468,
      "णे": 469,
      "विश्व": 470,
      "सुख": 471,
      "ज्य": 472,
      "दान": 473,
      "कर्म": 474,
      "ली": 475,
      "उप": 476,
      "इव": 477,
      "ेण": 478,
      "ह्य": 479,
      "चैव": 480,
      "यद्": 481,
      "वर": 482,
      "क्षा": 483,
      "अनु": 484,
      "भग": 485,
      "मी": 486,
      "षि": 487,
      "भिर्": 488,
      "पी": 489,
      "शं": 490,
      "पित": 491,
      "मम": 492,
      "दुः": 493,
      "िताः": 494,
      "्यां": 495,
      "गुण": 496,
      "̱म्": 497,
      "स्वा": 498,
      "भ्र": 499,
      "मां": 500,
      "स्मि": 501,
      "चतु": 502,
      "पूर्व": 503,
      "वं": 504,
      "तृ": 505,
      "हम्": 506,
      "क्षे": 507,
      "ितो": 508,
      "सत्त्व": 509,
      "णः": 510,
      "̱र्": 511,
      "न्न": 512,
      "मन्त्र": 513,
      "ताम्": 514,
      "नाम": 515,
      "कल": 516,
      "पो": 517,
      "पुत्र": 518,
      "अ̍": 519,
      "र्ग": 520,
      "सृ": 521,
      "दर्श": 522,
      "वान्": 523,
      "भी": 524,
      "श्री": 525,
      "सदा": 526,
      "थि": 527,
      "रत्": 528,
      "स̱": 529,
      "म̱": 530,
      "विध": 531,
      "नाथ": 532,
      "दम्": 533,
      "पञ्च": 534,
      "एवं": 535,
      "विष": 536,
      "प्रि": 537,
      "ही": 538,
      "वज": 539,
      "युक्त": 540,
      "द्वा": 541,
      "सर्वा": 542,
      "न्तु": 543,
      "नां": 544,
      "वित": 545,
      "मम्": 546,
      "शे": 547,
      "स्था": 548,
      "̱त": 549,
      "चित्त": 550,
      "अन": 551,
      "तदा": 552,
      "शू": 553,
      "वर्त": 554,
      "ष्टा": 555,
      "वृत्त": 556,
      "र्ष": 557,
      "व̍": 558,
      "ततः": 559,
      "ततो": 560,
      "मुक्त": 561,
      "ञ्ज": 562,
      "नाम्": 563,
      "न्ते": 564,
      "नमो": 565,
      "कर": 566,
      "क्षु": 567,
      "व̱": 568,
      "बोधि": 569,
      "पुन": 570,
      "यन्": 571,
      "पश्य": 572,
      "कृत": 573,
      "णम्": 574,
      "दित": 575,
      "मया": 576,
      "ग्नि": 577,
      "बि": 578,
      "बल": 579,
      "ख्या": 580,
      "यस्य": 581,
      "र्ध": 582,
      "चर": 583,
      "वाच": 584,
      "दुःख": 585,
      "लक्ष": 586,
      "भृ": 587,
      "ीं": 588,
      "स्ते": 589,
      "स्मा": 590,
      "यां": 591,
      "भूत": 592,
      "क्ष्": 593,
      "ण्य": 594,
      "वज्र": 595,
      "पुरु": 596,
      "सर्वे": 597,
      "रथ": 598,
      "घो": 599,
      "चो": 600,
      "शुद्ध": 601,
      "ाः": 602,
      "चक्र": 603,
      "गि": 604,
      "शृ": 605,
      "तिः": 606,
      "मान्": 607,
      "सुर": 608,
      "शः": 609,
      "न्न्": 610,
      "स्थित": 611,
      "अथ": 612,
      "दू": 613,
      "स्मृ": 614,
      "ान्ति": 615,
      "णु": 616,
      "र्त": 617,
      "षे": 618,
      "ग्रा": 619,
      "पाद": 620,
      "गत": 621,
      "ानं": 622,
      "य̱": 623,
      "काल": 624,
      "मनो": 625,
      "न्या": 626,
      "बन्ध": 627,
      "जे": 628,
      "बहु": 629,
      "एक": 630,
      "धे": 631,
      "स्ता": 632,
      "अभि": 633,
      "धर्": 634,
      "ान्य": 635,
      "देवा": 636,
      "द्रा": 637,
      "रक्ष": 638,
      "षो": 639,
      "जो": 640,
      "कृत्वा": 641,
      "वन": 642,
      "भवेत्": 643,
      "प्रत्य": 644,
      "न्म": 645,
      "तथ": 646,
      "षां": 647,
      "वि̱": 648,
      "पुष्": 649,
      "पत": 650,
      "सप्त": 651,
      "दुर्": 652,
      "वच": 653,
      "प्राप्त": 654,
      "यन्त": 655,
      "ध्या": 656,
      "पद्": 657,
      "्व्": 658,
      "दे̱": 659,
      "वन्": 660,
      "मात्": 661,
      "र्थं": 662,
      "हित": 663,
      "येन": 664,
      "भाग": 665,
      "गच्छ": 666,
      "दः": 667,
      "ैर": 668,
      "पूज": 669,
      "̍र्": 670,
      "चिन्त": 671,
      "ज्ञे": 672,
      "शत": 673,
      "प्रो": 674,
      "टि": 675,
      "̱ः": 676,
      "यत्र": 677,
      "विष्ण": 678,
      "अन्य": 679,
      "जु": 680,
      "िया": 681,
      "नमः": 682,
      "क्य": 683,
      "नर": 684,
      "व्": 685,
      "तिष्ठ": 686,
      "मण्ड": 687,
      "मनु": 688,
      "त्वम्": 689,
      "सर": 690,
      "सु̱": 691,
      "स्फ": 692,
      "अप": 693,
      "गन्ध": 694,
      "साध": 695,
      "ष्टि": 696,
      "पुनः": 697,
      "अव": 698,
      "दक्षि": 699,
      "राः": 700,
      "शेष": 701,
      "सहस्र": 702,
      "यित": 703,
      "च्च": 704,
      "मनः": 705,
      "श्चा": 706,
      "महे": 707,
      "पन्": 708,
      "चित्": 709,
      "यदि": 710,
      "।।": 711,
      "ङ्क": 712,
      "गुरु": 713,
      "लु": 714,
      "देश": 715,
      "नमा": 716,
      "वेद": 717,
      "गर्": 718,
      "अन्त": 719,
      "णाम्": 720,
      "तिर्": 721,
      "लोके": 722,
      "मर्": 723,
      "सन्": 724,
      "काः": 725,
      "ुर्": 726,
      "प्रे": 727,
      "सर्वं": 728,
      "उत्": 729,
      "इदं": 730,
      "तप": 731,
      "त्रे": 732,
      "सार": 733,
      "घा": 734,
      "ैक": 735,
      "विद्या": 736,
      "त्मा": 737,
      "पाप": 738,
      "म्ब": 739,
      "काम": 740,
      "ोप": 741,
      "उत्त": 742,
      "करो": 743,
      "यति": 744,
      "वद": 745,
      "मधु": 746,
      "याः": 747,
      "सूर्य": 748,
      "उ̱": 749,
      "हरि": 750,
      "प्रण": 751,
      "निः": 752,
      "बोध": 753,
      "विद्य": 754,
      "्यामि": 755,
      "ग्ने": 756,
      "अर्": 757,
      "चन्द्र": 758,
      "फल": 759,
      "सत्य": 760,
      "तत्त्व": 761,
      "रेण": 762,
      "शुभ": 763,
      "च्छा": 764,
      "ख्य": 765,
      "क्ष्य": 766,
      "िते": 767,
      "वम्": 768,
      "तिं": 769,
      "मेव": 770,
      "मै": 771,
      "खि": 772,
      "सत्त": 773,
      "कृष्ण": 774,
      "क्ता": 775,
      "नेन": 776,
      "तस्या": 777,
      "त्रं": 778,
      "निष्": 779,
      "दृष्ट्वा": 780,
      "खा": 781,
      "दत्त": 782,
      "ुं": 783,
      "क्षी": 784,
      "चिद्": 785,
      "वस": 786,
      "वास": 787,
      "भवति": 788,
      "तौ": 789,
      "धृ": 790,
      "ंश": 791,
      "ट्": 792,
      "व्यं": 793,
      "नित्यं": 794,
      "च्यते": 795,
      "म̍": 796,
      "शान्त": 797,
      "हर": 798,
      "धू": 799,
      "ह्य्": 800,
      "मानं": 801,
      "विधि": 802,
      "स्त्व": 803,
      "ो̱": 804,
      "विना": 805,
      "रणं": 806,
      "न्व": 807,
      "मल": 808,
      "ऽस्तु": 809,
      "य̍": 810,
      "रत्न": 811,
      "वद्": 812,
      "शक्ति": 813,
      "जः": 814,
      "क्तं": 815,
      "शब्": 816,
      "राजा": 817,
      "तान्": 818,
      "अहं": 819,
      "कौ": 820,
      "गी": 821,
      "धान": 822,
      "श्रे": 823,
      "ष्यति": 824,
      "तन्": 825,
      "ब्रा": 826,
      "कार्य": 827,
      "काश": 828,
      "सां": 829,
      "ग्रह": 830,
      "सिद्धि": 831,
      "यस्": 832,
      "किम्": 833,
      "रूपा": 834,
      "भवि": 835,
      "ब्राह्": 836,
      "बृ": 837,
      "मध्य": 838,
      "यात्": 839,
      "नित्य": 840,
      "जना": 841,
      "तद": 842,
      "हू": 843,
      "स्मिन्": 844,
      "त्त्": 845,
      "निर": 846,
      "ङ्गा": 847,
      "पते": 848,
      "भत्त्": 849,
      "जं": 850,
      "देवी": 851,
      "त्ति": 852,
      "कू": 853,
      "प्रभा": 854,
      "ल्य": 855,
      "अधि": 856,
      "पुरा": 857,
      "राय": 858,
      "वक्त": 859,
      "कुरु": 860,
      "जान": 861,
      "्रं": 862,
      "र्वा": 863,
      "पुर": 864,
      "ब्रवी": 865,
      "दै": 866,
      "भ्यां": 867,
      "न्ता": 868,
      "रस": 869,
      "पाल": 870,
      "ध्ये": 871,
      "ुः": 872,
      "क्षो": 873,
      "देवि": 874,
      "भूष": 875,
      "पृथि": 876,
      "नै": 877,
      "यत": 878,
      "ष्ठा": 879,
      "जीव": 880,
      "धो": 881,
      "कथं": 882,
      "प्री": 883,
      "विशेष": 884,
      "ुम्": 885,
      "प्रजा": 886,
      "यम": 887,
      "यौ": 888,
      "लक्ष्": 889,
      "म्भ": 890,
      "न्तं": 891,
      "न्दु": 892,
      "वर्ण": 893,
      "प्रथ": 894,
      "भद्र": 895,
      "तेषां": 896,
      "भ्यो": 897,
      "रम": 898,
      "ानाम्": 899,
      "परं": 900,
      "पिता": 901,
      "यू": 902,
      "राम": 903,
      "पात": 904,
      "कीर्त": 905,
      "पद": 906,
      "मूर्": 907,
      "प्रमा": 908,
      "भक्त": 909,
      "इत्य्": 910,
      "टा": 911,
      "यज्ञ": 912,
      "शम्": 913,
      "नौ": 914,
      "त्व्": 915,
      "इ̱": 916,
      "कस्य": 917,
      "बी": 918,
      "स्थितः": 919,
      "सिं": 920,
      "भक्ति": 921,
      "यदा": 922,
      "शर": 923,
      "त्वया": 924,
      "ध्र": 925,
      "श्चि": 926,
      "भ्रा": 927,
      "माना": 928,
      "ज्व": 929,
      "ब्रह्मा": 930,
      "पुनर्": 931,
      "घ्": 932,
      "चै": 933,
      "द्धि": 934,
      "मात्र": 935,
      "चतुर्": 936,
      "ब्राह्म": 937,
      "पुण्य": 938,
      "पं": 939,
      "े̍": 940,
      "मार्ग": 941,
      "राक्ष": 942,
      "याम्": 943,
      "देवे": 944,
      "महि": 945,
      "वरु": 946,
      "क्रो": 947,
      "मत्": 948,
      "कुल": 949,
      "श्वर": 950,
      "तस्मा": 951,
      "पः": 952,
      "लभ": 953,
      "--": 954,
      "पुरुष": 955,
      "स्तो": 956,
      "गे": 957,
      "शरी": 958,
      "र्ध्व": 959,
      "तस्मि": 960,
      "माः": 961,
      "गता": 962,
      "पर्": 963,
      "भवा": 964,
      "चार": 965,
      "घृ": 966,
      "वती": 967,
      "ैश्": 968,
      "द्धा": 969,
      "̍त": 970,
      "रौ": 971,
      "धार": 972,
      "पत्": 973,
      "यथ": 974,
      "पर्व": 975,
      "द्रु": 976,
      "नाय": 977,
      "ष्व": 978,
      "माया": 979,
      "त्यु": 980,
      "पृथ": 981,
      "प̱": 982,
      "ची": 983,
      "कृतं": 984,
      "जायते": 985,
      "राग": 986,
      "शिव": 987,
      "सत्": 988,
      "न्तो": 989,
      "कां": 990,
      "दिव्य": 991,
      "वर्ज": 992,
      "विश्वा": 993,
      "आत्म": 994,
      "ह्व": 995,
      "स्तस्य": 996,
      "पर्य": 997,
      "भर": 998,
      "व्यव": 999,
      "स्फु": 1000,
      "यित्वा": 1001,
      "क्त्वा": 1002,
      "स्तथा": 1003,
      "देह": 1004,
      "पूर्ण": 1005,
      "तत": 1006,
      "ते̱": 1007,
      "योः": 1008,
      "लोक्य": 1009,
      "मित्र": 1010,
      "रसा": 1011,
      "श्रा": 1012,
      "गण": 1013,
      "तुं": 1014,
      "̱ता": 1015,
      "आस": 1016,
      "ड्": 1017,
      "चित्र": 1018,
      "चेत": 1019,
      "जल": 1020,
      "नव": 1021,
      "रुद्र": 1022,
      "यन्ति": 1023,
      "हृद": 1024,
      "उपा": 1025,
      "कृता": 1026,
      "मन्": 1027,
      "वा̱": 1028,
      "तुर्": 1029,
      "नू": 1030,
      "र̱": 1031,
      "निर्व": 1032,
      "ष्टं": 1033,
      "योज": 1034,
      "रूपं": 1035,
      "नमामि": 1036,
      "अश्व": 1037,
      "परम्": 1038,
      "जगत्": 1039,
      "आत्": 1040,
      "एष": 1041,
      "दौ": 1042,
      "शय": 1043,
      "स्रा": 1044,
      "निश्च": 1045,
      "मही": 1046,
      "च̱": 1047,
      "वसु": 1048,
      "ह̱": 1049,
      "क्ले": 1050,
      "इह": 1051,
      "मौ": 1052,
      "यी": 1053,
      "लिङ्ग": 1054,
      "स्पृ": 1055,
      "बद्ध": 1056,
      "नाः": 1057,
      "नाग": 1058,
      "तिम्": 1059,
      "दाय": 1060,
      "श्रुत्वा": 1061,
      "गतः": 1062,
      "दि̱": 1063,
      "भावा": 1064,
      "अति": 1065,
      "जन्म": 1066,
      "िर्": 1067,
      "श्चैव": 1068,
      "र्थि": 1069,
      "मणि": 1070,
      "रां": 1071,
      "क्रिया": 1072,
      "सद": 1073,
      "स्य̱": 1074,
      "धर्मा": 1075,
      "वीर्य": 1076,
      "नय": 1077,
      "स्थान": 1078,
      "केन": 1079,
      "चरे": 1080,
      "षी": 1081,
      "नन्द": 1082,
      "सङ्ग": 1083,
      "चन": 1084,
      "डा": 1085,
      "प्य्": 1086,
      "त्थ": 1087,
      "ब्ध": 1088,
      "पद्म": 1089,
      "भूमि": 1090,
      "हार": 1091,
      "दृश्य": 1092,
      "नाना": 1093,
      "प्रवि": 1094,
      "याति": 1095,
      "मन्व": 1096,
      "शक्त": 1097,
      "हिता": 1098,
      "मार": 1099,
      "वृष": 1100,
      "मोक्ष": 1101,
      "शृणु": 1102,
      "भ्या": 1103,
      "वर्ष": 1104,
      "जिन": 1105,
      "ज्यो": 1106,
      "श्वा": 1107,
      "माम्": 1108,
      "वान": 1109,
      "वर्ध": 1110,
      "ण्ठ": 1111,
      "एवम्": 1112,
      "र्ज": 1113,
      "कट": 1114,
      "तर": 1115,
      "स̍": 1116,
      "स्यात्": 1117,
      "ज̍": 1118,
      "लः": 1119,
      "िति": 1120,
      "कला": 1121,
      "निरा": 1122,
      "शोभ": 1123,
      "शङ्": 1124,
      "न्ती": 1125,
      "चापि": 1126,
      "स्त्रि": 1127,
      "स्क": 1128,
      "कुर्व": 1129,
      "कान्त": 1130,
      "हस्त": 1131,
      "त्रै": 1132,
      "वेश": 1133,
      "भाष": 1134,
      "उवाच": 1135,
      "तया": 1136,
      "भय": 1137,
      "मन्य": 1138,
      "ङ्गु": 1139,
      "पदा": 1140,
      "कोटि": 1141,
      "भोग": 1142,
      "नैव": 1143,
      "कुर्या": 1144,
      "ोद": 1145,
      "राव": 1146,
      "निर्म": 1147,
      "णाः": 1148,
      "सोम": 1149,
      "द्यु": 1150,
      "दोष": 1151,
      "त̍": 1152,
      "त̱": 1153,
      "ज्ञानं": 1154,
      "स्थिता": 1155,
      "भ्यः": 1156,
      "पूर": 1157,
      "मुनि": 1158,
      "कर्ण": 1159,
      "ान्व": 1160,
      "भगवान्": 1161,
      "एवा": 1162,
      "व्यो": 1163,
      "वर्तते": 1164,
      "मोह": 1165,
      "वा̍": 1166,
      "काय": 1167,
      "ब्रवीत्": 1168,
      "याव": 1169,
      "त्वे": 1170,
      "कदा": 1171,
      "गतं": 1172,
      "प्रसा": 1173,
      "प्रती": 1174,
      "प्रभु": 1175,
      "योर्": 1176,
      "जय": 1177,
      "मध्ये": 1178,
      "ित्य": 1179,
      "परमा": 1180,
      "त्ये": 1181,
      "उद्": 1182,
      "दण्ड": 1183,
      "कुश": 1184,
      "त्वां": 1185,
      "पौ": 1186,
      "भं": 1187,
      "वरा": 1188,
      "वक्ष": 1189,
      "तुम्": 1190,
      "गौ": 1191,
      "तू": 1192,
      "अस्य": 1193,
      "अग्ने": 1194,
      "विर": 1195,
      "सुरा": 1196,
      "द्यो": 1197,
      "शत्र": 1198,
      "करु": 1199,
      "न̱": 1200,
      "तानि": 1201,
      "क्रि": 1202,
      "वाह": 1203,
      "च्छे": 1204,
      "घ्र": 1205,
      "लित": 1206,
      "स्त्री": 1207,
      "̍य": 1208,
      "अना": 1209,
      "पद्य": 1210,
      "पतिः": 1211,
      "̍व": 1212,
      "गम": 1213,
      "भर्": 1214,
      "मद": 1215,
      "द्वित": 1216,
      "करण": 1217,
      "पुष्प": 1218,
      "सत्त्वा": 1219,
      "जम्": 1220,
      "बला": 1221,
      "वने": 1222,
      "िः": 1223,
      "पार": 1224,
      "द्वी": 1225,
      "ल्ल": 1226,
      "इवा": 1227,
      "स्वयं": 1228,
      "बाहु": 1229,
      "ऽथ": 1230,
      "ति̱": 1231,
      "नात्": 1232,
      "कृत्य": 1233,
      "̱द्": 1234,
      "अहो": 1235,
      "पश": 1236,
      "मय": 1237,
      "विप्र": 1238,
      "खे": 1239,
      "चक्षु": 1240,
      "भैर": 1241,
      "विधा": 1242,
      "नाश": 1243,
      "श्वरः": 1244,
      "मृत": 1245,
      "च̍": 1246,
      "्यम्": 1247,
      "रस्य": 1248,
      "।॥": 1249,
      "योगि": 1250,
      "मपि": 1251,
      "वह": 1252,
      "ऽहं": 1253,
      "प्राण": 1254,
      "̱त्र": 1255,
      "अत्र": 1256,
      "गम्": 1257,
      "दशा": 1258,
      "कृत्": 1259,
      "बृह": 1260,
      "असि": 1261,
      "ैस्": 1262,
      "ग्री": 1263,
      "भेद": 1264,
      "आयु": 1265,
      "वाक": 1266,
      "कारण": 1267,
      "येद्": 1268,
      "विज": 1269,
      "साग": 1270,
      "कोट": 1271,
      "अग्नि": 1272,
      "धन": 1273,
      "स्ना": 1274,
      "तेज": 1275,
      "सद्": 1276,
      "मास": 1277,
      "ष्टो": 1278,
      "लक्ष्म": 1279,
      "संश": 1280,
      "क्षेत्र": 1281,
      "स्ये": 1282,
      "र्थे": 1283,
      "श्रेष्ठ": 1284,
      "अहम्": 1285,
      "धः": 1286,
      "पुण": 1287,
      "तथैव": 1288,
      "पदं": 1289,
      "जात": 1290,
      "त्प": 1291,
      "̱र": 1292,
      "अवि": 1293,
      "तर्": 1294,
      "वत्स": 1295,
      "विष्णु": 1296,
      "सङ्": 1297,
      "न्तः": 1298,
      "मानो": 1299,
      "क्रम": 1300,
      "भौ": 1301,
      "देवो": 1302,
      "एतत्": 1303,
      "ण्व": 1304,
      "पथ": 1305,
      "संसार": 1306,
      "मानु": 1307,
      "गृही": 1308,
      "सिंह": 1309,
      "र्था": 1310,
      "वां": 1311,
      "ज्ज": 1312,
      "ध्रु": 1313,
      "णेन": 1314,
      "स्ती": 1315,
      "तुः": 1316,
      "परे": 1317,
      "एतद्": 1318,
      "गुणा": 1319,
      "करा": 1320,
      "षं": 1321,
      "देवं": 1322,
      "मुक्ति": 1323,
      "̱ष": 1324,
      "करि": 1325,
      "द̍": 1326,
      "्यो": 1327,
      "्याः": 1328,
      "काले": 1329,
      "सर्वान्": 1330,
      "ग्ध": 1331,
      "यान": 1332,
      "शै": 1333,
      "विकल्प": 1334,
      "कै": 1335,
      "यꣳ": 1336,
      "परम": 1337,
      "स्थि": 1338,
      "पक्ष": 1339,
      "राघ": 1340,
      "क्री": 1341,
      "प्नो": 1342,
      "अग्र": 1343,
      "समन्व": 1344,
      "सम्य": 1345,
      "उद": 1346,
      "भार": 1347,
      "सहस्रा": 1348,
      "नमस्ते": 1349,
      "ऽसौ": 1350,
      "तेषु": 1351,
      "त्री": 1352,
      "ेषां": 1353,
      "रक्त": 1354,
      "ष्णा": 1355,
      "क्रु": 1356,
      "मिति": 1357,
      "ो̍": 1358,
      "माय": 1359,
      "नास्ति": 1360,
      "न्तम्": 1361,
      "यामि": 1362,
      "नमस्": 1363,
      "मानः": 1364,
      "शास": 1365,
      "तस्मात्": 1366,
      "गिरि": 1367,
      "ष्यामि": 1368,
      "त्स": 1369,
      "सो̱": 1370,
      "रूपे": 1371,
      "भगव": 1372,
      "अङ्ग": 1373,
      "तनु": 1374,
      "भावे": 1375,
      "ग्निर्": 1376,
      "कर्त": 1377,
      "रात्": 1378,
      "श्रो": 1379,
      "अ̱भि": 1380,
      "बाल": 1381,
      "फलं": 1382,
      "ना̱": 1383,
      "तार": 1384,
      "क्रान्त": 1385,
      "स्थितम्": 1386,
      "लव": 1387,
      "कृते": 1388,
      "भवत्": 1389,
      "क्लेश": 1390,
      "टे": 1391,
      "निय": 1392,
      "साम्": 1393,
      "युग": 1394,
      "नो̍": 1395,
      "वायु": 1396,
      "धातु": 1397,
      "रूपि": 1398,
      "भविष्यति": 1399,
      "भज": 1400,
      "ऽयं": 1401,
      "पाय": 1402,
      "स्वभाव": 1403,
      "पाणि": 1404,
      "देन": 1405,
      "पुत्रा": 1406,
      "प्ता": 1407,
      "लम्ब": 1408,
      "कण्ठ": 1409,
      "तम": 1410,
      "सत": 1411,
      "र्घ": 1412,
      "त्वात्": 1413,
      "समी": 1414,
      "नृप": 1415,
      "तस्मिन्": 1416,
      "नान": 1417,
      "यस्या": 1418,
      "वपु": 1419,
      "न्द्रि": 1420,
      "शून्य": 1421,
      "भः": 1422,
      "ह्र": 1423,
      "ऽन्य": 1424,
      "कृतम्": 1425,
      "च्छि": 1426,
      "वीर": 1427,
      "द्विती": 1428,
      "आ̱": 1429,
      "तै": 1430,
      "तन्त": 1431,
      "परमे": 1432,
      "̍ण": 1433,
      "ोर्": 1434,
      "याम": 1435,
      "शिवा": 1436,
      "मित्त": 1437,
      "मरु": 1438,
      "यान्": 1439,
      "षः": 1440,
      "ञ्चा": 1441,
      "पूर्वं": 1442,
      "अयं": 1443,
      "प्रवृत्त": 1444,
      "नार": 1445,
      "अर्थ": 1446,
      "अस्तु": 1447,
      "इ̍": 1448,
      "उक्त": 1449,
      "धर": 1450,
      "मात": 1451,
      "त्ता": 1452,
      "र्यं": 1453,
      "मेण": 1454,
      "पृथिवी": 1455,
      "गतो": 1456,
      "तद्व": 1457,
      "नरा": 1458,
      "साधु": 1459,
      "स्थं": 1460,
      "रणे": 1461,
      "द्विज": 1462,
      "इदम्": 1463,
      "वाः": 1464,
      "सर्वत्र": 1465,
      "विद्यते": 1466,
      "अद्य": 1467,
      "ऋ̱": 1468,
      "बभू": 1469,
      "ित्त": 1470,
      "स्थिताः": 1471,
      "नो̱": 1472,
      "नमस्तस्य": 1473,
      "प्नु": 1474,
      "युक्तं": 1475,
      "निर्वृ": 1476,
      "नमस्तस्यै": 1477,
      "मा̍": 1478,
      "मुनी": 1479,
      "ग्न": 1480,
      "कीर्": 1481,
      "चित्तं": 1482,
      "प̍": 1483,
      "ष्या": 1484,
      "हरे": 1485,
      "विद": 1486,
      "तीर्थ": 1487,
      "मृग": 1488,
      "गृह": 1489,
      "एका": 1490,
      "विशुद्ध": 1491,
      "वाक्य": 1492,
      "न्त्य्": 1493,
      "प्राप्य": 1494,
      "वृ̱": 1495,
      "चण्ड": 1496,
      "ऽसि": 1497,
      "वार": 1498,
      "नापि": 1499,
      "श्रि": 1500,
      "मोद": 1501,
      "मूल": 1502,
      "अथा": 1503,
      "ान्य्": 1504,
      "विषा": 1505,
      "माता": 1506,
      "स्त्रा": 1507,
      "स्वर्ग": 1508,
      "समुद्र": 1509,
      "ध्": 1510,
      "पदे": 1511,
      "षट्": 1512,
      "विनि": 1513,
      "समन्त": 1514,
      "स्मर": 1515,
      "दे̱व": 1516,
      "तच्": 1517,
      "त्मनः": 1518,
      "कारा": 1519,
      "स्वप्": 1520,
      "हेतु": 1521,
      "भविष्य": 1522,
      "कैः": 1523,
      "गत्वा": 1524,
      "प्रभो": 1525,
      "प्रकाश": 1526,
      "क्षं": 1527,
      "यु̱": 1528,
      "तस्मै": 1529,
      "बुद्धि": 1530,
      "शब्द": 1531,
      "छि": 1532,
      "न्ग्": 1533,
      "मार्": 1534,
      "जित": 1535,
      "सित": 1536,
      "सकल": 1537,
      "णात्": 1538,
      "स्व̱": 1539,
      "द्वे": 1540,
      "ान्ते": 1541,
      "अवा": 1542,
      "करं": 1543,
      "श्या": 1544,
      "ेति": 1545,
      "ैश्च": 1546,
      "तत्रा": 1547,
      "मयि": 1548,
      "सर्वदा": 1549,
      "नीम्": 1550,
      "सृज": 1551,
      "अध": 1552,
      "आग": 1553,
      "गति": 1554,
      "विंश": 1555,
      "परः": 1556,
      "क्रा": 1557,
      "श्वे": 1558,
      "षाम्": 1559,
      "गृह्": 1560,
      "म्यहम्": 1561,
      "वह्": 1562,
      "ऽनु": 1563,
      "प्रदा": 1564,
      "महो": 1565,
      "भवन्ति": 1566,
      "ल्प": 1567,
      "मृत्य": 1568,
      "रा̱": 1569,
      "दार": 1570,
      "द्यं": 1571,
      "केश": 1572,
      "मूढ": 1573,
      "मूर्ध": 1574,
      "कर्मा": 1575,
      "पदम्": 1576,
      "ताप": 1577,
      "पार्": 1578,
      "ान्ध": 1579,
      "भि̱र्": 1580,
      "योगा": 1581,
      "ज्ञो": 1582,
      "ध्यान": 1583,
      "अप्य्": 1584,
      "मति": 1585,
      "निरु": 1586,
      "̱न": 1587,
      "प्र̱": 1588,
      "ज्ञाना": 1589,
      "पूजा": 1590,
      "समाधि": 1591,
      "̱ह": 1592,
      "म्बु": 1593,
      "प्रय": 1594,
      "कारि": 1595,
      "स्वयम्": 1596,
      "व्रज": 1597,
      "पश्चा": 1598,
      "वि̍": 1599,
      "प्रस": 1600,
      "वापि": 1601,
      "ता̍": 1602,
      "त्मना": 1603,
      "सुखा": 1604,
      "कल्या": 1605,
      "जगा": 1606,
      "पत्त": 1607,
      "लङ्": 1608,
      "ष्व्": 1609,
      "नाराय": 1610,
      "महत्": 1611,
      "भुवन": 1612,
      "गृह्य": 1613,
      "ज्वल": 1614,
      "त्वाम्": 1615,
      "ब्रू": 1616,
      "̱ना": 1617,
      "चू": 1618,
      "पय": 1619,
      "वादि": 1620,
      "ग्राह": 1621,
      "नैः": 1622,
      "भम्": 1623,
      "ऽस्मि": 1624,
      "शास्त्र": 1625,
      "ऽभि": 1626,
      "मुने": 1627,
      "भि̍र्": 1628,
      "जाः": 1629,
      "लाः": 1630,
      "चारि": 1631,
      "वृक्ष": 1632,
      "अक्ष": 1633,
      "आश्र": 1634,
      "बहि": 1635,
      "सै": 1636,
      "श्म": 1637,
      "कर्ष": 1638,
      "सुखं": 1639,
      "बीज": 1640,
      "दय": 1641,
      "दैव": 1642,
      "पट": 1643,
      "मत्त": 1644,
      "पितृ": 1645,
      "करोति": 1646,
      "आह": 1647,
      "लब्ध": 1648,
      "प्रकृ": 1649,
      "नाभि": 1650,
      "कारं": 1651,
      "पुरो": 1652,
      "लोच": 1653,
      "मानि": 1654,
      "शुचि": 1655,
      "स्याद्": 1656,
      "कन": 1657,
      "रज": 1658,
      "विविध": 1659,
      "याद्": 1660,
      "शिख": 1661,
      "ब्राह्मण": 1662,
      "तस्माद्": 1663,
      "बभूव": 1664,
      "षड": 1665,
      "र्च": 1666,
      "साम": 1667,
      "दां": 1668,
      "प्नोति": 1669,
      "तन": 1670,
      "तैः": 1671,
      "वस्तु": 1672,
      "ित्व": 1673,
      "संप्र": 1674,
      "त्तु": 1675,
      "त्तमम्": 1676,
      "योनि": 1677,
      "ान्तं": 1678,
      "रण्य": 1679,
      "दैत्य": 1680,
      "अभ्य": 1681,
      "छा": 1682,
      "निह": 1683,
      "कुसु": 1684,
      "वो̱": 1685,
      "गन्धर्व": 1686,
      "स्त्वं": 1687,
      "अस": 1688,
      "्यते": 1689,
      "लोका": 1690,
      "धाय": 1691,
      "मनसा": 1692,
      "प्रिय": 1693,
      "प्रिये": 1694,
      "क्रोध": 1695,
      "क̱": 1696,
      "म्य्": 1697,
      "द्भव": 1698,
      "स्तं": 1699,
      "स्वि": 1700,
      "शुभा": 1701,
      "सूक्ष्": 1702,
      "प्रतिष्ठ": 1703,
      "स्मै": 1704,
      "क्तो": 1705,
      "आसी": 1706,
      "घु": 1707,
      "मथ": 1708,
      "ममा": 1709,
      "मन्द": 1710,
      "भूत्वा": 1711,
      "दृश": 1712,
      "गः": 1713,
      "ताव": 1714,
      "संस्": 1715,
      "अब्रवीत्": 1716,
      "गं": 1717,
      "हः": 1718,
      "वारि": 1719,
      "पतिर्": 1720,
      "संशयः": 1721,
      "सततं": 1722,
      "ओष": 1723,
      "रति": 1724,
      "माला": 1725,
      "ङ्गं": 1726,
      "भगवन्": 1727,
      "वचनं": 1728,
      "संनि": 1729,
      "प्तं": 1730,
      "दृढ": 1731,
      "निमित्त": 1732,
      "युः": 1733,
      "भवान्": 1734,
      "ध्वं": 1735,
      "धीः": 1736,
      "इन्द्रा": 1737,
      "उ̱त": 1738,
      "वनं": 1739,
      "ित्": 1740,
      "द्भु": 1741,
      "ते̍": 1742,
      "ता̱": 1743,
      "त्तम": 1744,
      "त्वत्": 1745,
      "भूता": 1746,
      "रीं": 1747,
      "च्यु": 1748,
      "षोड": 1749,
      "हर्ष": 1750,
      "िताम्": 1751,
      "र्थः": 1752,
      "प्स": 1753,
      "ईश": 1754,
      "भ्यं": 1755,
      "वल": 1756,
      "सन": 1757,
      "सा̱": 1758,
      "परो": 1759,
      "कुण्ड": 1760,
      "वृद्ध": 1761,
      "कार्यं": 1762,
      "या̍": 1763,
      "पु̱": 1764,
      "महान्": 1765,
      "सर्वम्": 1766,
      "त्वयि": 1767,
      "न्द्रा": 1768,
      "भक्त्या": 1769,
      "बलि": 1770,
      "वयं": 1771,
      "विन्द": 1772,
      "प्रज्ञा": 1773,
      "न्दा": 1774,
      "राध": 1775,
      "परी": 1776,
      "दीर्घ": 1777,
      "अष्ट": 1778,
      "उ̍": 1779,
      "उच्यते": 1780,
      "यश्": 1781,
      "वरं": 1782,
      "संयु": 1783,
      "तो̱": 1784,
      "र्थो": 1785,
      "लोकं": 1786,
      "घ्न": 1787,
      "दद्या": 1788,
      "शतं": 1789,
      "द्ग": 1790,
      "स्यो": 1791,
      "पुं": 1792,
      "मुप": 1793,
      "ष्यते": 1794,
      "सुखम्": 1795,
      "बोधिसत्त्व": 1796,
      "सत्यं": 1797,
      "प्रज": 1798,
      "ष्ट्र": 1799,
      "दिश": 1800,
      "भूतं": 1801,
      "युद्ध": 1802,
      "अपा": 1803,
      "ददा": 1804,
      "यद्य": 1805,
      "ाने": 1806,
      "विन": 1807,
      "विशा": 1808,
      "विनिर्": 1809,
      "न्धा": 1810,
      "ना̍": 1811,
      "र्णं": 1812,
      "तृती": 1813,
      "कुरुते": 1814,
      "अभ": 1815,
      "कपि": 1816,
      "यच्": 1817,
      "्वि": 1818,
      "श्रू": 1819,
      "चिन्": 1820,
      "ब्रु": 1821,
      "निर्वा": 1822,
      "तन्त्र": 1823,
      "धौ": 1824,
      "धनु": 1825,
      "बलं": 1826,
      "रित": 1827,
      "नाद": 1828,
      "नाव": 1829,
      "क्षण": 1830,
      "ताल": 1831,
      "संसा": 1832,
      "मेन": 1833,
      "गते": 1834,
      "नमे": 1835,
      "रश्": 1836,
      "ैवा": 1837,
      "वासि": 1838,
      "पार्थि": 1839,
      "देहि": 1840,
      "पिब": 1841,
      "ज्ञः": 1842,
      "चार्य": 1843,
      "विश्वं": 1844,
      "बिन्दु": 1845,
      "ऋषि": 1846,
      "यान्ति": 1847,
      "मुच्यते": 1848,
      "मानम्": 1849,
      "ततस्": 1850,
      "दिव": 1851,
      "किल": 1852,
      "पीठ": 1853,
      "द्वादश": 1854,
      "लक्षण": 1855,
      "क्रुद्ध": 1856,
      "अम": 1857,
      "चरण": 1858,
      "तपो": 1859,
      "पठ": 1860,
      "यश्च": 1861,
      "शान्ति": 1862,
      "सेन": 1863,
      "र्द": 1864,
      "स्य̍": 1865,
      "च्छ्र": 1866,
      "वचः": 1867,
      "तैर्": 1868,
      "नस्": 1869,
      "नदी": 1870,
      "पत्ति": 1871,
      "म्र": 1872,
      "प्रणि": 1873,
      "रात्र": 1874,
      "भिन्": 1875,
      "व्य्": 1876,
      "पृष्ठ": 1877,
      "अनन्त": 1878,
      "नमाम्यहम्": 1879,
      "वक्त्र": 1880,
      "̱वा": 1881,
      "अह": 1882,
      "ययौ": 1883,
      "हति": 1884,
      "हिं": 1885,
      "सो̍": 1886,
      "गाः": 1887,
      "ञ्जलि": 1888,
      "दित्य": 1889,
      "लक्ष्मी": 1890,
      "आत्मा": 1891,
      "एको": 1892,
      "यज": 1893,
      "प्रकीर्त": 1894,
      "मा̱": 1895,
      "क्ष्ण": 1896,
      "ष्टु": 1897,
      "सत्व": 1898,
      "वाम": 1899,
      "पाश": 1900,
      "तुल": 1901,
      "क्रमात्": 1902,
      "समं": 1903,
      "रूपेण": 1904,
      "̍न": 1905,
      "ख्यं": 1906,
      "गताः": 1907,
      "मिदं": 1908,
      "भोज": 1909,
      "स्मृतः": 1910,
      "दृश्यते": 1911,
      "वाक्यं": 1912,
      "कम": 1913,
      "चु": 1914,
      "रसं": 1915,
      "शरण": 1916,
      "हितः": 1917,
      "ानन्द": 1918,
      "कृ̱": 1919,
      "सिन्ध": 1920,
      "चारु": 1921,
      "अव्य": 1922,
      "तत्त": 1923,
      "शरणं": 1924,
      "ऽप्य्": 1925,
      "कामा": 1926,
      "कालं": 1927,
      "साह": 1928,
      "द्धृ": 1929,
      "केव": 1930,
      "अने": 1931,
      "कान्": 1932,
      "गतम्": 1933,
      "धरा": 1934,
      "ऽन": 1935,
      "स्पर्": 1936,
      "क्ल": 1937,
      "नात्र": 1938,
      "मुहु": 1939,
      "रुण": 1940,
      "द्वै": 1941,
      "रणी": 1942,
      "वित्": 1943,
      "ज्योति": 1944,
      "प्रभुः": 1945,
      "खलु": 1946,
      "ानी": 1947,
      "विपु": 1948,
      "निज": 1949,
      "कारो": 1950,
      "स्य्": 1951,
      "पाव": 1952,
      "देशे": 1953,
      "मुञ्च": 1954,
      "यो̱": 1955,
      "सर्वसत्त्व": 1956,
      "त्वद्": 1957,
      "पूर्वा": 1958,
      "न्य्": 1959,
      "̱तꣳ": 1960,
      "ऊर्ध्व": 1961,
      "द̱": 1962,
      "वश": 1963,
      "माण": 1964,
      "सु̍": 1965,
      "पाः": 1966,
      "दिव्या": 1967,
      "भास": 1968,
      "श्रव": 1969,
      "स्थितो": 1970,
      "श्वरम्": 1971,
      "नीं": 1972,
      "प्ति": 1973,
      "ज्ञात्वा": 1974,
      "व्रत": 1975,
      "कर्मणा": 1976,
      "पश्यति": 1977,
      "स्थिति": 1978,
      "धेन": 1979,
      "विष्ट": 1980,
      "त्तर": 1981,
      "परमं": 1982,
      "नेत्र": 1983,
      "द्वेष": 1984,
      "वर्च": 1985,
      "वर्ति": 1986,
      "शोध": 1987,
      "धर्मं": 1988,
      "मण्डल": 1989,
      "गग": 1990,
      "दक्ष": 1991,
      "धं": 1992,
      "न̍": 1993,
      "शक्र": 1994,
      "सन्त": 1995,
      "ऽस्ति": 1996,
      "ोः": 1997,
      "विक्र": 1998,
      "विवर्ज": 1999,
      "रुचि": 2000,
      "दुष्": 2001,
      "दुर्ग": 2002,
      "रूढ": 2003,
      "राजन्": 2004,
      "वो̍": 2005,
      "अनि": 2006,
      "अमृ": 2007,
      "घट": 2008,
      "चल": 2009,
      "नान्य": 2010,
      "पशु": 2011,
      "हितं": 2012,
      "र्णा": 2013,
      "ित्वा": 2014,
      "विभूष": 2015,
      "नि̱": 2016,
      "द्रि": 2017,
      "स्वे": 2018,
      "भवद्": 2019,
      "देवीं": 2020,
      "मृत्यु": 2021,
      "य̱ज्ञ": 2022,
      "वक्ष्यामि": 2023,
      "ज्ये": 2024,
      "शौ": 2025,
      "अस्मा": 2026,
      "इद्": 2027,
      "चक्ष": 2028,
      "नग": 2029,
      "पत्य": 2030,
      "यै": 2031,
      "प्रश": 2032,
      "ये̍": 2033,
      "कृतः": 2034,
      "पूज्य": 2035,
      "स्यापि": 2036,
      "अ̱ग्नि": 2037,
      "पीड": 2038,
      "युक्ता": 2039,
      "दत्त्वा": 2040,
      "श्राव": 2041,
      "त्रैलोक्य": 2042,
      "̱न्": 2043,
      "एते": 2044,
      "पञ्चा": 2045,
      "र̍": 2046,
      "वरे": 2047,
      "वशा": 2048,
      "सुन्द": 2049,
      "साद": 2050,
      "रेव": 2051,
      "तीं": 2052,
      "ख्यातं": 2053,
      "वन्दे": 2054,
      "अश्वि": 2055,
      "अशेष": 2056,
      "आदि": 2057,
      "मङ्ग": 2058,
      "स्त्य": 2059,
      "चोद": 2060,
      "करुणा": 2061,
      "अत": 2062,
      "प्या": 2063,
      "यस्मा": 2064,
      "षम्": 2065,
      "ष्म": 2066,
      "रोच": 2067,
      "घोर": 2068,
      "जेत्": 2069,
      "पुण्यं": 2070,
      "̍द्": 2071,
      "गण्ड": 2072,
      "गङ्गा": 2073,
      "यानि": 2074,
      "संज्ञ": 2075,
      "भार्या": 2076,
      "महाबल": 2077,
      "ङ्गि": 2078,
      "गोच": 2079,
      "खिल": 2080,
      "कस्": 2081,
      "कन्या": 2082,
      "खण्ड": 2083,
      "यव": 2084,
      "यतो": 2085,
      "हत": 2086,
      "ऽव": 2087,
      "पिण्ड": 2088,
      "स्थो": 2089,
      "ैवं": 2090,
      "योगेन": 2091,
      "चिन्ता": 2092,
      "̍न्": 2093,
      "ख्ये": 2094,
      "गम्य": 2095,
      "नाद्": 2096,
      "कुले": 2097,
      "सिद्धा": 2098,
      "शङ्ख": 2099,
      "::": 2100,
      "दधि": 2101,
      "यक्ष": 2102,
      "सक": 2103,
      "ितैः": 2104,
      "संभव": 2105,
      "मुदा": 2106,
      "ष्टे": 2107,
      "मेघ": 2108,
      "बुद्धा": 2109,
      "जगद्": 2110,
      "विषय": 2111,
      "लभते": 2112,
      "सहस्राणि": 2113,
      "नस्य": 2114,
      "पम्": 2115,
      "भि̍ः": 2116,
      "धाव": 2117,
      "चरेत्": 2118,
      "अज": 2119,
      "अस्या": 2120,
      "ण्य्": 2121,
      "वस्त्र": 2122,
      "कार्": 2123,
      "पादा": 2124,
      "कृपा": 2125,
      "कुमा": 2126,
      "स्थे": 2127,
      "रि̍": 2128,
      "र्थम्": 2129,
      "प्रार्थ": 2130,
      "लोकनाथ": 2131,
      "दृष्टि": 2132,
      "वृत्ति": 2133,
      "पृथक्": 2134,
      "अप्र": 2135,
      "कथा": 2136,
      "चान": 2137,
      "पन्न": 2138,
      "यश": 2139,
      "माल": 2140,
      "काञ्च": 2141,
      "साद्य": 2142,
      "रोह": 2143,
      "नील": 2144,
      "किञ्": 2145,
      "पृच्छ": 2146,
      "हृदि": 2147,
      "चेत्": 2148,
      "पुरुषा": 2149,
      "चक्रे": 2150,
      "अभू": 2151,
      "इच्छ": 2152,
      "करः": 2153,
      "जने": 2154,
      "तदु": 2155,
      "भेष": 2156,
      "्यः": 2157,
      "विज्ञे": 2158,
      "कार्या": 2159,
      "दारु": 2160,
      "द्रष्ट": 2161,
      "सर्वेषां": 2162,
      "व्यम्": 2163,
      "शिर": 2164,
      "हाय": 2165,
      "र्धं": 2166,
      "दे̱वा": 2167,
      "श्चापि": 2168,
      "सन्नि": 2169,
      "शत्रु": 2170,
      "तान": 2171,
      "पान": 2172,
      "मद्": 2173,
      "ह्या": 2174,
      "ेः": 2175,
      "काम्": 2176,
      "भावो": 2177,
      "मनी": 2178,
      "भुज": 2179,
      "हेम": 2180,
      "दशबल": 2181,
      "इत्य": 2182,
      "दध": 2183,
      "दन्त": 2184,
      "दया": 2185,
      "शक्य": 2186,
      "ोत्": 2187,
      "तात": 2188,
      "दुष्ट": 2189,
      "श्वरं": 2190,
      "क्षिप्र": 2191,
      "वित्र": 2192,
      "̍स्य": 2193,
      "जपे": 2194,
      "तवा": 2195,
      "मना": 2196,
      "यतां": 2197,
      "ैर्य": 2198,
      "र्क": 2199,
      "र्वी": 2200,
      "द्धर्म": 2201,
      "दानं": 2202,
      "धर्मे": 2203,
      "गच्छति": 2204,
      "स्फुट": 2205,
      "ज̱": 2206,
      "थो": 2207,
      "पला": 2208,
      "पयेत्": 2209,
      "म्या": 2210,
      "सꣳ": 2211,
      "ह्ये": 2212,
      "ऽप्य": 2213,
      "निशा": 2214,
      "संवि": 2215,
      "संज्ञा": 2216,
      "पुरं": 2217,
      "स्थः": 2218,
      "महात्मनः": 2219,
      "शील": 2220,
      "मुखं": 2221,
      "पुत्रो": 2222,
      "गर्भ": 2223,
      "वरम्": 2224,
      "म्भो": 2225,
      "विल": 2226,
      "स्प": 2227,
      "ग्रहा": 2228,
      "बाध": 2229,
      "सृष्टि": 2230,
      "अन्तर्": 2231,
      "मूर्ति": 2232,
      "जगाम": 2233,
      "̍र": 2234,
      "उक्त्वा": 2235,
      "चत्वा": 2236,
      "णस्य": 2237,
      "भयं": 2238,
      "भरण": 2239,
      "मतः": 2240,
      "विभु": 2241,
      "विस्म": 2242,
      "देवता": 2243,
      "ण्डु": 2244,
      "पन्नं": 2245,
      "मुनीन्द्र": 2246,
      "चरा": 2247,
      "तमो": 2248,
      "तरं": 2249,
      "सना": 2250,
      "ानने": 2251,
      "प्रवर्तते": 2252,
      "मारु": 2253,
      "युर्": 2254,
      "ेषा": 2255,
      "सेत्": 2256,
      "सीद": 2257,
      "समुद्": 2258,
      "क्वचित्": 2259,
      "स्वाहा": 2260,
      "वह्नि": 2261,
      "अस्ति": 2262,
      "पव": 2263,
      "यन्ते": 2264,
      "शꣳ": 2265,
      "प्रयत्": 2266,
      "वाचा": 2267,
      "साः": 2268,
      "दा̱": 2269,
      "दाः": 2270,
      "ष्टः": 2271,
      "रु̱": 2272,
      "णाय": 2273,
      "सर्वभूत": 2274,
      "स्वर्": 2275,
      "ान्तर": 2276,
      "ग्रे": 2277,
      "सहसा": 2278,
      "ध्यते": 2279,
      "कथम्": 2280,
      "सरस्व": 2281,
      "दक्षिणे": 2282,
      "बृहस्": 2283,
      "फला": 2284,
      "मयं": 2285,
      "शङ्क": 2286,
      "सति": 2287,
      "ेत्": 2288,
      "निश": 2289,
      "यामास": 2290,
      "तु̱": 2291,
      "त्वि": 2292,
      "कुट": 2293,
      "स्थानं": 2294,
      "पेक्ष": 2295,
      "मुखा": 2296,
      "क्रीड": 2297,
      "खड्": 2298,
      "र्षि": 2299,
      "वाय": 2300,
      "तारा": 2301,
      "पुट": 2302,
      "क्तम्": 2303,
      "श्वर्य": 2304,
      "सूत्र": 2305,
      "समुत्": 2306,
      "प्रिया": 2307,
      "उद्य": 2308,
      "एषा": 2309,
      "नान्": 2310,
      "वन्द": 2311,
      "ऽस्य": 2312,
      "्यु": 2313,
      "विस्त": 2314,
      "विज्ञा": 2315,
      "या̱": 2316,
      "कृप": 2317,
      "त्वꣳ": 2318,
      "धारा": 2319,
      "मोच": 2320,
      "ेष्व्": 2321,
      "स्मान्": 2322,
      "ज्यते": 2323,
      "दिति": 2324,
      "आहु": 2325,
      "ऋष": 2326,
      "पल": 2327,
      "वल्": 2328,
      "ऽहम्": 2329,
      "ेर्": 2330,
      "विचित्र": 2331,
      "भिश्": 2332,
      "ङ्कु": 2333,
      "स्थितं": 2334,
      "गुरो": 2335,
      "गुणो": 2336,
      "परि̍": 2337,
      "राक्षस": 2338,
      "कश्चि": 2339,
      "नख": 2340,
      "पश्चि": 2341,
      "फलम्": 2342,
      "भक्ष": 2343,
      "मर": 2344,
      "ऽस्मिन्": 2345,
      "ेन्द्र": 2346,
      "ित्र": 2347,
      "नामा": 2348,
      "तेना": 2349,
      "तुल्य": 2350,
      "परस्": 2351,
      "धिष्ठ": 2352,
      "भूयो": 2353,
      "चिद": 2354,
      "दीप": 2355,
      "गोप": 2356,
      "गृहे": 2357,
      "श्रीमान्": 2358,
      "प्नुयात्": 2359,
      "त्ते": 2360,
      "मिथ": 2361,
      "दि̍": 2362,
      "द्वय": 2363,
      "ग्रन्": 2364,
      "देवस्य": 2365,
      "न्यो": 2366,
      "कर्ता": 2367,
      "जगन्": 2368,
      "वित्त": 2369,
      "पुरुषो": 2370,
      "प्रमाण": 2371,
      "ज्वा": 2372,
      "तले": 2373,
      "ददर्श": 2374,
      "रवि": 2375,
      "श̱": 2376,
      "सन्ति": 2377,
      "ह्वा": 2378,
      "ऽत्र": 2379,
      "कृतो": 2380,
      "कुम्भ": 2381,
      "क्षिप्त": 2382,
      "अथो": 2383,
      "चिन्त्य": 2384,
      "गम्भी": 2385,
      "अनेन": 2386,
      "उत": 2387,
      "यद": 2388,
      "वस्य": 2389,
      "सदृ": 2390,
      "विप्रा": 2391,
      "सुत": 2392,
      "सुहृ": 2393,
      "मुद्रा": 2394,
      "द्रो": 2395,
      "द्रव्य": 2396,
      "जाल": 2397,
      "गुह्य": 2398,
      "न्यं": 2399,
      "भुवि": 2400,
      "शोक": 2401,
      "प्रतिष्ठा": 2402,
      "विद्यु": 2403,
      "रूपाय": 2404,
      "स्फुर": 2405,
      "असौ": 2406,
      "आ̍": 2407,
      "करे": 2408,
      "णौ": 2409,
      "धाना": 2410,
      "नभ": 2411,
      "मात्रा": 2412,
      "रामं": 2413,
      "याद": 2414,
      "कुला": 2415,
      "द्यौ": 2416,
      "ञ्छ": 2417,
      "देवः": 2418,
      "मित्रा": 2419,
      "स्वामि": 2420,
      "पद्यते": 2421,
      "समन्ततः": 2422,
      "कमल": 2423,
      "खल": 2424,
      "तꣳ": 2425,
      "लौ": 2426,
      "ऽति": 2427,
      "वासु": 2428,
      "राद्": 2429,
      "रुद्ध": 2430,
      "शु̱": 2431,
      "शिरो": 2432,
      "शिष्य": 2433,
      "वृ̍": 2434,
      "पू̱": 2435,
      "गुणं": 2436,
      "देवाः": 2437,
      "विश्वा̍": 2438,
      "कुर्यात्": 2439,
      "थे": 2440,
      "मयो": 2441,
      "विम": 2442,
      "मालि": 2443,
      "मातृ": 2444,
      "सुग": 2445,
      "संवर": 2446,
      "द्यः": 2447,
      "वृद्धि": 2448,
      "नीय": 2449,
      "स्यां": 2450,
      "सू̱": 2451,
      "दीप्त": 2452,
      "सर्ग": 2453,
      "मुक्ता": 2454,
      "वि̱श्व": 2455,
      "विनाश": 2456,
      "̍ना": 2457,
      "̱व": 2458,
      "अतो": 2459,
      "इत्या": 2460,
      "ग्य": 2461,
      "घन": 2462,
      "जाना": 2463,
      "भ̱": 2464,
      "र्ह": 2465,
      "कृति": 2466,
      "जाता": 2467,
      "हिम": 2468,
      "ान्तरे": 2469,
      "भवेद्": 2470,
      "भ्रम": 2471,
      "मर्त्य": 2472,
      "तत्त्वं": 2473,
      "̱ते": 2474,
      "दद": 2475,
      "नानि": 2476,
      "ष्ये": 2477,
      "त्तमः": 2478,
      "क्ते": 2479,
      "कृणु": 2480,
      "वे̱": 2481,
      "हिरण्य": 2482,
      "श्वरी": 2483,
      "रिणी": 2484,
      "वर्णा": 2485,
      "शाः": 2486,
      "ेष्व": 2487,
      "न्ये": 2488,
      "विश्वे": 2489,
      "उप̍": 2490,
      "चतुर": 2491,
      "दक्षिण": 2492,
      "जनाः": 2493,
      "स्कन्ध": 2494,
      "सम्यक्": 2495,
      "अध्व": 2496,
      "धरो": 2497,
      "लय": 2498,
      "सलि": 2499,
      "प्रह": 2500,
      "प्रका": 2501,
      "शिरसा": 2502,
      "नोप": 2503,
      "समस्त": 2504,
      "मन्त्रा": 2505,
      "योगी": 2506,
      "त्थं": 2507,
      "कश्च": 2508,
      "डि": 2509,
      "वसि": 2510,
      "तिल": 2511,
      "क्षमा": 2512,
      "णाद्": 2513,
      "लक्षणम्": 2514,
      "̱मा": 2515,
      "अं": 2516,
      "अमु": 2517,
      "ज्या": 2518,
      "रपि": 2519,
      "रक्षा": 2520,
      "र्ति": 2521,
      "मामि": 2522,
      "मादि": 2523,
      "द्वन्": 2524,
      "वर्षा": 2525,
      "शुभे": 2526,
      "सूर्या": 2527,
      "गृहा": 2528,
      "भावं": 2529,
      "तिष्ठति": 2530,
      "शरीर": 2531,
      "श्राद्ध": 2532,
      "इमं": 2533,
      "क्वा": 2534,
      "चकार": 2535,
      "तश्": 2536,
      "बहू": 2537,
      "मꣳ": 2538,
      "रथा": 2539,
      "विज्ञान": 2540,
      "नाति": 2541,
      "निषे": 2542,
      "तास्": 2543,
      "कालो": 2544,
      "स्तथ": 2545,
      "पुरे": 2546,
      "ान्न": 2547,
      "दिव्यं": 2548,
      "वेष्ट": 2549,
      "स्व्": 2550,
      "सेव": 2551,
      "म̱रु": 2552,
      "शृङ्ग": 2553,
      "ट्ट": 2554,
      "नित्यम्": 2555,
      "पतेः": 2556,
      "स्थाने": 2557,
      "मूर्ध्": 2558,
      "̱तो": 2559,
      "गज": 2560,
      "जटा": 2561,
      "दयः": 2562,
      "सखा": 2563,
      "राणि": 2564,
      "काङ्": 2565,
      "मुद": 2566,
      "दिने": 2567,
      "रोध": 2568,
      "श्वरो": 2569,
      "रिपु": 2570,
      "मन्ये": 2571,
      "धर्मो": 2572,
      "प्यते": 2573,
      "पराय": 2574,
      "वरानने": 2575,
      "प्रसाद": 2576,
      "̱या": 2577,
      "जरा": 2578,
      "तरु": 2579,
      "नक्ष": 2580,
      "सद्धर्म": 2581,
      "नात्म": 2582,
      "दात्": 2583,
      "रो̍": 2584,
      "श्वि": 2585,
      "शिला": 2586,
      "वृतः": 2587,
      "विधान": 2588,
      "ग्रहः": 2589,
      "अत्य": 2590,
      "एत": 2591,
      "जप": 2592,
      "नरः": 2593,
      "सस्": 2594,
      "सर्वथा": 2595,
      "त्वेन": 2596,
      "स्थू": 2597,
      "माने": 2598,
      "न्ति̱": 2599,
      "ब्ज": 2600,
      "जगति": 2601,
      "इन्द्र̱": 2602,
      "मुखे": 2603,
      "स्थाप": 2604,
      "पुष्पा": 2605,
      "च्छामि": 2606,
      "इ̍न्द्र": 2607,
      "चं": 2608,
      "तल": 2609,
      "धनं": 2610,
      "पङ्क": 2611,
      "भस्म": 2612,
      "वनम्": 2613,
      "शान": 2614,
      "सपत्": 2615,
      "हवि": 2616,
      "हस्ता": 2617,
      "न्दि": 2618,
      "वारा": 2619,
      "त्रय": 2620,
      "भिर": 2621,
      "येषु": 2622,
      "शाय": 2623,
      "शार्": 2624,
      "शिवः": 2625,
      "न्द्रो": 2626,
      "वीरा": 2627,
      "न्दो": 2628,
      "स्रो": 2629,
      "बलेन": 2630,
      "विधिना": 2631,
      "पितामह": 2632,
      "आत्मानं": 2633,
      "इत्यु": 2634,
      "तरा": 2635,
      "दह": 2636,
      "न̍ः": 2637,
      "ितान्": 2638,
      "रामो": 2639,
      "स्तत्र": 2640,
      "जाति": 2641,
      "ष्ठं": 2642,
      "राज्यं": 2643,
      "कम्प": 2644,
      "किंचिद्": 2645,
      "भीष": 2646,
      "स̱ह": 2647,
      "मुक्तो": 2648,
      "यन्ती": 2649,
      "अर्ह": 2650,
      "̱रा": 2651,
      "गरु": 2652,
      "ऽभू": 2653,
      "ितु": 2654,
      "ितौ": 2655,
      "विशि": 2656,
      "वेग": 2657,
      "ान्तः": 2658,
      "प्लु": 2659,
      "नाम्ना": 2660,
      "ननु": 2661,
      "विभो": 2662,
      "प्रया": 2663,
      "प्रवर्त": 2664,
      "माहा": 2665,
      "ताम": 2666,
      "मि̱": 2667,
      "मि̱त्र": 2668,
      "भाति": 2669,
      "स्वं": 2670,
      "क्रू": 2671,
      "धिप": 2672,
      "द्वान्": 2673,
      "महाते": 2674,
      "तथापि": 2675,
      "व्रतं": 2676,
      "अनु̍": 2677,
      "दुःखा": 2678,
      "प्रीति": 2679,
      "भावेन": 2680,
      "अस्त": 2681,
      "अव̍": 2682,
      "उदा": 2683,
      "गतिः": 2684,
      "वदा": 2685,
      "व्रा": 2686,
      "हय": 2687,
      "हर्": 2688,
      "वाम्": 2689,
      "रात्रि": 2690,
      "तावत्": 2691,
      "यावत्": 2692,
      "पां": 2693,
      "ष्टौ": 2694,
      "दिभिः": 2695,
      "प्राणि": 2696,
      "शालि": 2697,
      "ष्ठे": 2698,
      "बुध": 2699,
      "लेप": 2700,
      "समाश्र": 2701,
      "व्याघ्र": 2702,
      "भागे": 2703,
      "पृथिव्या": 2704,
      "रौद्र": 2705,
      "अस्मि": 2706,
      "उग्र": 2707,
      "कश्": 2708,
      "भङ्ग": 2709,
      "स्ने": 2710,
      "न्त्य": 2711,
      "पातु": 2712,
      "संघ": 2713,
      "महद्": 2714,
      "योजन": 2715,
      "प्तो": 2716,
      "बिभ्र": 2717,
      "दुःखं": 2718,
      "̍य̱": 2719,
      "जन्": 2720,
      "नतः": 2721,
      "मता": 2722,
      "यस्मिन्": 2723,
      "ल्या": 2724,
      "सरो": 2725,
      "ुप": 2726,
      "ेव": 2727,
      "विला": 2728,
      "त्सु": 2729,
      "यो̍": 2730,
      "क्रमेण": 2731,
      "बाण": 2732,
      "पश्यन्": 2733,
      "दूष": 2734,
      "गुरुः": 2735,
      "पापं": 2736,
      "धृक्": 2737,
      "स्नात्वा": 2738,
      "अग्": 2739,
      "अयम्": 2740,
      "कानां": 2741,
      "छ्र": 2742,
      "नरे": 2743,
      "मत": 2744,
      "यमा": 2745,
      "यतः": 2746,
      "शक": 2747,
      "सव": 2748,
      "र्मि": 2749,
      "साक्षा": 2750,
      "भि̱ः": 2751,
      "येन्": 2752,
      "सर्वज्ञ": 2753,
      "हि̱": 2754,
      "प्राणा": 2755,
      "तीर्": 2756,
      "ष्ठो": 2757,
      "परिकीर्त": 2758,
      "द्विजो": 2759,
      "धुना": 2760,
      "दुर्लभ": 2761,
      "मर्द": 2762,
      "कूट": 2763,
      "योजयेत्": 2764,
      "पार्श्व": 2765,
      "महाबलः": 2766,
      "करम्": 2767,
      "गदा": 2768,
      "धानं": 2769,
      "पथि": 2770,
      "यता": 2771,
      "सस्य": 2772,
      "सन्ध": 2773,
      "ौघ": 2774,
      "र्प": 2775,
      "विवे": 2776,
      "प्रभृ": 2777,
      "न्धि": 2778,
      "वाद": 2779,
      "काला": 2780,
      "सुरे": 2781,
      "पिशा": 2782,
      "मेरु": 2783,
      "कुलं": 2784,
      "व्यः": 2785,
      "सूत": 2786,
      "बुद्धो": 2787,
      "ष्यन्ति": 2788,
      "कीर्ण": 2789,
      "समुपा": 2790,
      "स्मृति": 2791,
      "स्मृतम्": 2792,
      "अन्यो": 2793,
      "घात": 2794,
      "द्वीप": 2795,
      "असं": 2796,
      "कलि": 2797,
      "चन्द": 2798,
      "ानम्": 2799,
      "ितां": 2800,
      "स्मे": 2801,
      "वाक्": 2802,
      "क्तः": 2803,
      "थाय": 2804,
      "स्वस्ति": 2805,
      "ान्ता": 2806,
      "चित्रा": 2807,
      "त्मनि": 2808,
      "त्राणि": 2809,
      "ष्टाः": 2810,
      "पश्यन्ति": 2811,
      "वक्त्रा": 2812,
      "परमार्थ": 2813,
      "भर्ता": 2814,
      "रूपिणी": 2815,
      "स्पर्श": 2816,
      "अतः": 2817,
      "एकं": 2818,
      "कव": 2819,
      "चर्या": 2820,
      "पर्ण": 2821,
      "य̍ः": 2822,
      "षड्": 2823,
      "म्ना": 2824,
      "मात्रं": 2825,
      "रामः": 2826,
      "क्षणम्": 2827,
      "श्ल": 2828,
      "सुग्री": 2829,
      "कृष्णा": 2830,
      "मेति": 2831,
      "त्रिंश": 2832,
      "दर्शनम्": 2833,
      "द्वार": 2834,
      "पृथि̱": 2835,
      "यथे": 2836,
      "भ्याम्": 2837,
      "ंस्": 2838,
      "अन्ध": 2839,
      "करी": 2840,
      "गमि": 2841,
      "गणा": 2842,
      "नन्त": 2843,
      "सभा": 2844,
      "ह̍": 2845,
      "ताव्": 2846,
      "भिन्न": 2847,
      "दिवि": 2848,
      "द्यते": 2849,
      "मनं": 2850,
      "भुव": 2851,
      "वैराग": 2852,
      "तत्रैव": 2853,
      "रूपम्": 2854,
      "पतिं": 2855,
      "शूल": 2856,
      "चन्द्रा": 2857,
      "कर्माणि": 2858,
      "अग": 2859,
      "इहा": 2860,
      "कैर्": 2861,
      "नरो": 2862,
      "यच्छ": 2863,
      "लभ्य": 2864,
      "समान": 2865,
      "्रि": 2866,
      "प्रसन्": 2867,
      "यातु": 2868,
      "यावद्": 2869,
      "भिक्षु": 2870,
      "रुद्रा": 2871,
      "भूमौ": 2872,
      "वृत्र": 2873,
      "न्यस्य": 2874,
      "चेष्ट": 2875,
      "ख्याता": 2876,
      "माहात्म": 2877,
      "अरि": 2878,
      "इत्ये": 2879,
      "गू": 2880,
      "दधा": 2881,
      "समो": 2882,
      "ऽधि": 2883,
      "नादि": 2884,
      "निष": 2885,
      "पुरी": 2886,
      "ज्ञां": 2887,
      "क्रम्य": 2888,
      "र्यो": 2889,
      "राज्य": 2890,
      "यिष्यामि": 2891,
      "प्रियं": 2892,
      "गृहीत्वा": 2893,
      "̍णा": 2894,
      "घ्रा": 2895,
      "तद्वि": 2896,
      "पदि": 2897,
      "रणा": 2898,
      "लता": 2899,
      "वरो": 2900,
      "ानो": 2901,
      "ान्या": 2902,
      "विपा": 2903,
      "विराज": 2904,
      "क्लि": 2905,
      "पुरः": 2906,
      "मुनिः": 2907,
      "मिव": 2908,
      "मिनी": 2909,
      "वे̍": 2910,
      "सि̱": 2911,
      "धाः": 2912,
      "ङ्गी": 2913,
      "गात्": 2914,
      "प्स्य": 2915,
      "ध्वज": 2916,
      "जिह्वा": 2917,
      "त्यां": 2918,
      "पतिम्": 2919,
      "वज्रा": 2920,
      "प्राप्तो": 2921,
      "कारणम्": 2922,
      "̱ळ": 2923,
      "अन्": 2924,
      "ऊ̱": 2925,
      "नैर्": 2926,
      "लभे": 2927,
      "हितम्": 2928,
      "ऽभवत्": 2929,
      "निवेश": 2930,
      "स्तव": 2931,
      "दे̍": 2932,
      "सर्वलोक": 2933,
      "क्रतु": 2934,
      "जातु": 2935,
      "लाव": 2936,
      "धाम": 2937,
      "द्वयं": 2938,
      "प्राह": 2939,
      "भवः": 2940,
      "शुक्ल": 2941,
      "शिखा": 2942,
      "षा̱": 2943,
      "श्रुति": 2944,
      "चतुष्": 2945,
      "पुत्रं": 2946,
      "स्मृता": 2947,
      "पूजयेत्": 2948,
      "प्रणमामि": 2949,
      "बीजं": 2950,
      "च्छेद": 2951,
      "̍ति": 2952,
      "आकाश": 2953,
      "इवो": 2954,
      "कच्": 2955,
      "चौ": 2956,
      "चान्य": 2957,
      "नद": 2958,
      "प्ये": 2959,
      "बह": 2960,
      "बर्": 2961,
      "बलम्": 2962,
      "मञ्ज": 2963,
      "ोत्त": 2964,
      "प्रविश": 2965,
      "रा̍": 2966,
      "तुभ्यं": 2967,
      "द्रव": 2968,
      "कृणो": 2969,
      "त्वय": 2970,
      "देव्या": 2971,
      "रणम्": 2972,
      "तस्य̍": 2973,
      "व्याधि": 2974,
      "हंस": 2975,
      "पुत्रः": 2976,
      "युक्तो": 2977,
      "स्मृताः": 2978,
      "प्रत्यक्ष": 2979,
      "षोडश": 2980,
      "अश्": 2981,
      "इमां": 2982,
      "एता": 2983,
      "चरि": 2984,
      "जनं": 2985,
      "ददौ": 2986,
      "प्रेष": 2987,
      "प्रत्या": 2988,
      "रात्म": 2989,
      "क्षया": 2990,
      "कारणं": 2991,
      "स्तू": 2992,
      "सुता": 2993,
      "महं": 2994,
      "जा̱": 2995,
      "रेषु": 2996,
      "धीयते": 2997,
      "क्षेप": 2998,
      "मुक्तः": 2999,
      "दूर": 3000,
      "प्रोक्तं": 3001,
      "तेजसा": 3002,
      "जगन्नाथ": 3003,
      "̱स्": 3004,
      "चिता": 3005,
      "जनः": 3006,
      "मसि": 3007,
      "शशि": 3008,
      "सख": 3009,
      "र्नम्": 3010,
      "विद्": 3011,
      "विचार": 3012,
      "त्मानं": 3013,
      "वाग्": 3014,
      "तेजो": 3015,
      "देहो": 3016,
      "सामान": 3017,
      "सार्धं": 3018,
      "मुहू": 3019,
      "वेदा": 3020,
      "श्रम": 3021,
      "ञ्जन": 3022,
      "शाक्य": 3023,
      "अ̱ग्निर्": 3024,
      "ैरपि": 3025,
      "ज्ञेया": 3026,
      "तपसा": 3027,
      "पश्यामि": 3028,
      "शैल": 3029,
      "रश्मि": 3030,
      "̍णो": 3031,
      "ऋते": 3032,
      "जग्": 3033,
      "पक्षि": 3034,
      "रैः": 3035,
      "रसे": 3036,
      "हन्त": 3037,
      "ोद्": 3038,
      "निधि": 3039,
      "सुः": 3040,
      "पाता": 3041,
      "पात्र": 3042,
      "भिस्": 3043,
      "त्यक्त्वा": 3044,
      "नेषु": 3045,
      "महाराज": 3046,
      "दोषा": 3047,
      "भ्रू": 3048,
      "तृष्णा": 3049,
      "द्वन्द्व": 3050,
      "दम": 3051,
      "ददृ": 3052,
      "लयं": 3053,
      "श̍": 3054,
      "सहा": 3055,
      "स̱ꣳ": 3056,
      "प्रसू": 3057,
      "क्षान्ति": 3058,
      "सुगत": 3059,
      "पारम": 3060,
      "साध्य": 3061,
      "ष्टम्": 3062,
      "वेन": 3063,
      "न्यः": 3064,
      "तथागत": 3065,
      "सौम्य": 3066,
      "कथितं": 3067,
      "ज्ञेयं": 3068,
      "पन्ना": 3069,
      "हरिः": 3070,
      "शुभम्": 3071,
      "जनार्द": 3072,
      "कान्ति": 3073,
      "तस्थ": 3074,
      "दग्": 3075,
      "समि": 3076,
      "सन्तु": 3077,
      "े̱": 3078,
      "विक": 3079,
      "्यात्": 3080,
      "राणां": 3081,
      "सुतः": 3082,
      "मह्यं": 3083,
      "वेण": 3084,
      "च्चा": 3085,
      "भूते": 3086,
      "ण्डे": 3087,
      "वैष्ण": 3088,
      "विश्वे̍": 3089,
      "अ̍ग्ने": 3090,
      "घोष": 3091,
      "ग्राम": 3092,
      "दक्षिणा": 3093,
      "खिलं": 3094,
      "मात्रेण": 3095,
      "पत्नी": 3096,
      "कैके": 3097,
      "समन्वितम्": 3098,
      "̍सा": 3099,
      "̱रे": 3100,
      "तयो": 3101,
      "पम": 3102,
      "यत्रा": 3103,
      "रव": 3104,
      "लां": 3105,
      "वयम्": 3106,
      "प्रभाव": 3107,
      "तिर्य": 3108,
      "तात्": 3109,
      "त्रयो": 3110,
      "मुद्र": 3111,
      "महर्ष": 3112,
      "पर्या": 3113,
      "पिङ्ग": 3114,
      "मे̍": 3115,
      "रोद": 3116,
      "त्वा̍": 3117,
      "देवानां": 3118,
      "सोम̍": 3119,
      "न्दं": 3120,
      "ष्णी": 3121,
      "मांस": 3122,
      "द्वादशा": 3123,
      "सर्वार्थ": 3124,
      "̱तये̍": 3125,
      "मण्डलम्": 3126,
      "सहस्रं": 3127,
      "यितुं": 3128,
      "रामस्य": 3129,
      "वतीं": 3130,
      "̱त्": 3131,
      "आपो": 3132,
      "थु": 3133,
      "दꣳ": 3134,
      "मघ": 3135,
      "मतिः": 3136,
      "सकृ": 3137,
      "ऽयम्": 3138,
      "प्रवक्ष्यामि": 3139,
      "साय": 3140,
      "परित्य": 3141,
      "द्धो": 3142,
      "रोग": 3143,
      "रि̱": 3144,
      "शुष्": 3145,
      "हेतो": 3146,
      "कारयेत्": 3147,
      "मुखः": 3148,
      "बन्धु": 3149,
      "ध्यात्वा": 3150,
      "गृह्ण": 3151,
      "कनक": 3152,
      "अलं": 3153,
      "आदाय": 3154,
      "भ̍": 3155,
      "यदु": 3156,
      "प्रभ": 3157,
      "वा̍ꣳ": 3158,
      "नि̍": 3159,
      "क्षय": 3160,
      "र्वृ": 3161,
      "मुच्य": 3162,
      "भास्व": 3163,
      "मे̱": 3164,
      "कुतो": 3165,
      "क्रमम्": 3166,
      "जातं": 3167,
      "भूर्": 3168,
      "त्वा̱": 3169,
      "युध": 3170,
      "तीक्ष्ण": 3171,
      "ण्ट": 3172,
      "गाम्": 3173,
      "चित्रं": 3174,
      "निर्वि": 3175,
      "द्विष": 3176,
      "स्रु": 3177,
      "णीं": 3178,
      "दृष्टा": 3179,
      "युक्तः": 3180,
      "स्थिते": 3181,
      "हिते": 3182,
      "अन्तः": 3183,
      "सूक्ष्म": 3184,
      "सनात": 3185,
      "अती": 3186,
      "अस्म": 3187,
      "गल": 3188,
      "गमे": 3189,
      "गतिं": 3190,
      "जानु": 3191,
      "नश्य": 3192,
      "पत्र": 3193,
      "पण्ड": 3194,
      "मदा": 3195,
      "ीत": 3196,
      "विश्रु": 3197,
      "स्नान": 3198,
      "नारी": 3199,
      "काशं": 3200,
      "मुपा": 3201,
      "दिषु": 3202,
      "भवतु": 3203,
      "न्यसेत्": 3204,
      "सीता": 3205,
      "मुख्य": 3206,
      "पितॄ": 3207,
      "विधं": 3208,
      "न्तुं": 3209,
      "प्रोक्ता": 3210,
      "हृदयं": 3211,
      "व्योम": 3212,
      "तज्": 3213,
      "दस्य": 3214,
      "दनु": 3215,
      "बलो": 3216,
      "मते": 3217,
      "मये": 3218,
      "रसो": 3219,
      "लब्": 3220,
      "सानु": 3221,
      "विदुः": 3222,
      "विमल": 3223,
      "रागा": 3224,
      "निष्ठ": 3225,
      "क्षत्रि": 3226,
      "न्तरं": 3227,
      "यास्": 3228,
      "कारु": 3229,
      "कारे": 3230,
      "कारः": 3231,
      "स्तन": 3232,
      "स्तेन": 3233,
      "संबोधि": 3234,
      "त्वाद्": 3235,
      "युग्": 3236,
      "तीर्थं": 3237,
      "गुहा": 3238,
      "वीर्या": 3239,
      "जीवित": 3240,
      "पीत": 3241,
      "वंश": 3242,
      "विधे": 3243,
      "नाथं": 3244,
      "घोरं": 3245,
      "विशेषतः": 3246,
      "स्वप्न": 3247,
      "भविष्यन्ति": 3248,
      "चूर्ण": 3249,
      "सामर्थ": 3250,
      "यद्य्": 3251,
      "ज्वाला": 3252,
      "अजा": 3253,
      "ग̍": 3254,
      "चक": 3255,
      "जघ": 3256,
      "धरः": 3257,
      "पङ्": 3258,
      "यया": 3259,
      "वधि": 3260,
      "…)": 3261,
      "प्रणा": 3262,
      "देहे": 3263,
      "दिशो": 3264,
      "स्वरूप": 3265,
      "नेव": 3266,
      "धिपः": 3267,
      "हि̍": 3268,
      "धा̱": 3269,
      "द्युम्": 3270,
      "ग्रं": 3271,
      "चि̱द्": 3272,
      "लोको": 3273,
      "चितं": 3274,
      "कोप": 3275,
      "शीर्ष": 3276,
      "नृत्य": 3277,
      "मन्त्रं": 3278,
      "दर्शनं": 3279,
      "सर्वाणि": 3280,
      "अन्व": 3281,
      "बिम्ब": 3282,
      "मात्मा": 3283,
      "प्रणम्य": 3284,
      "सत्तम": 3285,
      "कोटी": 3286,
      "(…)": 3287,
      "अयो": 3288,
      "अर्ध": 3289,
      "आज्ञा": 3290,
      "पै": 3291,
      "मस्": 3292,
      "लेन": 3293,
      "वरः": 3294,
      "सनं": 3295,
      "हत्वा": 3296,
      "त्पाद": 3297,
      "प्रभम्": 3298,
      "क्थ": 3299,
      "वाङ्": 3300,
      "निन्द": 3301,
      "क्षत": 3302,
      "ताय": 3303,
      "स्यति": 3304,
      "दुर": 3305,
      "भवं": 3306,
      "र्यते": 3307,
      "ग्र्य": 3308,
      "ल्ला": 3309,
      "स्यामि": 3310,
      "समन्ता": 3311,
      "कल्पे": 3312,
      "व्रते": 3313,
      "सौमित्र": 3314,
      "दृष्टं": 3315,
      "योगे": 3316,
      "दत्तं": 3317,
      "विंशति": 3318,
      "ब्रूहि": 3319,
      "̍त्": 3320,
      "अप्": 3321,
      "अग्निर्": 3322,
      "इष": 3323,
      "घ्रं": 3324,
      "तानां": 3325,
      "पयो": 3326,
      "पव̍": 3327,
      "वसू": 3328,
      "वचो": 3329,
      "शश्व": 3330,
      "समृ": 3331,
      "माध": 3332,
      "तावद्": 3333,
      "कालि": 3334,
      "मुण्ड": 3335,
      "ये̱": 3336,
      "दिवा": 3337,
      "ज्ज्व": 3338,
      "णाति": 3339,
      "प्रायश्च": 3340,
      "ग्रहे": 3341,
      "क्षिपे": 3342,
      "सर्ज": 3343,
      "कर्तुं": 3344,
      "दानव": 3345,
      "सर्वाः": 3346,
      "स्थाय": 3347,
      "चक्रं": 3348,
      "शृण्व": 3349,
      "स्फा": 3350,
      "शक्तिर्": 3351,
      "र̱यि": 3352,
      "करुण": 3353,
      "पुण्या": 3354,
      "̍श्": 3355,
      "अष्टा": 3356,
      "अस्मिन्": 3357,
      "इत्थं": 3358,
      "कानि": 3359,
      "तश्च": 3360,
      "दर": 3361,
      "बान्ध": 3362,
      "मती": 3363,
      "व̍ः": 3364,
      "षष्टि": 3365,
      "ुत्वा": 3366,
      "ून्": 3367,
      "विहा": 3368,
      "स्न": 3369,
      "निवृत्त": 3370,
      "क्षणा": 3371,
      "तादृ": 3372,
      "पारि": 3373,
      "रुह्य": 3374,
      "दिग्": 3375,
      "ज्ञं": 3376,
      "जामि": 3377,
      "वर्णं": 3378,
      "शात्": 3379,
      "चिरं": 3380,
      "त्मने": 3381,
      "म्यहं": 3382,
      "कर्मणि": 3383,
      "लक्षणं": 3384,
      "प्रत्यु": 3385,
      "मनुष्य": 3386,
      "नैवा": 3387,
      "प्रजाः": 3388,
      "---": 3389,
      "मुहूर्": 3390,
      "̍भिर्": 3391,
      "आर्": 3392,
      "तप्त": 3393,
      "समे": 3394,
      "है": 3395,
      "हानि": 3396,
      "प्रधान": 3397,
      "माद": 3398,
      "वाजि": 3399,
      "तेषाम्": 3400,
      "स्तृ": 3401,
      "सुधा": 3402,
      "पारं": 3403,
      "दिन": 3404,
      "भावि": 3405,
      "स्वी": 3406,
      "कुलम्": 3407,
      "कुमार": 3408,
      "दुरा": 3409,
      "युष्": 3410,
      "ङ्गो": 3411,
      "भवता": 3412,
      "शिरः": 3413,
      "मृतं": 3414,
      "तस्य̱": 3415,
      "व्याप्त": 3416,
      "बाह्य": 3417,
      "पितरं": 3418,
      "दे̱वे": 3419,
      "मधु̍": 3420,
      "शुभं": 3421,
      "दि̱वो": 3422,
      "त्पत्ति": 3423,
      "चण्डा": 3424,
      "प्रायश्चित्त": 3425,
      "?)": 3426,
      "̱यम्": 3427,
      "अश": 3428,
      "आन": 3429,
      "णस्": 3430,
      "थः": 3431,
      "यैर्": 3432,
      "शर्म": 3433,
      "्यै": 3434,
      "निवा": 3435,
      "त्र्य": 3436,
      "स्यं": 3437,
      "दाद्": 3438,
      "ांश्": 3439,
      "द्वयम्": 3440,
      "महाभाग": 3441,
      "च्छति": 3442,
      "लोकान्": 3443,
      "र्णव": 3444,
      "गृहं": 3445,
      "मित्य": 3446,
      "मुखो": 3447,
      "सुखी": 3448,
      "पित्र": 3449,
      "मन्त्रि": 3450,
      "भीम": 3451,
      "रत्ना": 3452,
      "अन्या": 3453,
      "बोधिसत्त्वा": 3454,
      "भूतानि": 3455,
      "रथं": 3456,
      "बन्धो": 3457,
      "गुरुं": 3458,
      "बृ̱ह": 3459,
      "कर्तव्यं": 3460,
      "अनेक": 3461,
      "अमी": 3462,
      "एति": 3463,
      "कवि": 3464,
      "चर्म": 3465,
      "दल": 3466,
      "मरी": 3467,
      "रन्ध": 3468,
      "वस्": 3469,
      "विष्": 3470,
      "प्रबोध": 3471,
      "न्ना": 3472,
      "तिमि": 3473,
      "ताड": 3474,
      "संस्था": 3475,
      "द्रू": 3476,
      "सर्वतः": 3477,
      "भूयः": 3478,
      "रोप": 3479,
      "हास": 3480,
      "वीरं": 3481,
      "वैश्व": 3482,
      "से̱": 3483,
      "अ̱स्मा": 3484,
      "सिद्धिं": 3485,
      "शरणा": 3486,
      "देवेशि": 3487,
      "अग्रे": 3488,
      "प्रभृति": 3489,
      "मञ्जु": 3490,
      "आद्य": 3491,
      "आनन्द": 3492,
      "च्या": 3493,
      "तन्व": 3494,
      "धरं": 3495,
      "बे": 3496,
      "ब̱र्": 3497,
      "यस्व": 3498,
      "वन्ति": 3499,
      "ऽह": 3500,
      "ऽन्त": 3501,
      "निर्या": 3502,
      "कामं": 3503,
      "पाट": 3504,
      "मुत्तमम्": 3505,
      "येत": 3506,
      "येना": 3507,
      "स्वर": 3508,
      "कुतः": 3509,
      "क्रमः": 3510,
      "रेत्": 3511,
      "व्यति": 3512,
      "शुक्र": 3513,
      "ह्ला": 3514,
      "लोकेषु": 3515,
      "सोमो": 3516,
      "दीनां": 3517,
      "बुद्धिर्": 3518,
      "निर्विकल्प": 3519,
      "प्ल": 3520,
      "सत्त्वं": 3521,
      "यन्त्र": 3522,
      "उत्तमम्": 3523,
      "चतुर्दश": 3524,
      "र्ध्वं": 3525,
      "ज̍सा": 3526,
      "चक्षुषा": 3527,
      "तर्प": 3528,
      "सम्यग्": 3529,
      "बहिर्": 3530,
      "कुसुम": 3531,
      "अश्विना": 3532,
      "̍ष": 3533,
      "इत्": 3534,
      "कन्द": 3535,
      "ग्व": 3536,
      "चत": 3537,
      "दग्ध": 3538,
      "पक्षे": 3539,
      "मभि": 3540,
      "वति": 3541,
      "वशी": 3542,
      "सते": 3543,
      "ान्ये": 3544,
      "विह": 3545,
      "विश्र": 3546,
      "विदु": 3547,
      "तिꣳ": 3548,
      "माल्य": 3549,
      "निरी": 3550,
      "पुण्ड": 3551,
      "ष्ट्या": 3552,
      "दिनं": 3553,
      "भाज": 3554,
      "कृत्या": 3555,
      "जाम्": 3556,
      "ग्स्": 3557,
      "ग्ना": 3558,
      "शिनी": 3559,
      "च्छया": 3560,
      "शोण": 3561,
      "पृ̱": 3562,
      "ध्यानं": 3563,
      "बुद्धानां": 3564,
      "ष्यसि": 3565,
      "कल्पा": 3566,
      "हृष्ट": 3567,
      "शीर्": 3568,
      "क्वचिद": 3569,
      "भ्रु": 3570,
      "सृज्य": 3571,
      "शून्या": 3572,
      "देवाय": 3573,
      "प्रत्ये": 3574,
      "प्राप्तं": 3575,
      "प्राप्ता": 3576,
      "मण्डले": 3577,
      "दक्षिणं": 3578,
      "वरुणा": 3579,
      "पुरुषं": 3580,
      "द्रुम": 3581,
      "नारद": 3582,
      "सिन्धु": 3583,
      "मूर्ध्नि": 3584,
      "अङ्गु": 3585,
      "कस्मा": 3586,
      "चः": 3587,
      "तवे": 3588,
      "मव": 3589,
      "यान्त": 3590,
      "रस्": 3591,
      "शस्त्र": 3592,
      "हव": 3593,
      "हन्": 3594,
      "ऽभ्य": 3595,
      "ीम्": 3596,
      "विभाव": 3597,
      "निवे": 3598,
      "क्षः": 3599,
      "स्ततः": 3600,
      "मिश्र": 3601,
      "दिशः": 3602,
      "त्यज": 3603,
      "सर्वपाप": 3604,
      "श्रद्धा": 3605,
      "जातो": 3606,
      "लोल": 3607,
      "युज्यते": 3608,
      "भवो": 3609,
      "न्यम्": 3610,
      "स्याः": 3611,
      "वी̱": 3612,
      "समाहितः": 3613,
      "षु̍": 3614,
      "सर्वि": 3615,
      "इन्द्रो": 3616,
      "तेनैव": 3617,
      "कल्पयेत्": 3618,
      "परां": 3619,
      "नृपः": 3620,
      "स्वाद": 3621,
      "चित्तम्": 3622,
      "मुक्तं": 3623,
      "अन्ये": 3624,
      "तपः": 3625,
      "म्बू": 3626,
      "बृह̱": 3627,
      "प्रमाणं": 3628,
      "स्तोत्र": 3629,
      "चेतसः": 3630,
      "भारत": 3631,
      "सरस्वती": 3632,
      "कसं": 3633,
      "घं": 3634,
      "छु": 3635,
      "जज्ञे": 3636,
      "तमः": 3637,
      "धान्य": 3638,
      "नर्म": 3639,
      "लघु": 3640,
      "सान्": 3641,
      "ैष": 3642,
      "विरो": 3643,
      "त्सा": 3644,
      "स्नि": 3645,
      "तिथ": 3646,
      "स्तदा": 3647,
      "देहं": 3648,
      "द्धर्": 3649,
      "येषां": 3650,
      "दिष्टं": 3651,
      "भागा": 3652,
      "श्रद्ध": 3653,
      "रे̱": 3654,
      "रोहे": 3655,
      "महाय": 3656,
      "वर्ग": 3657,
      "पूर्": 3658,
      "चेति": 3659,
      "तृप्त": 3660,
      "म̱घ": 3661,
      "व̱यꣳ": 3662,
      "वि̱ता": 3663,
      "विष्णो": 3664,
      "प्रथमं": 3665,
      "वीर्यं": 3666,
      "शक्त्या": 3667,
      "घ्रि": 3668,
      "खड्ग": 3669,
      "स्तथैव": 3670,
      "महातेजा": 3671,
      "उन्": 3672,
      "ऋषी": 3673,
      "एकम्": 3674,
      "कान": 3675,
      "करणं": 3676,
      "रग": 3677,
      "रसः": 3678,
      "रजो": 3679,
      "लया": 3680,
      "शस्य": 3681,
      "शयः": 3682,
      "सद्यः": 3683,
      "हता": 3684,
      "ेत": 3685,
      "नाड": 3686,
      "निम": 3687,
      "क्षम्": 3688,
      "संश्र": 3689,
      "महोद": 3690,
      "भिश्च": 3691,
      "दिशि": 3692,
      "सर्वस्य": 3693,
      "सर्वशः": 3694,
      "कुब्": 3695,
      "क्रमा": 3696,
      "भूरि": 3697,
      "युगे": 3698,
      "शिशु": 3699,
      "पूर्णा": 3700,
      "देवान्": 3701,
      "देवताः": 3702,
      "बुध्य": 3703,
      "्येत": 3704,
      "कालः": 3705,
      "शेषं": 3706,
      "भैरव": 3707,
      "स्वप्ने": 3708,
      "पश्चात्": 3709,
      "पारमिता": 3710,
      "अचि": 3711,
      "ग्वि": 3712,
      "ण्या": 3713,
      "ध̱": 3714,
      "पदो": 3715,
      "भया": 3716,
      "यदी": 3717,
      "वरण": 3718,
      "शशा": 3719,
      "सिता": 3720,
      "ेदं": 3721,
      "ज़्": 3722,
      "द्भिर्": 3723,
      "वाज": 3724,
      "कामो": 3725,
      "तुभ्य": 3726,
      "देही": 3727,
      "मुत्": 3728,
      "श्चर्य": 3729,
      "दुर्म": 3730,
      "धाता": 3731,
      "द्वौ": 3732,
      "चास्य": 3733,
      "महाबला": 3734,
      "महात्मना": 3735,
      "मानसः": 3736,
      "शिक्ष": 3737,
      "तीव्र": 3738,
      "लोकम्": 3739,
      "परि̱": 3740,
      "षाः": 3741,
      "हुं": 3742,
      "पृत": 3743,
      "बाला": 3744,
      "भावना": 3745,
      "ब्रह्मन्": 3746,
      "किंचित्": 3747,
      "अनु̱": 3748,
      "बहुधा": 3749,
      "शान्ता": 3750,
      "भद्रं": 3751,
      "मार्गे": 3752,
      "कुर्याद्": 3753,
      "प्रकृति": 3754,
      "क्षिप्रं": 3755,
      "̍ता": 3756,
      "̍ष्ठ": 3757,
      "̍षु": 3758,
      "इयं": 3759,
      "ए̱": 3760,
      "चम्": 3761,
      "जू": 3762,
      "जले": 3763,
      "रक्ता": 3764,
      "शर्व": 3765,
      "शेन": 3766,
      "सत्या": 3767,
      "ऽग्र": 3768,
      "विभाग": 3769,
      "प्रसीद": 3770,
      "राशि": 3771,
      "काष्ठ": 3772,
      "स्यान्": 3773,
      "पात्": 3774,
      "मुन": 3775,
      "भाः": 3776,
      "त्यक्त": 3777,
      "मेध": 3778,
      "स्वच्छ": 3779,
      "कुत्र": 3780,
      "लोचन": 3781,
      "लाघ": 3782,
      "भवन्तु": 3783,
      "गाय": 3784,
      "सर्प": 3785,
      "जीर्ण": 3786,
      "गच्छा": 3787,
      "कान्ता": 3788,
      "पश्ये": 3789,
      "योगिनः": 3790,
      "राघव": 3791,
      "स्व̱स्ति": 3792,
      "कल्याणं": 3793,
      "निर्वाण": 3794,
      "र्नम्स्": 3795,
      "̍स्य̱": 3796,
      "ंश्": 3797,
      "उपे": 3798,
      "यस्तु": 3799,
      "रान्": 3800,
      "वणि": 3801,
      "षण्": 3802,
      "ृम्भ": 3803,
      "ेद्": 3804,
      "म्नि": 3805,
      "विमान": 3806,
      "स्मित": 3807,
      "माणि": 3808,
      "निबोध": 3809,
      "याच": 3810,
      "पा̱": 3811,
      "पाद्य": 3812,
      "संस्थिता": 3813,
      "मुमु": 3814,
      "पर्य्": 3815,
      "रुधि": 3816,
      "मिह": 3817,
      "मेष": 3818,
      "त्वत्त": 3819,
      "रोद̍": 3820,
      "युत": 3821,
      "शाम्": 3822,
      "शाश्व": 3823,
      "वृता": 3824,
      "न्द्रिया": 3825,
      "किम": 3826,
      "केतु": 3827,
      "सूद": 3828,
      "राजो": 3829,
      "तस्मान्": 3830,
      "अ̱स्मे": 3831,
      "व्यापि": 3832,
      "ध्वम्": 3833,
      "भ्रान्त": 3834,
      "मन्त्रेण": 3835,
      "कालेन": 3836,
      "वचनम्": 3837,
      "विष्णुर्": 3838,
      "जीवति": 3839,
      "महि̱": 3840,
      "कुशल": 3841,
      "त्पल": 3842,
      "पटु": 3843,
      "धनुर्": 3844,
      "गरुड": 3845,
      "अरु": 3846,
      "ईदृ": 3847,
      "उक्तं": 3848,
      "कपाल": 3849,
      "तमा": 3850,
      "ध्वा": 3851,
      "भद्रा": 3852,
      "यक्ष्": 3853,
      "शम": 3854,
      "सती": 3855,
      "हते": 3856,
      "हरी": 3857,
      "विद्वान्": 3858,
      "प्रज्ञ": 3859,
      "्यादि": 3860,
      "नागा": 3861,
      "याय": 3862,
      "शिवम्": 3863,
      "वृक्षा": 3864,
      "मोक्षा": 3865,
      "शोच": 3866,
      "अ̱स्य": 3867,
      "भोति": 3868,
      "भावः": 3869,
      "कर्तुम्": 3870,
      "योगं": 3871,
      "नृणाम्": 3872,
      "दानीं": 3873,
      "हीना": 3874,
      "चरन्ति": 3875,
      "भृशम्": 3876,
      "गिर": 3877,
      "स्थितिः": 3878,
      "पादौ": 3879,
      "अन्तरि": 3880,
      "प्रेत": 3881,
      "अग्ने̱": 3882,
      "क्रियते": 3883,
      "समन्वितः": 3884,
      "न्द्रिय": 3885,
      "लभ्यते": 3886,
      "जग्मु": 3887,
      "जड": 3888,
      "दाना": 3889,
      "पथा": 3890,
      "बले": 3891,
      "ल्व": 3892,
      "्यर्थं": 3893,
      "ितानि": 3894,
      "त्रयं": 3895,
      "सुप्त": 3896,
      "पादे": 3897,
      "सा̍": 3898,
      "पु̍": 3899,
      "ष्ट्रा": 3900,
      "दिवं": 3901,
      "सर्वतो": 3902,
      "धिः": 3903,
      "लाल": 3904,
      "व्यु": 3905,
      "ञ्जी": 3906,
      "मानस्य": 3907,
      "हारि": 3908,
      "रीम्": 3909,
      "ानाम": 3910,
      "दीक्ष": 3911,
      "यथा̍": 3912,
      "सेना": 3913,
      "बुद्धं": 3914,
      "कल्पना": 3915,
      "समुप": 3916,
      "नृपा": 3917,
      "लीं": 3918,
      "प्रियम्": 3919,
      "चरन्": 3920,
      "रक्षो": 3921,
      "टिका": 3922,
      "वदन्ति": 3923,
      "उ̱ष": 3924,
      "शक्तिः": 3925,
      "विशेषा": 3926,
      "इ̱ह": 3927,
      "पृथु": 3928,
      "हृदय": 3929,
      "गौर": 3930,
      "चक्षुर्": 3931,
      "लक्ष्मण": 3932,
      "यामसि": 3933,
      "ओषधी": 3934,
      "द्धृत्य": 3935,
      "गण्डी": 3936,
      "ग्रन्थि": 3937,
      "̍न्त": 3938,
      "इष्ट": 3939,
      "कपा": 3940,
      "केषु": 3941,
      "कण्ट": 3942,
      "पत्रा": 3943,
      "फु": 3944,
      "भानु": 3945,
      "वदे": 3946,
      "ेद": 3947,
      "विस्ती": 3948,
      "राम्": 3949,
      "क्षत्र": 3950,
      "सुतो": 3951,
      "संयुक्तं": 3952,
      "मुष्टि": 3953,
      "परु": 3954,
      "पि̱": 3955,
      "भिषे": 3956,
      "रुक्": 3957,
      "भाण्ड": 3958,
      "वेदि": 3959,
      "कुम्": 3960,
      "दुन्दु": 3961,
      "धात्": 3962,
      "धारि": 3963,
      "मनसि": 3964,
      "व्यू": 3965,
      "शुषे": 3966,
      "ग्रहो": 3967,
      "मृता": 3968,
      "मृगा": 3969,
      "परिणा": 3970,
      "षा̍": 3971,
      "दीक्षा": 3972,
      "धर्मः": 3973,
      "हृत": 3974,
      "द्यापि": 3975,
      "चेद्": 3976,
      "होता̍": 3977,
      "चतुष्ट": 3978,
      "क्षेत्रे": 3979,
      "शृङ्गा": 3980,
      "प्राप्ते": 3981,
      "जुहु": 3982,
      "मनुष्या": 3983,
      "गन्धर्वा": 3984,
      "गर्भं": 3985,
      "तस्याः": 3986,
      "वासना": 3987,
      "शरीरं": 3988,
      "मानुष": 3989,
      "क्रीडा": 3990,
      "चारिणः": 3991,
      "मुहुः": 3992,
      "निशम्य": 3993,
      "अर्हसि": 3994,
      "पुण्डरी": 3995,
      "रोद̍सी": 3996,
      "̍नि": 3997,
      "पपात": 3998,
      "यत्त": 3999,
      "यन्तु": 4000,
      "रन्": 4001,
      "ैस्तु": 4002,
      "ैकं": 4003,
      "र्च्य": 4004,
      "ितेन": 4005,
      "विभू": 4006,
      "प्रवे": 4007,
      "काशे": 4008,
      "स्तत्": 4009,
      "सुवर्ण": 4010,
      "पाण्डु": 4011,
      "संख्या": 4012,
      "महता": 4013,
      "द्धं": 4014,
      "दिश्य": 4015,
      "सर्वेषु": 4016,
      "कुटि": 4017,
      "नेति": 4018,
      "नेत्रा": 4019,
      "भूय": 4020,
      "भूतो": 4021,
      "स्थाना": 4022,
      "र्य्": 4023,
      "गात्र": 4024,
      "ध्यति": 4025,
      "जिह्व": 4026,
      "जगद्ध": 4027,
      "ज्ञाने": 4028,
      "व्रजेत्": 4029,
      "शीत": 4030,
      "मुखम्": 4031,
      "कथ्यते": 4032,
      "चतुः": 4033,
      "चतुर्थ": 4034,
      "शूद्र": 4035,
      "भाग्य": 4036,
      "दत्ता": 4037,
      "शब्दा": 4038,
      "बद्ध्वा": 4039,
      "त्रैलोक": 4040,
      "सागर": 4041,
      "कीर्ति": 4042,
      "मि̱त्रो": 4043,
      "̍थि": 4044,
      "अत्रा": 4045,
      "अश्वा": 4046,
      "गह": 4047,
      "गङ्ग": 4048,
      "जनो": 4049,
      "यक्षा": 4050,
      "रत": 4051,
      "लज्": 4052,
      "श्ये": 4053,
      "सकला": 4054,
      "हन्ति": 4055,
      "ीर्": 4056,
      "र्चित": 4057,
      "ितुम्": 4058,
      "विविधा": 4059,
      "प्रमे": 4060,
      "वा̍म्": 4061,
      "क्षर": 4062,
      "तासां": 4063,
      "सुराः": 4064,
      "संवरम्": 4065,
      "त्यो": 4066,
      "वेति": 4067,
      "स्वर्ण": 4068,
      "जाय": 4069,
      "लोह": 4070,
      "लाप": 4071,
      "युतं": 4072,
      "ग्नी": 4073,
      "शास्त्रा": 4074,
      "मृदु": 4075,
      "वीत": 4076,
      "वीरो": 4077,
      "राजेन्द्र": 4078,
      "प्रति̍": 4079,
      "इन्द्रि": 4080,
      "ब्रह्मणा": 4081,
      "भेदा": 4082,
      "शीघ्र": 4083,
      "शुद्धा": 4084,
      "रक्षां": 4085,
      "निःशेष": 4086,
      "धूम": 4087,
      "प्रविश्य": 4088,
      "र्थाय": 4089,
      "प्रवृत्ति": 4090,
      "संयुतम्": 4091,
      "अ̱ग्निꣳ": 4092,
      "लौकि": 4093,
      "क्वचिदपि": 4094,
      "̍ति̱": 4095,
      "आसाद्य": 4096,
      "नष्ट": 4097,
      "मतं": 4098,
      "मध्या": 4099,
      "य्य": 4100,
      "यच्च": 4101,
      "शता": 4102,
      "शची": 4103,
      "सक्त": 4104,
      "सखि": 4105,
      "विर्": 4106,
      "विजान": 4107,
      "प्रकट": 4108,
      "वागी": 4109,
      "क्षिति": 4110,
      "तारं": 4111,
      "कारेण": 4112,
      "सुषु": 4113,
      "पाद्": 4114,
      "पादं": 4115,
      "देहा": 4116,
      "साध्व": 4117,
      "दात": 4118,
      "त्यन्त": 4119,
      "ान्तो": 4120,
      "स्यास्य": 4121,
      "भुक्त्वा": 4122,
      "भुवने": 4123,
      "नमस्तु": 4124,
      "व्याप": 4125,
      "मूले": 4126,
      "बाष्": 4127,
      "स्रः": 4128,
      "कथयामि": 4129,
      "श्रुत": 4130,
      "पितुर्": 4131,
      "स̱प्त": 4132,
      "यन्न्": 4133,
      "चरितं": 4134,
      "स्थित्वा": 4135,
      "पन्था": 4136,
      "करोमि": 4137,
      "श्रेष्ठा": 4138,
      "तस्मिन्न्": 4139,
      "व्यवस्थितः": 4140,
      "श्वास": 4141,
      "पदार्थ": 4142,
      "न्द्रियः": 4143,
      "ददाति": 4144,
      "स्थूल": 4145,
      "स̱हस्र": 4146,
      "ब̱र्हि": 4147,
      "अद्रि": 4148,
      "आदित": 4149,
      "आस्थितः": 4150,
      "इन्दु": 4151,
      "उच्च": 4152,
      "एतन्": 4153,
      "गतिर्": 4154,
      "गन्धा": 4155,
      "जग्राह": 4156,
      "पश्च": 4157,
      "पक्व": 4158,
      "मतां": 4159,
      "लू": 4160,
      "वध": 4161,
      "वधू": 4162,
      "ैका": 4163,
      "विद्धि": 4164,
      "नासि": 4165,
      "नाहं": 4166,
      "सुसं": 4167,
      "पाताल": 4168,
      "सात्": 4169,
      "त्तमाः": 4170,
      "रुप": 4171,
      "येत्त": 4172,
      "वेत्ति": 4173,
      "प्राप्नोति": 4174,
      "शाम्य": 4175,
      "चिर": 4176,
      "णिका": 4177,
      "बुधः": 4178,
      "राजानं": 4179,
      "त्मनाम्": 4180,
      "दर्शन": 4181,
      "रत्नं": 4182,
      "विषं": 4183,
      "चित्ता": 4184,
      "शृणो": 4185,
      "स्थितौ": 4186,
      "मनोरथ": 4187,
      "धेर्": 4188,
      "म्बर": 4189,
      "विनाय": 4190,
      "अधि̍": 4191,
      "वरुण": 4192,
      "वर्जितम्": 4193,
      "कैला": 4194,
      "वाक्यम्": 4195,
      "द्भुत": 4196,
      "संसारे": 4197,
      "साहस्र": 4198,
      "केवलं": 4199,
      "सकलं": 4200,
      "चत्वारि": 4201,
      "द्यौर्": 4202,
      "शार्दू": 4203,
      "पृथि̱वी": 4204,
      "̍व̱": 4205,
      "आप": 4206,
      "इमे": 4207,
      "उभौ": 4208,
      "गतिम्": 4209,
      "चरी": 4210,
      "नया": 4211,
      "भयम्": 4212,
      "मवा": 4213,
      "यस्मि": 4214,
      "वट": 4215,
      "वय": 4216,
      "वन्त": 4217,
      "शश": 4218,
      "सने": 4219,
      "हस्ते": 4220,
      "ीय": 4221,
      "ोट": 4222,
      "ौष": 4223,
      "ानः": 4224,
      "न्दे": 4225,
      "वाहि": 4226,
      "वाद्य": 4227,
      "राष्ट्र": 4228,
      "क्षणं": 4229,
      "स्यते": 4230,
      "पादो": 4231,
      "संहार": 4232,
      "श्रिया": 4233,
      "क्रमे": 4234,
      "धाम्": 4235,
      "मनन्त": 4236,
      "वृष्ण": 4237,
      "हारा": 4238,
      "लोकः": 4239,
      "लिख": 4240,
      "भुव̍": 4241,
      "स्तुति": 4242,
      "शोष": 4243,
      "षु̱": 4244,
      "मूलं": 4245,
      "क्षिप्य": 4246,
      "जिनात्म": 4247,
      "हृतम्": 4248,
      "दर्प": 4249,
      "धीरस्य": 4250,
      "विश्वम्": 4251,
      "पूर्वो": 4252,
      "मन्त्री": 4253,
      "म̱ह": 4254,
      "अथवा": 4255,
      "धूप": 4256,
      "नौमि": 4257,
      "भवाः": 4258,
      "स्पृश": 4259,
      "भाषत": 4260,
      "वरारोहे": 4261,
      "ित्त्वा": 4262,
      "मुहुर्": 4263,
      "प्रतिष्ठाप्य": 4264,
      "सविता": 4265,
      "̍स्": 4266,
      "̍सः": 4267,
      "̱तम्": 4268,
      "आद": 4269,
      "आय": 4270,
      "कद": 4271,
      "गणे": 4272,
      "जहि": 4273,
      "पक्षा": 4274,
      "मतो": 4275,
      "मलि": 4276,
      "म्यां": 4277,
      "मयू": 4278,
      "रसि": 4279,
      "लयम्": 4280,
      "हतं": 4281,
      "ीति": 4282,
      "विवा": 4283,
      "प्रपद्य": 4284,
      "माम": 4285,
      "वात्": 4286,
      "तेः": 4287,
      "निवेद": 4288,
      "क्ष्या": 4289,
      "कायो": 4290,
      "मिका": 4291,
      "दिष्ट": 4292,
      "दिक्षु": 4293,
      "सर्वेषा": 4294,
      "कुत्": 4295,
      "दुहित": 4296,
      "ग्नौ": 4297,
      "महाबाहु": 4298,
      "ान्तरं": 4299,
      "वृतम्": 4300,
      "मोहा": 4301,
      "तीति": 4302,
      "्येव": 4303,
      "सूत्रं": 4304,
      "हुता": 4305,
      "पेण": 4306,
      "द्याः": 4307,
      "ज्ञानम्": 4308,
      "तवान्": 4309,
      "गुणान्": 4310,
      "पूर्वम्": 4311,
      "हीन": 4312,
      "भृगु": 4313,
      "प्रत्यय": 4314,
      "यन्त्य्": 4315,
      "हित्वा": 4316,
      "अन्यथा": 4317,
      "धृत्वा": 4318,
      "शब्दो": 4319,
      "यथो": 4320,
      "आत्मानम्": 4321,
      "स्तीति": 4322,
      "वपुः": 4323,
      "श्रियम्": 4324,
      "दे̱वाना": 4325,
      "नारायण": 4326,
      "सैन्य": 4327,
      "ज्येष्ठ": 4328,
      "यस्मात्": 4329,
      "यशस्वि": 4330,
      "सर्वभूतानां": 4331,
      "̱नो": 4332,
      "आदित्य": 4333,
      "क̍": 4334,
      "खर": 4335,
      "धरणी": 4336,
      "धत्ते": 4337,
      "रङ्ग": 4338,
      "लयः": 4339,
      "ऽइ": 4340,
      "ैश्वर्य": 4341,
      "विरुद्ध": 4342,
      "प्रच्छ": 4343,
      "प्रशान्त": 4344,
      "वाञ्छ": 4345,
      "क्षये": 4346,
      "कारम्": 4347,
      "स्तम्": 4348,
      "स्तान्": 4349,
      "योष": 4350,
      "मेधा": 4351,
      "त्वर": 4352,
      "रो̱": 4353,
      "प्राप्नु": 4354,
      "शिवं": 4355,
      "तीनां": 4356,
      "न्द्रः": 4357,
      "नोद": 4358,
      "धर्मम्": 4359,
      "द्विजाः": 4360,
      "त्याः": 4361,
      "सीत्": 4362,
      "मुखी": 4363,
      "पूर्ववत्": 4364,
      "घोषं": 4365,
      "महेश": 4366,
      "महेश्वरः": 4367,
      "विधिः": 4368,
      "कौस": 4369,
      "पुरस्": 4370,
      "ब्रवीद्": 4371,
      "देवेश": 4372,
      "पूर्णं": 4373,
      "चेतसा": 4374,
      "लिङ्गं": 4375,
      "हिताय": 4376,
      "वृष̱": 4377,
      "कुर्वीत": 4378,
      "कर्ण्य": 4379,
      "पौरु": 4380,
      "कृत्स्": 4381,
      "स्मरन्": 4382,
      "कल्याण": 4383,
      "पुंग": 4384,
      "विभुः": 4385,
      "गम्भीर": 4386,
      "अधो": 4387,
      "इच्छा": 4388,
      "ऊच": 4389,
      "कपो": 4390,
      "तल्": 4391,
      "पल्ल": 4392,
      "मतिर्": 4393,
      "रजः": 4394,
      "लैः": 4395,
      "वत्त": 4396,
      "वलोक": 4397,
      "वन्तं": 4398,
      "षष्ठ": 4399,
      "हनू": 4400,
      "ऽस्म": 4401,
      "विवि": 4402,
      "विमुक्त": 4403,
      "प्रयोग": 4404,
      "राज्ञ": 4405,
      "निद्रा": 4406,
      "क्षणात्": 4407,
      "कारी": 4408,
      "पाहि": 4409,
      "पाणे": 4410,
      "संत": 4411,
      "महान": 4412,
      "भाव्य": 4413,
      "भास्क": 4414,
      "कृतां": 4415,
      "व्यक्त": 4416,
      "केचित्": 4417,
      "समालोक्य": 4418,
      "गो̱": 4419,
      "गोत्र": 4420,
      "कर्तृ": 4421,
      "हृत्य": 4422,
      "दशरथ": 4423,
      "यिनी": 4424,
      "भवेन्": 4425,
      "रूपः": 4426,
      "दानेन": 4427,
      "भ्रान्ति": 4428,
      "पोष": 4429,
      "अ̍स्य": 4430,
      "विधौ": 4431,
      "लोकेश": 4432,
      "मैत्रे": 4433,
      "भद्रे": 4434,
      "हृदये": 4435,
      "मन्थ": 4436,
      "आत्मनः": 4437,
      "पारमित": 4438,
      "ध्रुवम्": 4439,
      "पार्श्वे": 4440,
      "विशार": 4441,
      "नमस्तुभ्यं": 4442,
      "अपश्य": 4443,
      "अमृत": 4444,
      "उरु": 4445,
      "ए̱वा": 4446,
      "कति": 4447,
      "कश्य": 4448,
      "ज्र": 4449,
      "दरि": 4450,
      "मतम्": 4451,
      "मयी": 4452,
      "य्या": 4453,
      "रिति": 4454,
      "लल": 4455,
      "हविषा": 4456,
      "ूनां": 4457,
      "विहित": 4458,
      "प्रसिद्ध": 4459,
      "नादं": 4460,
      "निम्": 4461,
      "निवर्त": 4462,
      "संबुद्ध": 4463,
      "संख्ये": 4464,
      "जाग्र": 4465,
      "र्यमा": 4466,
      "वृष्टि": 4467,
      "मोघ": 4468,
      "दृशं": 4469,
      "गाढ": 4470,
      "भुङ्": 4471,
      "त्मज": 4472,
      "त्मजः": 4473,
      "भोक्त": 4474,
      "जिने": 4475,
      "सीतां": 4476,
      "दर्भ": 4477,
      "व्रजे": 4478,
      "रूपो": 4479,
      "क्षेत्रं": 4480,
      "सत्त्वान्": 4481,
      "सृष्ट": 4482,
      "बोधिं": 4483,
      "भृत्य": 4484,
      "क्ष्यते": 4485,
      "क्षीण": 4486,
      "पतेर्": 4487,
      "भ्राता": 4488,
      "चैत": 4489,
      "आत्मना": 4490,
      "भावात्": 4491,
      "हस्तं": 4492,
      "आयुर्": 4493,
      "राघवः": 4494,
      "मार्क": 4495,
      "पश्चाद्": 4496,
      "आसीत्": 4497,
      "ब्रुवन्": 4498,
      "प्रकीर्तितः": 4499,
      "काञ्चन": 4500,
      "शक्यते": 4501,
      "अमा": 4502,
      "अस्त्र": 4503,
      "आर": 4504,
      "उदी": 4505,
      "जर": 4506,
      "जन्त": 4507,
      "तनू": 4508,
      "धन्व": 4509,
      "पती": 4510,
      "यशो": 4511,
      "रह": 4512,
      "वस्व": 4513,
      "शतम्": 4514,
      "सचि": 4515,
      "्वी": 4516,
      "विस्ता": 4517,
      "राज्ञा": 4518,
      "निरो": 4519,
      "सुप्रभा": 4520,
      "पाला": 4521,
      "पाण्ड": 4522,
      "साक्षि": 4523,
      "रुह": 4524,
      "ज्ज्वल": 4525,
      "भा̱": 4526,
      "कृत्व": 4527,
      "कृताः": 4528,
      "जाते": 4529,
      "चाप": 4530,
      "मानाः": 4531,
      "र्यु": 4532,
      "सोम̱": 4533,
      "समम्": 4534,
      "न्दी": 4535,
      "समाचरेत्": 4536,
      "दीनि": 4537,
      "त्रिभुवन": 4538,
      "द्विजः": 4539,
      "ज्ञात": 4540,
      "व्री": 4541,
      "शीति": 4542,
      "लीला": 4543,
      "सदा̍": 4544,
      "चरति": 4545,
      "दुःखम्": 4546,
      "पूजां": 4547,
      "चिन्तयेत्": 4548,
      "साधनम्": 4549,
      "पन्नः": 4550,
      "कौश": 4551,
      "श्रेय": 4552,
      "पुरुषः": 4553,
      "घृत": 4554,
      "विश्वा̱": 4555,
      "क्लेशा": 4556,
      "भाषितम्": 4557,
      "कदाचन": 4558,
      "नाशनम्": 4559,
      "मायया": 4560,
      "श्वेत": 4561,
      "दद्यात्": 4562,
      "क्रुद्धो": 4563,
      "विपुल": 4564,
      "कश्चिद्": 4565,
      "त्वय्य्": 4566,
      "सामान्य": 4567,
      "̍म": 4568,
      "̍सो": 4569,
      "अध्या": 4570,
      "कꣳ": 4571,
      "गन्त": 4572,
      "चय": 4573,
      "जिते": 4574,
      "थं": 4575,
      "मिता": 4576,
      "ल्यं": 4577,
      "वसा": 4578,
      "सञ्": 4579,
      "हन्य": 4580,
      "िका": 4581,
      "िरे": 4582,
      "ैते": 4583,
      "॥॥": 4584,
      "र्चि": 4585,
      "विष्ठ": 4586,
      "प्रत्य्": 4587,
      "्याम्": 4588,
      "वाञ्": 4589,
      "ष्णि": 4590,
      "न्त्व्": 4591,
      "स्तम्भ": 4592,
      "संग": 4593,
      "त्त्र": 4594,
      "पुल": 4595,
      "द्रवि": 4596,
      "ज्झ": 4597,
      "तो̍": 4598,
      "भूः": 4599,
      "द्यैर्": 4600,
      "र्ये": 4601,
      "ग्रो": 4602,
      "ग्रहम्": 4603,
      "तीव": 4604,
      "गुल्": 4605,
      "त्मकम्": 4606,
      "बुद्ध्या": 4607,
      "इन्द्र̍": 4608,
      "दाने": 4609,
      "शंस": 4610,
      "सत्त्वानां": 4611,
      "विषम्": 4612,
      "लक्षणा": 4613,
      "पद्मा": 4614,
      "विष्णुः": 4615,
      "निःसृ": 4616,
      "अर्च": 4617,
      "ख्यो": 4618,
      "हरति": 4619,
      "वक्त्रं": 4620,
      "ब्राह्मणा": 4621,
      "----": 4622,
      "कुर्वन्ति": 4623,
      "सुरासुर": 4624,
      "स्येव": 4625,
      "कर्तव्य": 4626,
      "प्रसन्न": 4627,
      "बहिः": 4628,
      "रात्रौ": 4629,
      "̍या": 4630,
      "̍वे": 4631,
      "̍तः": 4632,
      "ंश्च": 4633,
      "अज्ञान": 4634,
      "गान्": 4635,
      "घण्": 4636,
      "जङ्": 4637,
      "जला": 4638,
      "ज्यं": 4639,
      "नानु": 4640,
      "पदः": 4641,
      "मयः": 4642,
      "मध्व": 4643,
      "ळ्": 4644,
      "सग": 4645,
      "ऽस्मा": 4646,
      "ैर्व": 4647,
      "र्न": 4648,
      "विदा": 4649,
      "विधु": 4650,
      "विदित": 4651,
      "विहाय": 4652,
      "प्रपञ्च": 4653,
      "माग": 4654,
      "वाच्य": 4655,
      "वामहे": 4656,
      "निग": 4657,
      "त्रित": 4658,
      "काया": 4659,
      "पार्व": 4660,
      "पात्रे": 4661,
      "संघा": 4662,
      "संख्य": 4663,
      "संवत्स": 4664,
      "सार्थ": 4665,
      "दाह": 4666,
      "मुदित": 4667,
      "भिक्ष": 4668,
      "ष्टी": 4669,
      "योप": 4670,
      "ज्जु": 4671,
      "त्वद": 4672,
      "स्वधा": 4673,
      "ांशु": 4674,
      "ेनैव": 4675,
      "चारी": 4676,
      "ग्नं": 4677,
      "पूरु": 4678,
      "न्द्रस्य": 4679,
      "किन्न": 4680,
      "स्याम्": 4681,
      "लोकस्य": 4682,
      "वीक्ष्य": 4683,
      "ण्डा": 4684,
      "गायत्र": 4685,
      "चितम्": 4686,
      "लिका": 4687,
      "राजं": 4688,
      "त्रिलोक": 4689,
      "त्रिदश": 4690,
      "गोविन्द": 4691,
      "भ्यु": 4692,
      "अ̱न्त": 4693,
      "अ̱यꣳ": 4694,
      "मूत्र": 4695,
      "दर्शि": 4696,
      "धी̱": 4697,
      "होम": 4698,
      "शीघ्रं": 4699,
      "̍ꣳसि": 4700,
      "गुणैः": 4701,
      "स्वां": 4702,
      "दर्शना": 4703,
      "दर्शनात्": 4704,
      "स̱त्य": 4705,
      "विषया": 4706,
      "स्मृत्वा": 4707,
      "ग्राह्य": 4708,
      "रक्षतु": 4709,
      "पतितं": 4710,
      "तिष्ठते": 4711,
      "सरतां": 4712,
      "सहस्रशः": 4713,
      "गर्भो": 4714,
      "उत्तर": 4715,
      "कृष्णं": 4716,
      "क्षीर": 4717,
      "शब्दः": 4718,
      "भ्रातृ": 4719,
      "वरु̍णो": 4720,
      "पर्यन्त": 4721,
      "व्यवहा": 4722,
      "गौरी": 4723,
      "योगात्": 4724,
      "लङ्घ": 4725,
      "अप्रमे": 4726,
      "गुरोः": 4727,
      "कश्चित्": 4728,
      "̍षा": 4729,
      "अनृ": 4730,
      "इतो": 4731,
      "ईश्वर": 4732,
      "उपरि": 4733,
      "ऊ̱र्": 4734,
      "ऋद्धि": 4735,
      "कटा": 4736,
      "गलित": 4737,
      "त̍ः": 4738,
      "तयोः": 4739,
      "दयो": 4740,
      "वरि": 4741,
      "शां": 4742,
      "स̍ः": 4743,
      "हव्य": 4744,
      "ऽग्नि": 4745,
      "्वे": 4746,
      "विज्ञानं": 4747,
      "प्रयोज": 4748,
      "प्रताप": 4749,
      "वारु": 4750,
      "राहु": 4751,
      "निपात": 4752,
      "ताभ्यां": 4753,
      "कामः": 4754,
      "कामान्": 4755,
      "स्यन्द": 4756,
      "सुभग": 4757,
      "द्धे": 4758,
      "कृद्": 4759,
      "ङ्कुश": 4760,
      "ङ्घ्रि": 4761,
      "वेष": 4762,
      "धिं": 4763,
      "भूतेषु": 4764,
      "मनस्": 4765,
      "महादेव": 4766,
      "प्राप": 4767,
      "भवन्": 4768,
      "ण्डि": 4769,
      "त्रिषु": 4770,
      "त्राहि": 4771,
      "मूर्त": 4772,
      "हृत्": 4773,
      "ज्ञाय": 4774,
      "धीरो": 4775,
      "धीमान्": 4776,
      "इन्द्रो̍": 4777,
      "क्वचिद्": 4778,
      "हीनं": 4779,
      "व̱यम्": 4780,
      "धेहि": 4781,
      "पन्नो": 4782,
      "तत्त्वम्": 4783,
      "मूर्छ": 4784,
      "नायक": 4785,
      "पृथग्": 4786,
      "भूमिं": 4787,
      "स्त्रियः": 4788,
      "श्रेष्ठं": 4789,
      "पत्त्र": 4790,
      "ित्वं": 4791,
      "दद्याद्": 4792,
      "वासिनः": 4793,
      "प्रयत्नेन": 4794,
      "दा̱शुषे": 4795,
      "मिथ्या": 4796,
      "जानाति": 4797,
      "मार्कण्डे": 4798,
      "̍सा̱": 4799,
      "̱त्रा": 4800,
      "इन्द": 4801,
      "एनम्": 4802,
      "कस्या": 4803,
      "जया": 4804,
      "णैः": 4805,
      "यमानः": 4806,
      "वꣳ": 4807,
      "वश्": 4808,
      "वली": 4809,
      "सच": 4810,
      "सन्तो": 4811,
      "सपदि": 4812,
      "ऽप": 4813,
      "्वं": 4814,
      "ित्या": 4815,
      "ितस्य": 4816,
      "ितुं": 4817,
      "त्था": 4818,
      "प्रदाय": 4819,
      "वाथ": 4820,
      "वाꣳ": 4821,
      "वासं": 4822,
      "काकुत्": 4823,
      "स्तो̱": 4824,
      "सुव्रते": 4825,
      "पाक": 4826,
      "पाशा": 4827,
      "संय": 4828,
      "महर्": 4829,
      "दिना": 4830,
      "कृतिः": 4831,
      "णा̱": 4832,
      "रोहि": 4833,
      "युव": 4834,
      "मनसो": 4835,
      "ान्तरा": 4836,
      "शार": 4837,
      "रण्ये": 4838,
      "लोकानां": 4839,
      "भुञ्ज": 4840,
      "वैदेही": 4841,
      "केचि": 4842,
      "भ्यस्": 4843,
      "सीद्": 4844,
      "धीरा": 4845,
      "जननी": 4846,
      "ब्रह्मणो": 4847,
      "भेदो": 4848,
      "पितुः": 4849,
      "अन्व्": 4850,
      "लक्ष्य": 4851,
      "वज्रयोगि": 4852,
      "घोरा": 4853,
      "शुद्धि": 4854,
      "धर्मेण": 4855,
      "धर्मात्मा": 4856,
      "सप्ता": 4857,
      "यन्तं": 4858,
      "देशेन": 4859,
      "प्रेर": 4860,
      "विद्यां": 4861,
      "वरु̍ण": 4862,
      "स्तोत्रं": 4863,
      "ततश्": 4864,
      "मन्दि": 4865,
      "वसुधा": 4866,
      "वीर्यवान्": 4867,
      "̱रꣳ": 4868,
      "त्रीणि": 4869,
      "निमित्तं": 4870,
      "ऽनन्त": 4871,
      "ऊर्ध्वं": 4872,
      "द्रष्टुं": 4873,
      "विशिष्ट": 4874,
      "क्रूर": 4875,
      "छ्रुत्वा": 4876,
      "साक्षात्": 4877,
      "̍थ": 4878,
      "̍ती": 4879,
      "इन्": 4880,
      "ई̍": 4881,
      "कन्य": 4882,
      "ख्यां": 4883,
      "गणाः": 4884,
      "चैक": 4885,
      "तरे": 4886,
      "धनम्": 4887,
      "बली": 4888,
      "मत्वा": 4889,
      "यमु": 4890,
      "यताम्": 4891,
      "रञ्ज": 4892,
      "वैः": 4893,
      "सतः": 4894,
      "ोपा": 4895,
      "ौद": 4896,
      "विभ": 4897,
      "विमृ": 4898,
      "विघ्न": 4899,
      "विशोध": 4900,
      "प्रल": 4901,
      "मातु": 4902,
      "्याय": 4903,
      "तेर्": 4904,
      "क्षौ": 4905,
      "न्त̱": 4906,
      "देक": 4907,
      "दिकं": 4908,
      "मेतत्": 4909,
      "मेकं": 4910,
      "त्वष्टा": 4911,
      "कुलो": 4912,
      "भूति": 4913,
      "भवतः": 4914,
      "देवम्": 4915,
      "गुप्त": 4916,
      "भुक्ति": 4917,
      "भुवः": 4918,
      "सहे": 4919,
      "शोभा": 4920,
      "राजी": 4921,
      "अ̱द्य": 4922,
      "अ̱मृ": 4923,
      "रम्भ": 4924,
      "यिष्यति": 4925,
      "तृप्ति": 4926,
      "प्रि̱": 4927,
      "ख्यातो": 4928,
      "गतौ": 4929,
      "मनोर": 4930,
      "मण्डला": 4931,
      "साधकः": 4932,
      "उ̱क्थ": 4933,
      "कृष्णो": 4934,
      "तस्यां": 4935,
      "प्रीतो": 4936,
      "यूयं": 4937,
      "नौम्यहं": 4938,
      "भ्रात": 4939,
      "क्रियासुः": 4940,
      "नियतं": 4941,
      "जित्वा": 4942,
      "द्भुतम्": 4943,
      "कुण्डल": 4944,
      "गोचरम्": 4945,
      "दशबलवर": 4946,
      "भरणभूष": 4947,
      "वर्षाणि": 4948,
      "दुर्लभम्": 4949,
      "पिशाच": 4950,
      "सखी": 4951,
      "̍ते̱": 4952,
      "̱द्र": 4953,
      "इ̍व": 4954,
      "इच्छामि": 4955,
      "एषां": 4956,
      "जलं": 4957,
      "जयति": 4958,
      "टी": 4959,
      "न̱ः": 4960,
      "पशू": 4961,
      "रच": 4962,
      "वस्था": 4963,
      "हरं": 4964,
      "विका": 4965,
      "विदां": 4966,
      "प्रौ": 4967,
      "प्रदी": 4968,
      "प्रसङ्ग": 4969,
      "प्रभः": 4970,
      "द्भिः": 4971,
      "माह": 4972,
      "मारी": 4973,
      "वार्": 4974,
      "वासो": 4975,
      "रामम्": 4976,
      "निर्ण": 4977,
      "क्ष्वा": 4978,
      "यात्रा": 4979,
      "स्युर्": 4980,
      "श्लाघ": 4981,
      "तुलं": 4982,
      "संवृ": 4983,
      "सारं": 4984,
      "परेण": 4985,
      "रुद": 4986,
      "मेत": 4987,
      "सि̍": 4988,
      "तोय": 4989,
      "तोष": 4990,
      "लाभ": 4991,
      "धारण": 4992,
      "चात्र": 4993,
      "र्थी": 4994,
      "भवतो": 4995,
      "च्छु": 4996,
      "च्छन्": 4997,
      "मृ̱": 4998,
      "दृशो": 4999,
      "गा̱": 5000,
      "व्याः": 5001,
      "व्याध": 5002,
      "द्विधा": 5003,
      "मील": 5004,
      "मांसं": 5005,
      "ग्रामे": 5006,
      "दे̱वो": 5007,
      "गच्छन्ति": 5008,
      "तिष्ठतां": 5009,
      "मर्ह": 5010,
      "प्रेक्ष्य": 5011,
      "सारथि": 5012,
      "शान्तं": 5013,
      "निरञ्ज": 5014,
      "यूथ": 5015,
      "रसाय": 5016,
      "नूनं": 5017,
      "ङ्गुल": 5018,
      "द्वितीयं": 5019,
      "मातरं": 5020,
      "भविष्यसि": 5021,
      "क्रुद्धः": 5022,
      "प्रणिधान": 5023,
      "ञ्जलिः": 5024,
      "विज्ञाय": 5025,
      "वैराग्य": 5026,
      "परित्यज्य": 5027,
      "क्षिपेत्": 5028,
      "(?)": 5029,
      "̱न्न्": 5030,
      "अम्": 5031,
      "अवे": 5032,
      "असुर": 5033,
      "अस्मै": 5034,
      "अदि̍": 5035,
      "नहि": 5036,
      "नैर": 5037,
      "रवे": 5038,
      "लला": 5039,
      "षू": 5040,
      "सन्न": 5041,
      "हरः": 5042,
      "ृणु": 5043,
      "विपर्य": 5044,
      "प्रव": 5045,
      "वात": 5046,
      "नाक": 5047,
      "राट्": 5048,
      "सुशोभ": 5049,
      "संकल्प": 5050,
      "पुद्ग": 5051,
      "परस्य": 5052,
      "दिक्": 5053,
      "भास्": 5054,
      "सर्वकाम": 5055,
      "कुञ्ज": 5056,
      "ांस्": 5057,
      "तोप": 5058,
      "श्चर्यं": 5059,
      "नेक": 5060,
      "लोभ": 5061,
      "धिर्": 5062,
      "श्वरे": 5063,
      "महामुने": 5064,
      "ान्तम्": 5065,
      "प्रादुर्": 5066,
      "भवते": 5067,
      "भवत्य्": 5068,
      "र्यः": 5069,
      "चि̍द्": 5070,
      "ष्ठी": 5071,
      "ानि̍": 5072,
      "समः": 5073,
      "हुर्": 5074,
      "सेवा": 5075,
      "राजस्य": 5076,
      "राज्ये": 5077,
      "ष्णु": 5078,
      "अ̱स्म": 5079,
      "प्सु": 5080,
      "प्लव": 5081,
      "धीर्": 5082,
      "जीवे": 5083,
      "व्रता": 5084,
      "भ्रं": 5085,
      "तृण": 5086,
      "मन्त्रो": 5087,
      "न्तुम्": 5088,
      "क्षुद्र": 5089,
      "दिते": 5090,
      "बिका": 5091,
      "ख्यातः": 5092,
      "चरणा": 5093,
      "भूतानां": 5094,
      "बन्धः": 5095,
      "वि̱द": 5096,
      "प्रोक्त": 5097,
      "दत्तो": 5098,
      "सिद्धिर्": 5099,
      "क्षोभ": 5100,
      "प्रथम": 5101,
      "व्यवस्थिताः": 5102,
      "ज्योतिर्": 5103,
      "गृह्णी": 5104,
      "प्रयत्नतः": 5105,
      "ेष्वपि": 5106,
      "रन्ध्र": 5107,
      "नर्मदा": 5108,
      "स्निग्ध": 5109,
      "̍णि": 5110,
      "अहि": 5111,
      "अधा": 5112,
      "आस्ते": 5113,
      "इमु": 5114,
      "ऊर्": 5115,
      "छन्द": 5116,
      "पयः": 5117,
      "भ्": 5118,
      "रम्य": 5119,
      "शर्": 5120,
      "सकृत्": 5121,
      "हस्ति": 5122,
      "हितो": 5123,
      "ियते": 5124,
      "ानन्त": 5125,
      "विड": 5126,
      "विप्रे": 5127,
      "विह्व": 5128,
      "विवर्ध": 5129,
      "प्रवर": 5130,
      "स्पति": 5131,
      "ति̍": 5132,
      "मात्रे": 5133,
      "्याद्": 5134,
      "वादी": 5135,
      "निपत": 5136,
      "नियम": 5137,
      "क्षयं": 5138,
      "काली": 5139,
      "स्त्वा": 5140,
      "पात्रं": 5141,
      "संयुक्त": 5142,
      "महाना": 5143,
      "ष्ट्रं": 5144,
      "येण": 5145,
      "दिकम्": 5146,
      "मेवा": 5147,
      "मेवं": 5148,
      "भूमी": 5149,
      "श्वरि": 5150,
      "वर्णि": 5151,
      "वर्षि": 5152,
      "शाखा": 5153,
      "मोक्षो": 5154,
      "देवैर्": 5155,
      "गुणाः": 5156,
      "नी̍": 5157,
      "गाद्": 5158,
      "गामि": 5159,
      "समू": 5160,
      "लिनी": 5161,
      "भुक्त": 5162,
      "भुवं": 5163,
      "समाख्यातं": 5164,
      "दीन": 5165,
      "त्त्वं": 5166,
      "गृ̱": 5167,
      "व्रतम्": 5168,
      "पितो": 5169,
      "अ̍स्य̱": 5170,
      "मुक्त्वा": 5171,
      "व̱ः": 5172,
      "भृशं": 5173,
      "रथे": 5174,
      "पुष्पं": 5175,
      "यन्तो": 5176,
      "गच्छे": 5177,
      "सूर्यो": 5178,
      "यज्ञं": 5179,
      "राक्षसा": 5180,
      "महिमा": 5181,
      "शरीरे": 5182,
      "नयन": 5183,
      "एवाहम्": 5184,
      "द्योत": 5185,
      "सागरे": 5186,
      "ध्रुवं": 5187,
      "समीक्ष्य": 5188,
      "द्वितीय": 5189,
      "द्वितीया": 5190,
      "तत्रापि": 5191,
      "शुचिः": 5192,
      "देहिनाम्": 5193,
      "स्पन्द": 5194,
      "वसिष्ठ": 5195,
      "हेतोः": 5196,
      "जघान": 5197,
      "समन्तात्": 5198,
      "अ̱स्माक": 5199,
      "धम्": 5200,
      "धन्या": 5201,
      "फलो": 5202,
      "मस्त": 5203,
      "मणे": 5204,
      "वर्म": 5205,
      "सद्यो": 5206,
      "हतो": 5207,
      "ऽद्य": 5208,
      "ितस्": 5209,
      "विन्य": 5210,
      "विबु": 5211,
      "विघ्": 5212,
      "विधीयते": 5213,
      "प्रणी": 5214,
      "प्रकृत": 5215,
      "तेषा": 5216,
      "तेभ्यो": 5217,
      "रामेण": 5218,
      "निष्ट": 5219,
      "क्षणे": 5220,
      "न्तीं": 5221,
      "देशं": 5222,
      "दारि": 5223,
      "मह्यम्": 5224,
      "दिनी": 5225,
      "कृ̍": 5226,
      "सर्वधर्मा": 5227,
      "त्वमेव": 5228,
      "श्रया": 5229,
      "कुर्य": 5230,
      "कुन्द": 5231,
      "नेदं": 5232,
      "क्रन्द": 5233,
      "जाग": 5234,
      "व्यथ": 5235,
      "महात्": 5236,
      "मानां": 5237,
      "भवम्": 5238,
      "शुश्रू": 5239,
      "न्द्रं": 5240,
      "च्छ्रा": 5241,
      "गुह": 5242,
      "किरी": 5243,
      "कोश": 5244,
      "लेख": 5245,
      "यथाविधि": 5246,
      "त्रिः": 5247,
      "गोपा": 5248,
      "अ̱श्वि": 5249,
      "भोन्ति": 5250,
      "बुद्धिः": 5251,
      "सर्पि": 5252,
      "ध्वनि": 5253,
      "यत्नतः": 5254,
      "द्याम्": 5255,
      "दोषो": 5256,
      "चेष्टा": 5257,
      "धीर": 5258,
      "जीवि": 5259,
      "इन्द्रो̱": 5260,
      "भेदेन": 5261,
      "शीं": 5262,
      "नित्या": 5263,
      "नृपो": 5264,
      "उप̱": 5265,
      "गुणैर्": 5266,
      "म̱ही": 5267,
      "नाथो": 5268,
      "वृत्तं": 5269,
      "मयाय": 5270,
      "धेः": 5271,
      "यन्ता": 5272,
      "प्रोक्तो": 5273,
      "विष्णुं": 5274,
      "गर्भे": 5275,
      "सिद्धिः": 5276,
      "पुरस्ता": 5277,
      "प्रजापतिः": 5278,
      "र्ध्वे": 5279,
      "̍तꣳ": 5280,
      "̍त̱ꣳ": 5281,
      "निश्चयः": 5282,
      "च̱क्र": 5283,
      "भूमिर्": 5284,
      "मोक्षं": 5285,
      "कुर्वन्": 5286,
      "द्युतिः": 5287,
      "̱त्रम्": 5288,
      "पथे": 5289,
      "स्थिर": 5290,
      "शून्यता": 5291,
      "एकादश": 5292,
      "लोचनः": 5293,
      "भिन्ना": 5294,
      "विक्रमः": 5295,
      "पञ्चाश": 5296,
      "जपेत्": 5297,
      "कृपया": 5298,
      "वक्त्राय": 5299,
      "लभेत्": 5300,
      "बर्हि": 5301,
      "सुप्रभातं": 5302,
      "अह्": 5303,
      "अपरा": 5304,
      "आद्": 5305,
      "एनं": 5306,
      "तन्म": 5307,
      "ध्यां": 5308,
      "नन्": 5309,
      "नत्वा": 5310,
      "पवित": 5311,
      "पवित्र": 5312,
      "फा": 5313,
      "बन्धा": 5314,
      "भै": 5315,
      "मन्म": 5316,
      "यज्ञा": 5317,
      "यशः": 5318,
      "वयो": 5319,
      "शया": 5320,
      "शक्रा": 5321,
      "सव्य": 5322,
      "हतः": 5323,
      "हन्ता": 5324,
      "्यति": 5325,
      "ानव": 5326,
      "ितैर्": 5327,
      "विच": 5328,
      "विदो": 5329,
      "विगत": 5330,
      "विवेश": 5331,
      "प्रहर्ष": 5332,
      "मासा": 5333,
      "माहे": 5334,
      "वामे": 5335,
      "वा̱ꣳ": 5336,
      "नास्त": 5337,
      "राज्ञो": 5338,
      "निशि": 5339,
      "काम्य": 5340,
      "स्यु": 5341,
      "श्मि": 5342,
      "पारम्": 5343,
      "देयं": 5344,
      "संभार": 5345,
      "थाः": 5346,
      "पिष्ट": 5347,
      "योगो": 5348,
      "दिभिर्": 5349,
      "कृष्य": 5350,
      "त्वम": 5351,
      "त्वान्": 5352,
      "स्वभावा": 5353,
      "च्चार्य": 5354,
      "क्रव्या": 5355,
      "लाङ्ग": 5356,
      "महाकाल": 5357,
      "शुर्": 5358,
      "पूर्य": 5359,
      "चिक": 5360,
      "परिपूर": 5361,
      "षाय": 5362,
      "स्तुत्वा": 5363,
      "केत": 5364,
      "शोका": 5365,
      "त्मकं": 5366,
      "भ्यर्च्य": 5367,
      "मूषा": 5368,
      "गृण": 5369,
      "मित्रं": 5370,
      "जीवन्": 5371,
      "ब्रह्मणः": 5372,
      "योगतः": 5373,
      "श्रुतं": 5374,
      "षिणः": 5375,
      "पीत्वा": 5376,
      "विषये": 5377,
      "स्थाप्य": 5378,
      "चित्तः": 5379,
      "स्माद्": 5380,
      "तथे": 5381,
      "प्राप्ति": 5382,
      "तिष्ठन्ति": 5383,
      "तत्त्वतः": 5384,
      "मैथि": 5385,
      "हूं": 5386,
      "इ̱मा": 5387,
      "चैवा": 5388,
      "मार्गेण": 5389,
      "राक्षसे": 5390,
      "राक्षसी": 5391,
      "वतीम्": 5392,
      "जन्मनि": 5393,
      "भर्तृ": 5394,
      "प्राणान्": 5395,
      "गृह्णाति": 5396,
      "̱नꣳ": 5397,
      "ज्ञानाद्": 5398,
      "चूडा": 5399,
      "आसीद्": 5400,
      "पृष्ठे": 5401,
      "चान्ये": 5402,
      "शिरसि": 5403,
      "परस्परम्": 5404,
      "ग्रन्थ": 5405,
      "पू̱र्व": 5406,
      "भ̱द्र": 5407,
      "इ̍न्द्र̱": 5408,
      "श्लेष": 5409,
      "माहात्म्यं": 5410,
      "कारुण्य": 5411,
      "र̱यिꣳ": 5412,
      "̍भिः": 5413,
      "ंषि": 5414,
      "अघ": 5415,
      "अभ्र": 5416,
      "अच्छा": 5417,
      "आग्ने": 5418,
      "ककु": 5419,
      "ग̱": 5420,
      "जङ्ग": 5421,
      "दत्": 5422,
      "ददे": 5423,
      "दधातु": 5424,
      "धत्त": 5425,
      "भ्य्": 5426,
      "यतु": 5427,
      "यज̍": 5428,
      "रघु": 5429,
      "श्यं": 5430,
      "सतां": 5431,
      "विचक्ष": 5432,
      "प्रमथ": 5433,
      "माश्र": 5434,
      "ष्मा": 5435,
      "क्षणेन": 5436,
      "ताम्र": 5437,
      "यात": 5438,
      "कास्": 5439,
      "स्तां": 5440,
      "सुभ": 5441,
      "सु̱म्": 5442,
      "पार्थ": 5443,
      "देशो": 5444,
      "सारि": 5445,
      "त्तरे": 5446,
      "त्तरं": 5447,
      "क्तु": 5448,
      "परमो": 5449,
      "कृधि": 5450,
      "कृण्व": 5451,
      "वेश्म": 5452,
      "स्वतन्त्र": 5453,
      "श्चो": 5454,
      "जायत": 5455,
      "दुष्टा": 5456,
      "युक्ति": 5457,
      "द्यथा": 5458,
      "चाप्य्": 5459,
      "शिवो": 5460,
      "वृथा": 5461,
      "देवानाम्": 5462,
      "हारी": 5463,
      "रणः": 5464,
      "के̱": 5465,
      "केचिद्": 5466,
      "दंष्ट्र": 5467,
      "यथाक्रमम्": 5468,
      "हुः": 5469,
      "गृहम्": 5470,
      "जिनो": 5471,
      "हृष्टा": 5472,
      "जनैः": 5473,
      "दृष्टो": 5474,
      "इन्द्र̍म्": 5475,
      "श्रुत्व": 5476,
      "दर्शने": 5477,
      "श्रीर्": 5478,
      "प्रियः": 5479,
      "शेत्": 5480,
      "चित्ते": 5481,
      "चरित": 5482,
      "धे̱": 5483,
      "तथै": 5484,
      "ज्ञेयो": 5485,
      "मण्डलं": 5486,
      "शेषा": 5487,
      "हरिर्": 5488,
      "तदनु": 5489,
      "प्रभातम्": 5490,
      "जीवितं": 5491,
      "यू̱यम्": 5492,
      "क्रोधा": 5493,
      "यथैव": 5494,
      "विश्वामित्र": 5495,
      "बद्धो": 5496,
      "भूमिः": 5497,
      "वानर": 5498,
      "अग्निं": 5499,
      "जातवे": 5500,
      "कण्ठे": 5501,
      "शिवाय": 5502,
      "हरेत्": 5503,
      "मृत्युं": 5504,
      "मत्तो": 5505,
      "कन्यां": 5506,
      "योनिं": 5507,
      "संस्कार": 5508,
      "युद्धे": 5509,
      "तत्त्वा": 5510,
      "श्रवण": 5511,
      "नक्षत्र": 5512,
      "स्नेह": 5513,
      "योजनानां": 5514,
      "̍भि̱र्": 5515,
      "̍तो̱": 5516,
      "आप्नोति": 5517,
      "कण": 5518,
      "गर्व": 5519,
      "ट्वा": 5520,
      "ढा": 5521,
      "तच्छ": 5522,
      "दिता": 5523,
      "धरम्": 5524,
      "नराः": 5525,
      "नैक": 5526,
      "पप्रच्छ": 5527,
      "बद्धा": 5528,
      "भित्त्वा": 5529,
      "यसि": 5530,
      "वु": 5531,
      "वता": 5532,
      "शये": 5533,
      "सैव": 5534,
      "सव̍": 5535,
      "ौक": 5536,
      "प्रकार": 5537,
      "प्रचोद": 5538,
      "वालि": 5539,
      "राध्य": 5540,
      "कायं": 5541,
      "कालम्": 5542,
      "स्यन्ति": 5543,
      "सुताः": 5544,
      "संस": 5545,
      "संस्थितम्": 5546,
      "दिशा": 5547,
      "ङ्ख": 5548,
      "ङ्कार": 5549,
      "स्वती": 5550,
      "कुली": 5551,
      "लोकाः": 5552,
      "भूत्": 5553,
      "भूया": 5554,
      "धारे": 5555,
      "द्वया": 5556,
      "महासत्त्व": 5557,
      "शास्ता": 5558,
      "भवनं": 5559,
      "शिवे": 5560,
      "शिखि": 5561,
      "तीर्थे": 5562,
      "नुते": 5563,
      "दृशा": 5564,
      "परिपूर्ण": 5565,
      "परिवार": 5566,
      "चितो": 5567,
      "सहितं": 5568,
      "हुत्वा": 5569,
      "तस्यैव": 5570,
      "त्रिधा": 5571,
      "पेतं": 5572,
      "मूला": 5573,
      "ज्ञातं": 5574,
      "णीम्": 5575,
      "जीवा": 5576,
      "इन्द्र̱ꣳ": 5577,
      "कथिता": 5578,
      "तव̱": 5579,
      "समुदा": 5580,
      "पितरो": 5581,
      "पूर्वे": 5582,
      "पुत्रम्": 5583,
      "पुत्रान्": 5584,
      "दम्ब": 5585,
      "युक्तम्": 5586,
      "क्षुर्": 5587,
      "पुनस्": 5588,
      "यस्य̍": 5589,
      "घोरे": 5590,
      "शुद्धं": 5591,
      "क्यि": 5592,
      "गुरुर्": 5593,
      "सत्यम्": 5594,
      "रूपाणि": 5595,
      "पुराण": 5596,
      "विशेषेण": 5597,
      "सिंहा": 5598,
      "े̍ण": 5599,
      "देवेन": 5600,
      "गणैः": 5601,
      "नन्दन": 5602,
      "सङ्गो": 5603,
      "भ्यास": 5604,
      "द्युति": 5605,
      "वक्ष्ये": 5606,
      "̱त्रꣳ": 5607,
      "सङ्कल्प": 5608,
      "शासनम्": 5609,
      "श्रियः": 5610,
      "अवाप्नुयात्": 5611,
      "क्राम": 5612,
      "मृत्युर्": 5613,
      "दिशत्": 5614,
      "अमृतं": 5615,
      "विधानेन": 5616,
      "पितामहः": 5617,
      "स्नानं": 5618,
      "शाम्यति": 5619,
      "पारमितां": 5620,
      "अप्रति": 5621,
      "आव": 5622,
      "आगतः": 5623,
      "खग": 5624,
      "चर्य": 5625,
      "डु": 5626,
      "दान्त": 5627,
      "नश्": 5628,
      "प̍व": 5629,
      "भविष": 5630,
      "मस्य": 5631,
      "मतिं": 5632,
      "मब्रवीत्": 5633,
      "यती": 5634,
      "रै": 5635,
      "रतः": 5636,
      "रतिः": 5637,
      "वक्ष्य": 5638,
      "शरा": 5639,
      "शनैः": 5640,
      "सचा": 5641,
      "सत्वं": 5642,
      "हरो": 5643,
      "ैनं": 5644,
      "विदः": 5645,
      "प्रत": 5646,
      "प्रदर्श": 5647,
      "प्रसर": 5648,
      "प्रपूजयेत्": 5649,
      "नियोज": 5650,
      "निरोध": 5651,
      "याहि": 5652,
      "कामि": 5653,
      "कायः": 5654,
      "पापि": 5655,
      "संस्थितः": 5656,
      "पुमान्": 5657,
      "मुकुट": 5658,
      "पि̱त": 5659,
      "त्यं": 5660,
      "त्यै": 5661,
      "वेध": 5662,
      "वेद्य": 5663,
      "ज्ञया": 5664,
      "श्चतुर्": 5665,
      "जातः": 5666,
      "धिम्": 5667,
      "युता": 5668,
      "धारिणी": 5669,
      "चारो": 5670,
      "महाप्रा": 5671,
      "प्राची": 5672,
      "वर्ते": 5673,
      "वृणी": 5674,
      "चिच्": 5675,
      "नोत्": 5676,
      "वीरः": 5677,
      "परिशुद्ध": 5678,
      "भुजा": 5679,
      "न्ध्य": 5680,
      "शो̱": 5681,
      "त्मकः": 5682,
      "भोगा": 5683,
      "बा̱": 5684,
      "ब्द": 5685,
      "स्त्रै": 5686,
      "सिद्धये": 5687,
      "तव̍": 5688,
      "किंचन": 5689,
      "नृ̱": 5690,
      "भगि": 5691,
      "मीति": 5692,
      "मन्त्र्य": 5693,
      "विधः": 5694,
      "चित्तस्य": 5695,
      "चक्रा": 5696,
      "न्याय": 5697,
      "न्मत्त": 5698,
      "पद्मं": 5699,
      "शतानि": 5700,
      "मर्त्या": 5701,
      "तपस्वि": 5702,
      "च्छाया": 5703,
      "सत्तमाः": 5704,
      "धृत": 5705,
      "निरृ": 5706,
      "अधि̱": 5707,
      "प्रथ̱": 5708,
      "घृ̱": 5709,
      "̍त̱": 5710,
      "पर्वत": 5711,
      "शय्या": 5712,
      "सदैव": 5713,
      "वर्षं": 5714,
      "शत्रू": 5715,
      "श्रोत्र": 5716,
      "पाणिः": 5717,
      "वपुषा": 5718,
      "छाया": 5719,
      "इन्द्रा̍य": 5720,
      "विनश्य": 5721,
      "विशाला": 5722,
      "हिंसा": 5723,
      "गगन": 5724,
      "य̱ज्ञम्": 5725,
      "किञ्चिद्": 5726,
      "इच्छति": 5727,
      "सुगतस्य": 5728,
      "परायणः": 5729,
      "चन्दन": 5730,
      "प्रत्येक": 5731,
      "शार्दूल": 5732,
      "ऊचुः": 5733,
      "अल": 5734,
      "अलम्": 5735,
      "अचिन्त": 5736,
      "आशु": 5737,
      "आगच्छ": 5738,
      "चान्": 5739,
      "जन्य": 5740,
      "दन्ग्": 5741,
      "नꣳ": 5742,
      "नन्दि": 5743,
      "ब̱": 5744,
      "भान": 5745,
      "भयो": 5746,
      "भ्ये": 5747,
      "ममे": 5748,
      "मयम्": 5749,
      "यैव": 5750,
      "यसे": 5751,
      "य̍म्": 5752,
      "वस्त्रा": 5753,
      "सतो": 5754,
      "सतत": 5755,
      "विः": 5756,
      "माद्": 5757,
      "माक्षि": 5758,
      "रागो": 5759,
      "त्रया": 5760,
      "का̱": 5761,
      "काश्य": 5762,
      "स्तौ": 5763,
      "पादु": 5764,
      "पा̍त": 5765,
      "देशा": 5766,
      "त्तरम्": 5767,
      "दाम": 5768,
      "येति": 5769,
      "मि̍": 5770,
      "मिमं": 5771,
      "दिशम्": 5772,
      "कृतिं": 5773,
      "णाम": 5774,
      "मेषु": 5775,
      "सर्वैः": 5776,
      "नेह": 5777,
      "क्रान्ति": 5778,
      "धिक": 5779,
      "भूतस्य": 5780,
      "दु̍": 5781,
      "युज्य": 5782,
      "प्राग्": 5783,
      "ञ्जा": 5784,
      "मानी": 5785,
      "मानेन": 5786,
      "मानवः": 5787,
      "शाप": 5788,
      "वृतो": 5789,
      "नुर्": 5790,
      "नोद्": 5791,
      "एवै": 5792,
      "दृक्": 5793,
      "समये": 5794,
      "समरे": 5795,
      "चिति": 5796,
      "दीना": 5797,
      "गोम̍": 5798,
      "गोचरे": 5799,
      "बुद्धस्य": 5800,
      "धर्मान्": 5801,
      "क्षि̱": 5802,
      "कल्म": 5803,
      "हृता": 5804,
      "जगतः": 5805,
      "यिनः": 5806,
      "धीमतः": 5807,
      "जनस्य": 5808,
      "इन्द्रिया": 5809,
      "पीडा": 5810,
      "पित्रा": 5811,
      "स̱ः": 5812,
      "शेते": 5813,
      "तथैवा": 5814,
      "प्रोवाच": 5815,
      "गर्ज": 5816,
      "लोकेश्वर": 5817,
      "हरिं": 5818,
      "बोधौ": 5819,
      "कृष्णः": 5820,
      "मध्यगतं": 5821,
      "यौवन": 5822,
      "शम्भो": 5823,
      "मत्स्य": 5824,
      "मन्दा": 5825,
      "निश्चित्य": 5826,
      "भावाभाव": 5827,
      "रावणो": 5828,
      "स्त्रीणां": 5829,
      "द्वीपे": 5830,
      "मय्य्": 5831,
      "भैरवा": 5832,
      "लक्ष्मणः": 5833,
      "नराधिप": 5834,
      "प्र̱जा": 5835,
      "प्रयच्छ": 5836,
      "शास्त्रं": 5837,
      "लोचना": 5838,
      "च्युत": 5839,
      "प्रकीर्तिताः": 5840,
      "तस्थौ": 5841,
      "वैश्वान": 5842,
      "महाबलाः": 5843,
      "जगद्धिते": 5844,
      "कौसल्या": 5845,
      "वज्रयोगिनि": 5846,
      "(⟨": 5847,
      "अरा": 5848,
      "आयाति": 5849,
      "आचार्य": 5850,
      "ऊर्ज": 5851,
      "ऋ̱ता": 5852,
      "ऐश्वर्य": 5853,
      "जम्बू": 5854,
      "तदेव": 5855,
      "दितं": 5856,
      "पण": 5857,
      "यैः": 5858,
      "रभ": 5859,
      "रता": 5860,
      "र̱ꣳ": 5861,
      "वतां": 5862,
      "ष̱": 5863,
      "हर्य": 5864,
      "ेभ्यो": 5865,
      "विलो": 5866,
      "विभीष": 5867,
      "प्रद्युम्": 5868,
      "माणः": 5869,
      "निवार": 5870,
      "क्षयम्": 5871,
      "ताꣳ": 5872,
      "न्तर": 5873,
      "न्तौ": 5874,
      "यावन्": 5875,
      "काक": 5876,
      "स्यैव": 5877,
      "सार्व": 5878,
      "पुटे": 5879,
      "मुस": 5880,
      "द्रव्यं": 5881,
      "योज्य": 5882,
      "दिवाक": 5883,
      "स्वय": 5884,
      "श्रय": 5885,
      "तोर्": 5886,
      "क्रौ": 5887,
      "भूद्": 5888,
      "भूताः": 5889,
      "लाभा": 5890,
      "द्वये": 5891,
      "द्यैः": 5892,
      "चाभि": 5893,
      "र्थस्य": 5894,
      "र्मो": 5895,
      "ग्रतः": 5896,
      "प्तम्": 5897,
      "स्याम": 5898,
      "बुद्": 5899,
      "दीर्": 5900,
      "तत्सर्वं": 5901,
      "पृ̍थि": 5902,
      "त्रि̱": 5903,
      "अ̱पा": 5904,
      "जिना": 5905,
      "प्यति": 5906,
      "ज्ञानेन": 5907,
      "योगः": 5908,
      "श्रुतम्": 5909,
      "पूर्वशः": 5910,
      "शेख": 5911,
      "करणा": 5912,
      "रथः": 5913,
      "धर्मि": 5914,
      "अन्यत्र": 5915,
      "सहस्रेण": 5916,
      "यितुम्": 5917,
      "देशना": 5918,
      "वदनं": 5919,
      "मधुसूद": 5920,
      "फलानि": 5921,
      "वक्तुं": 5922,
      "जानन्ति": 5923,
      "ब्राह्मणो": 5924,
      "आत्मनि": 5925,
      "कान्तं": 5926,
      "ान्वितम्": 5927,
      "ऋ̱तस्य̱": 5928,
      "प्रकृत्या": 5929,
      "युद्धं": 5930,
      "विपुलं": 5931,
      "स्थितिम्": 5932,
      "रोचते": 5933,
      "अभूत्": 5934,
      "क्षिप्रम्": 5935,
      "आहुर्": 5936,
      "ग्युर्": 5937,
      "ऽभूत्": 5938,
      "अस्त्व्": 5939,
      "सन्ध्या": 5940,
      "कृणोतु": 5941,
      "स्व̱स्तिभि̱ः": 5942,
      "̍नः": 5943,
      "̍नाम्": 5944,
      "̍ना̱": 5945,
      "अदृष्ट": 5946,
      "अणु": 5947,
      "आपि": 5948,
      "आरो": 5949,
      "ए̱ष": 5950,
      "ओज̍सा": 5951,
      "चर्": 5952,
      "जन्तु": 5953,
      "तर्ज": 5954,
      "तण्डु": 5955,
      "नवा": 5956,
      "पता": 5957,
      "पराज": 5958,
      "बौ": 5959,
      "मर्या": 5960,
      "यन": 5961,
      "ळा": 5962,
      "वशि": 5963,
      "वञ्च": 5964,
      "ष्यं": 5965,
      "हꣳ": 5966,
      "ऽव्य": 5967,
      "ीः": 5968,
      "्यस्": 5969,
      "विषु": 5970,
      "विभ्र": 5971,
      "प्रद": 5972,
      "प्रवा": 5973,
      "न्नं": 5974,
      "द्मि": 5975,
      "मासि": 5976,
      "माङ्ग": 5977,
      "्यास्": 5978,
      "वा̱म्": 5979,
      "रामे": 5980,
      "राष्ट्रं": 5981,
      "क्षते": 5982,
      "न्त्र": 5983,
      "याश्": 5984,
      "कात्": 5985,
      "कात्म": 5986,
      "स्ततो": 5987,
      "स्ताः": 5988,
      "स्त्व्": 5989,
      "सुर्": 5990,
      "सुरो": 5991,
      "सुतां": 5992,
      "सुधीः": 5993,
      "सुदारु": 5994,
      "संसृ": 5995,
      "सात्त्व": 5996,
      "त्तं": 5997,
      "दाव": 5998,
      "मुद्ग": 5999,
      "परमां": 6000,
      "कृत्रि": 6001,
      "च्चार": 6002,
      "श्वरा": 6003,
      "श्वराः": 6004,
      "युधि": 6005,
      "धार्मि": 6006,
      "ग्धा": 6007,
      "वर्ती": 6008,
      "चिह्": 6009,
      "नोति": 6010,
      "बुभु": 6011,
      "गावो": 6012,
      "परिपा": 6013,
      "समता": 6014,
      "त्रास": 6015,
      "व्याप्ति": 6016,
      "हेतुः": 6017,
      "हृतं": 6018,
      "द्यावा": 6019,
      "ज्ञानस्य": 6020,
      "तेन̍": 6021,
      "षि̱": 6022,
      "क्षेम": 6023,
      "श्रीः": 6024,
      "विष्व": 6025,
      "व̱द्": 6026,
      "पुनर": 6027,
      "ग्निं": 6028,
      "वज्रि": 6029,
      "रथम्": 6030,
      "द्राव": 6031,
      "तथता": 6032,
      "ध्याय": 6033,
      "पद्मे": 6034,
      "पूजित": 6035,
      "तिष्ठा": 6036,
      "पन्थ": 6037,
      "मर्हति": 6038,
      "तत्त्वे": 6039,
      "मैत्री": 6040,
      "गीत": 6041,
      "जानी": 6042,
      "न्ताम्": 6043,
      "शम्भु": 6044,
      "शरैः": 6045,
      "मार्गं": 6046,
      "क्रोश": 6047,
      "शरीरम्": 6048,
      "यथान्या": 6049,
      "भरतं": 6050,
      "गणान्": 6051,
      "आत्मनो": 6052,
      "स्पृह": 6053,
      "जिनान": 6054,
      "त्रैधातु": 6055,
      "ति̱ग्": 6056,
      "सङ्घ": 6057,
      "एतत्पुण्य": 6058,
      "करिष्यामि": 6059,
      "तनुः": 6060,
      "पृथिवीं": 6061,
      "हरेः": 6062,
      "यु̱वꣳ": 6063,
      "पु̱रू": 6064,
      "विवर्जितम्": 6065,
      "भवद्भक्ति": 6066,
      "अ̱ग्निम्": 6067,
      "विस्मय": 6068,
      "पश्चिमे": 6069,
      "पू̱र्वी": 6070,
      "काङ्क्ष": 6071,
      "पङ्कज": 6072,
      "अ̍ग्ने̱": 6073,
      "सोम̍स्य": 6074,
      "सनातनः": 6075,
      "सौमित्रे": 6076,
      "बृह̱स्पति": 6077,
      "महायशाः": 6078,
      "ज़्हि": 6079,
      "विस्तीर्ण": 6080,
      "चतुष्टयम्": 6081,
      "̍तम्": 6082,
      "आर्य": 6083,
      "आलोक्य": 6084,
      "इष्यते": 6085,
      "ओं": 6086,
      "ओद": 6087,
      "कठ": 6088,
      "खु": 6089,
      "गां": 6090,
      "गमाः": 6091,
      "चानु": 6092,
      "छत्र": 6093,
      "जनम्": 6094,
      "जम्भ": 6095,
      "तदि": 6096,
      "तवो": 6097,
      "तयोर्": 6098,
      "दन्ति": 6099,
      "धैर्य": 6100,
      "पवन": 6101,
      "बभौ": 6102,
      "भक्ता": 6103,
      "यद्व": 6104,
      "यनं": 6105,
      "रैर्": 6106,
      "लस्य": 6107,
      "लये": 6108,
      "व̱र्": 6109,
      "सज्": 6110,
      "सरः": 6111,
      "ऽर्": 6112,
      "ीनां": 6113,
      "ैषा": 6114,
      "विरु": 6115,
      "विध्य": 6116,
      "विकट": 6117,
      "त्स्": 6118,
      "प्रतम्": 6119,
      "प्रबुद्ध": 6120,
      "तिर": 6121,
      "वाजे": 6122,
      "ताश्": 6123,
      "तासु": 6124,
      "न्तां": 6125,
      "कामेन": 6126,
      "साक्षी": 6127,
      "पुरम्": 6128,
      "पुरीं": 6129,
      "पि̍": 6130,
      "दिर्": 6131,
      "कृती": 6132,
      "कृच्छ्र": 6133,
      "सर्वैर्": 6134,
      "श्रयः": 6135,
      "श्रितः": 6136,
      "कुलि": 6137,
      "भूतः": 6138,
      "यु̍": 6139,
      "धारं": 6140,
      "महात्मा": 6141,
      "महावीर्य": 6142,
      "महाम्भो": 6143,
      "वृश्च": 6144,
      "तीरे": 6145,
      "च्छं": 6146,
      "ण्ण": 6147,
      "ल्गु": 6148,
      "नीलो": 6149,
      "ष्ठि": 6150,
      "किला": 6151,
      "रणो": 6152,
      "वीरु": 6153,
      "परिष्व": 6154,
      "चितः": 6155,
      "सह्य": 6156,
      "दीप्य": 6157,
      "से̍": 6158,
      "पृष्ट": 6159,
      "र्णवे": 6160,
      "बालि": 6161,
      "बाह्या": 6162,
      "कल्प्य": 6163,
      "स्त्रं": 6164,
      "चेदं": 6165,
      "भेदं": 6166,
      "रूपी": 6167,
      "षि̍": 6168,
      "पी̱तये̍": 6169,
      "गुणः": 6170,
      "म̱हो": 6171,
      "स्थाः": 6172,
      "̱तय̍ः": 6173,
      "र्षभ": 6174,
      "ख्यात": 6175,
      "गिरा": 6176,
      "दूरं": 6177,
      "पतये": 6178,
      "दे̱वान्": 6179,
      "भागं": 6180,
      "ज्ञेयः": 6181,
      "विष्णोर्": 6182,
      "जुष": 6183,
      "नरकं": 6184,
      "अप̍": 6185,
      "अप̱": 6186,
      "करोत्": 6187,
      "अर्हति": 6188,
      "कृष्णस्य": 6189,
      "निष्कल": 6190,
      "स्त्वया": 6191,
      "मध्यतः": 6192,
      "नित्यो": 6193,
      "नैरात्म": 6194,
      "बीजा": 6195,
      "राक्षसाः": 6196,
      "घृतेन": 6197,
      "भरद्वा": 6198,
      "मौलि": 6199,
      "प्रविवेश": 6200,
      "शङ्कर": 6201,
      "ान्वितः": 6202,
      "प्रभुम्": 6203,
      "त्येव": 6204,
      "करणे": 6205,
      "सत्त्वाः": 6206,
      "अग्निः": 6207,
      "शासने": 6208,
      "श्रोतु": 6209,
      "तद्वद्": 6210,
      "कुसुमा": 6211,
      "शान्तिं": 6212,
      "नान्यथा": 6213,
      "ैर्यु": 6214,
      "नरेन्द्र": 6215,
      "शक्यं": 6216,
      "ञ्जीत": 6217,
      "घण्टा": 6218,
      "̍ते": 6219,
      "अध्य": 6220,
      "अव̱": 6221,
      "अग्न": 6222,
      "अम्बु": 6223,
      "अस्मान्": 6224,
      "आरु": 6225,
      "आवृ": 6226,
      "आदौ": 6227,
      "आस्थाय": 6228,
      "आरुह्य": 6229,
      "इमा": 6230,
      "उक्ता": 6231,
      "एवे": 6232,
      "खं": 6233,
      "गमन": 6234,
      "गमनं": 6235,
      "जज्ञ": 6236,
      "जिता": 6237,
      "त̱ः": 6238,
      "तच्च": 6239,
      "दरात्": 6240,
      "मर्म": 6241,
      "यज्": 6242,
      "रभ्य": 6243,
      "वलि": 6244,
      "वन्तो": 6245,
      "शन": 6246,
      "शक्": 6247,
      "षत्": 6248,
      "सश्": 6249,
      "स̍म्": 6250,
      "सवित": 6251,
      "हन": 6252,
      "हसः": 6253,
      "ेणा": 6254,
      "ानेन": 6255,
      "िती": 6256,
      "विप्रो": 6257,
      "विलोक्य": 6258,
      "प्रदक्षि": 6259,
      "प्रवेश": 6260,
      "माणा": 6261,
      "वाजा": 6262,
      "वाणि": 6263,
      "नाट": 6264,
      "तेष": 6265,
      "रामि": 6266,
      "क्षसे": 6267,
      "ताद्": 6268,
      "तावन्": 6269,
      "न्तरे": 6270,
      "यामा": 6271,
      "याते": 6272,
      "काव्य": 6273,
      "सुरः": 6274,
      "देशः": 6275,
      "संच": 6276,
      "संध्या": 6277,
      "पुष्टि": 6278,
      "मुमोच": 6279,
      "महती": 6280,
      "महर्षि": 6281,
      "पिका": 6282,
      "येद": 6283,
      "दिग्ध": 6284,
      "भार्य": 6285,
      "कृतस्य": 6286,
      "स्वम्": 6287,
      "स्वनः": 6288,
      "कुण्ठ": 6289,
      "जार": 6290,
      "धिका": 6291,
      "रोष": 6292,
      "चाल": 6293,
      "महायान": 6294,
      "प्रातः": 6295,
      "वर्त्त": 6296,
      "वर्णो": 6297,
      "मानौ": 6298,
      "भविता": 6299,
      "शुक्": 6300,
      "ग्रम्": 6301,
      "चि̍": 6302,
      "चिरम्": 6303,
      "गुण्ठ": 6304,
      "ल्ब": 6305,
      "किनी": 6306,
      "ह्नि": 6307,
      "हाः": 6308,
      "समप्रभम्": 6309,
      "भुवनं": 6310,
      "समापन्नं": 6311,
      "दीन्": 6312,
      "हुत": 6313,
      "त्रिरत्न": 6314,
      "ध्याना": 6315,
      "वोच": 6316,
      "बोध्य": 6317,
      "जिघ": 6318,
      "जिगी": 6319,
      "स्रि": 6320,
      "सीं": 6321,
      "र्यां": 6322,
      "चेतः": 6323,
      "परा̍": 6324,
      "परार्थ": 6325,
      "दानम्": 6326,
      "कर्मसु": 6327,
      "कर्मणाम्": 6328,
      "पीयू": 6329,
      "पितु": 6330,
      "श्रीलोकनाथ": 6331,
      "स̱जो": 6332,
      "क्ष्म": 6333,
      "न्यासं": 6334,
      "एकैक": 6335,
      "पूजयित्वा": 6336,
      "विष्णोः": 6337,
      "स्फटि": 6338,
      "स्फोट": 6339,
      "साध्यं": 6340,
      "गर्भा": 6341,
      "खिलम्": 6342,
      "सत्तमः": 6343,
      "वसति": 6344,
      "वसन्ति": 6345,
      "धृति": 6346,
      "भूषण": 6347,
      "प्रजायते": 6348,
      "मात्रम्": 6349,
      "कुलः": 6350,
      "घृतं": 6351,
      "पृथ्वी": 6352,
      "प̱वित्र": 6353,
      "पर्यु": 6354,
      "स्कन्द": 6355,
      "रावण": 6356,
      "निर्मला": 6357,
      "तूह": 6358,
      "अङ्गि": 6359,
      "वायुः": 6360,
      "पुत्राः": 6361,
      "परमेश्वर": 6362,
      "कीर्त्य": 6363,
      "चण्डी": 6364,
      "श्रियं": 6365,
      "मूढो": 6366,
      "षड्वि": 6367,
      "तृतीय": 6368,
      "श्रूयते": 6369,
      "कमला": 6370,
      "केवलम्": 6371,
      "त्वद्भक्ति": 6372,
      "किञ्चित्": 6373,
      "मिथु": 6374,
      "सदृशं": 6375,
      "विमला": 6376,
      "बहून्": 6377,
      "सपत्नान्": 6378,
      "पृथिव्यां": 6379,
      "परिकीर्तितम्": 6380,
      "प्रसन्ना": 6381,
      "कैकेयी": 6382,
      "नश्यति": 6383,
      "पितॄन्": 6384,
      "कुब्जि": 6385,
      "फुल्ल": 6386,
      "̱षा": 6387,
      "̱ची": 6388,
      "अर्व": 6389,
      "अनी": 6390,
      "अञ्ज": 6391,
      "अम्ब": 6392,
      "अस्थि": 6393,
      "आराध": 6394,
      "इदानीं": 6395,
      "इक्ष्वा": 6396,
      "कनि": 6397,
      "क्यं": 6398,
      "कले": 6399,
      "कस्मिन्": 6400,
      "गतस्य": 6401,
      "चरु": 6402,
      "जट": 6403,
      "ड्य": 6404,
      "तक्": 6405,
      "दति": 6406,
      "दधान": 6407,
      "दध्": 6408,
      "धै": 6409,
      "धने": 6410,
      "ध्यं": 6411,
      "बध्": 6412,
      "यज्ञे": 6413,
      "लानि": 6414,
      "ल्यां": 6415,
      "वसो": 6416,
      "शनि": 6417,
      "शम्ब": 6418,
      "सान्त": 6419,
      "सदान": 6420,
      "ेयं": 6421,
      "ैति": 6422,
      "र्द्र": 6423,
      "विद्ध": 6424,
      "विरूपा": 6425,
      "प्रश्": 6426,
      "मारा": 6427,
      "माणं": 6428,
      "वासा": 6429,
      "नासा": 6430,
      "तेजः": 6431,
      "रात्रे": 6432,
      "क्षरं": 6433,
      "तार्": 6434,
      "काशा": 6435,
      "तुष्ट": 6436,
      "संप्रति": 6437,
      "संपूर्ण": 6438,
      "भिधान": 6439,
      "दिः": 6440,
      "दिवम्": 6441,
      "भागो": 6442,
      "कृष्ट": 6443,
      "मेघा": 6444,
      "स्वान्": 6445,
      "तोः": 6446,
      "नेय": 6447,
      "क्रमं": 6448,
      "जायन्ते": 6449,
      "भूतम्": 6450,
      "रेणु": 6451,
      "युध्य": 6452,
      "द्वं": 6453,
      "महादेवि": 6454,
      "ञ्जि": 6455,
      "देव̱": 6456,
      "ल्बि": 6457,
      "वीचि": 6458,
      "केण": 6459,
      "भ्यश्": 6460,
      "भ्यो̱": 6461,
      "व्यास": 6462,
      "द्विजा": 6463,
      "बाहो": 6464,
      "यत्नेन": 6465,
      "प्यु": 6466,
      "स्रव": 6467,
      "मन्तः": 6468,
      "जगतां": 6469,
      "दृष्ट्या": 6470,
      "सिद्धं": 6471,
      "तवैव": 6472,
      "वंशे": 6473,
      "कलु": 6474,
      "पुत्रेण": 6475,
      "द्वात्रिंश": 6476,
      "अनू": 6477,
      "ग्निना": 6478,
      "भूतले": 6479,
      "रथे̍": 6480,
      "गतान्": 6481,
      "तथो": 6482,
      "दे̱वी": 6483,
      "जुहो": 6484,
      "नरक": 6485,
      "पन्ने": 6486,
      "उत्थ": 6487,
      "घाति": 6488,
      "विद्याधर": 6489,
      "उत्ति": 6490,
      "बोधो": 6491,
      "सत्ता": 6492,
      "तस्यास्": 6493,
      "पालः": 6494,
      "जीवितम्": 6495,
      "बीजम्": 6496,
      "रागः": 6497,
      "ततश्च": 6498,
      "मन्यु": 6499,
      "भोगान्": 6500,
      "कृत्यं": 6501,
      "̱ष्व्": 6502,
      "क्रान्ता": 6503,
      "यस्याः": 6504,
      "उक्तो": 6505,
      "ऋ̱तस्य̍": 6506,
      "स्वर्गं": 6507,
      "स्वर्गे": 6508,
      "श्मशान": 6509,
      "बोधिसत्त्वो": 6510,
      "अ̱ग्निः": 6511,
      "गोचरः": 6512,
      "संभवः": 6513,
      "द्विजोत्तम": 6514,
      "विवेक": 6515,
      "इत्येवं": 6516,
      "ऊ̱ति": 6517,
      "बहवो": 6518,
      "चरिं": 6519,
      "बोधिसत्त्वाः": 6520,
      "ह्लाद": 6521,
      "जग्मुर्": 6522,
      "महर्द्धि": 6523,
      "नैरृ": 6524,
      "पृ̍थि̱": 6525,
      "सात्त्वि": 6526,
      "̍वः": 6527,
      "̱नम्": 6528,
      "अर": 6529,
      "अꣳ": 6530,
      "अभ्या": 6531,
      "अल्प": 6532,
      "ईश्वरः": 6533,
      "उदे": 6534,
      "उग्रा": 6535,
      "ऋ̍": 6536,
      "ए̍": 6537,
      "एतां": 6538,
      "एकः": 6539,
      "ओज": 6540,
      "कया": 6541,
      "गमत्": 6542,
      "गवां": 6543,
      "जितं": 6544,
      "तदर्": 6545,
      "दह्य": 6546,
      "ध̍": 6547,
      "नलि": 6548,
      "नभो": 6549,
      "न्व्": 6550,
      "पान्": 6551,
      "भस्य": 6552,
      "भयात्": 6553,
      "वरेण": 6554,
      "शते": 6555,
      "हिताः": 6556,
      "हन्तुं": 6557,
      "हवामहे": 6558,
      "ऽश्व": 6559,
      "ऽन्व": 6560,
      "ैरि": 6561,
      "ैर्म": 6562,
      "विज्ञ": 6563,
      "विरि": 6564,
      "विक्रम": 6565,
      "विचित्रा": 6566,
      "प्रकल्पयेत्": 6567,
      "माणो": 6568,
      "राज्ञः": 6569,
      "निका": 6570,
      "नियोजयेत्": 6571,
      "कापि": 6572,
      "काण्ड": 6573,
      "काणां": 6574,
      "स्तेषां": 6575,
      "श्लि": 6576,
      "देर्": 6577,
      "साव": 6578,
      "सार्ध": 6579,
      "साव्": 6580,
      "दाम्": 6581,
      "मुत्त": 6582,
      "द्रे": 6583,
      "भिष": 6584,
      "मिवा": 6585,
      "भार्ग": 6586,
      "मेद्": 6587,
      "त्वदी": 6588,
      "स्वस्थ": 6589,
      "कुच": 6590,
      "धि̍": 6591,
      "धियः": 6592,
      "हिरण": 6593,
      "युद्धा": 6594,
      "चासि": 6595,
      "प्राश्": 6596,
      "मानन्द": 6597,
      "शि̱": 6598,
      "वृन्दा": 6599,
      "ग्रही": 6600,
      "तीः": 6601,
      "च्छसि": 6602,
      "किल्बि": 6603,
      "मृषा": 6604,
      "ैर्वि": 6605,
      "वी̱र": 6606,
      "परिवर्त": 6607,
      "वैदेह": 6608,
      "दंष्ट्रा": 6609,
      "यथासुखम्": 6610,
      "बुद्धः": 6611,
      "बुद्धे": 6612,
      "पेदे": 6613,
      "भाविता": 6614,
      "दशग्री": 6615,
      "कारणा": 6616,
      "कीर्णं": 6617,
      "कल्पं": 6618,
      "समुद्रा": 6619,
      "क्षाः": 6620,
      "क्षेत्रा": 6621,
      "पुत्रौ": 6622,
      "पुत्रस्य": 6623,
      "रत्नम": 6624,
      "म̱हे": 6625,
      "सर्वाङ्ग": 6626,
      "शूर": 6627,
      "वर्तत": 6628,
      "वाचं": 6629,
      "लक्ष्यते": 6630,
      "चोप": 6631,
      "दूरे": 6632,
      "पादः": 6633,
      "पतति": 6634,
      "यन्तः": 6635,
      "पद्मो": 6636,
      "मनुज": 6637,
      "दक्षिणां": 6638,
      "गुरुम्": 6639,
      "गुरुणा": 6640,
      "सन्धि": 6641,
      "मधुर": 6642,
      "विधिवत्": 6643,
      "शक्तिं": 6644,
      "कुरुष्व": 6645,
      "पुरतः": 6646,
      "देवेशं": 6647,
      "स्पृहा": 6648,
      "दृश्यन्ते": 6649,
      "शोभते": 6650,
      "शोभितम्": 6651,
      "क्रियां": 6652,
      "करिष्यति": 6653,
      "वायुर्": 6654,
      "उक्तस्": 6655,
      "ध्मा": 6656,
      "आगतम्": 6657,
      "सैन्यं": 6658,
      "अष्टौ": 6659,
      "अपां": 6660,
      "ानेक": 6661,
      "धनुः": 6662,
      "̱वाꣳ": 6663,
      "सत्वानां": 6664,
      "अव्ययम्": 6665,
      "वर्चसा": 6666,
      "सुन्दरी": 6667,
      "संभवम्": 6668,
      "गुरोर्": 6669,
      "निषेव": 6670,
      "वेगेन": 6671,
      "बुधैः": 6672,
      "गूढ": 6673,
      "̱ळ्": 6674,
      "शाक्यसिं": 6675,
      "समृद्ध": 6676,
      "तुभ्यम्": 6677,
      "भुङ्क्ते": 6678,
      "अल्": 6679,
      "अन्न": 6680,
      "अपो": 6681,
      "अदित": 6682,
      "अद्यापि": 6683,
      "आशा": 6684,
      "आनु": 6685,
      "आसे": 6686,
      "उमा": 6687,
      "चञ्च": 6688,
      "जठ": 6689,
      "जहा": 6690,
      "जयः": 6691,
      "जहार": 6692,
      "जल्प": 6693,
      "धर्ष": 6694,
      "बत": 6695,
      "मख": 6696,
      "मनि": 6697,
      "मदि": 6698,
      "यिता": 6699,
      "यीं": 6700,
      "रज्जु": 6701,
      "ललित": 6702,
      "वध्य": 6703,
      "वशे": 6704,
      "ष्वा": 6705,
      "सनम्": 6706,
      "स̍ꣳ": 6707,
      "ससर्ज": 6708,
      "हनु": 6709,
      "ऽर्थ": 6710,
      "ूर्ण": 6711,
      "ेन्दु": 6712,
      "विरा": 6713,
      "विग्रहः": 6714,
      "प्रजान": 6715,
      "स्नु": 6716,
      "मासाद्य": 6717,
      "वाता": 6718,
      "वार्य": 6719,
      "नास्": 6720,
      "नामानि": 6721,
      "क्षणः": 6722,
      "न्तो̱": 6723,
      "याता": 6724,
      "त्रयम्": 6725,
      "सुगता": 6726,
      "देशि": 6727,
      "संहृ": 6728,
      "संबन्ध": 6729,
      "संपूज्य": 6730,
      "साद्": 6731,
      "साध्या": 6732,
      "सावित्र": 6733,
      "दा̍": 6734,
      "क्तेन": 6735,
      "मह्य": 6736,
      "महतो": 6737,
      "पिश": 6738,
      "योजना": 6739,
      "भासि": 6740,
      "भाषे": 6741,
      "वेला": 6742,
      "स्वरा": 6743,
      "स्वस्त": 6744,
      "सिनी": 6745,
      "ने̱": 6746,
      "जा̱त": 6747,
      "लोप": 6748,
      "दुर्ध": 6749,
      "रिका": 6750,
      "ान्तर्": 6751,
      "प्रासा": 6752,
      "प्राणो": 6753,
      "मान्य": 6754,
      "शुः": 6755,
      "ग्रहं": 6756,
      "ल्द्": 6757,
      "लिखे": 6758,
      "कोमल": 6759,
      "न्दू": 6760,
      "सहिता": 6761,
      "वैरि": 6762,
      "सूतं": 6763,
      "दीप्ता": 6764,
      "यथा̱": 6765,
      "सेयं": 6766,
      "त्मक": 6767,
      "प्रतिपाद": 6768,
      "श्येन": 6769,
      "ब्रह्मह": 6770,
      "बुद्ध्वा": 6771,
      "हेति": 6772,
      "बाहू": 6773,
      "ब्स्": 6774,
      "द्यां": 6775,
      "त्यागो": 6776,
      "मन्तं": 6777,
      "जीमू": 6778,
      "व्रतः": 6779,
      "लीढ": 6780,
      "लीलया": 6781,
      "भगवती": 6782,
      "पित्त": 6783,
      "पितरः": 6784,
      "पूर्वकम्": 6785,
      "अ̍ध्व": 6786,
      "विधू": 6787,
      "विध्": 6788,
      "हीयते": 6789,
      "शूलं": 6790,
      "भृतां": 6791,
      "स्थितस्य": 6792,
      "स्थितान्": 6793,
      "अभिषे": 6794,
      "देवासुर": 6795,
      "जो̱": 6796,
      "पतौ": 6797,
      "दुर्ल": 6798,
      "भागी": 6799,
      "पूजिता": 6800,
      "साधनं": 6801,
      "महेश्वर": 6802,
      "प्रेम": 6803,
      "ख्यान": 6804,
      "शान्तो": 6805,
      "कौशि": 6806,
      "कार्यम्": 6807,
      "कूल": 6808,
      "दैत्या": 6809,
      "नैरा": 6810,
      "विशेषो": 6811,
      "यौव": 6812,
      "वसुं": 6813,
      "दि̱वि": 6814,
      "भावाद्": 6815,
      "धर्मार्थ": 6816,
      "सोम̍ः": 6817,
      "दोषः": 6818,
      "कुशलं": 6819,
      "भैरवं": 6820,
      "विधाय": 6821,
      "आयुः": 6822,
      "विजृम्भ": 6823,
      "सागरः": 6824,
      "मुक्तिर्": 6825,
      "शासनं": 6826,
      "ऽन्यो": 6827,
      "ऽन्यथा": 6828,
      "मातरम्": 6829,
      "तद्वत्": 6830,
      "सृजत्": 6831,
      "सुखाव": 6832,
      "लङ्कां": 6833,
      "ओष̍": 6834,
      "प्सरो": 6835,
      "पु̱रा": 6836,
      "श्रूयतां": 6837,
      "विभूषितम्": 6838,
      "स्वेद": 6839,
      "मङ्गलं": 6840,
      "यस्माद्": 6841,
      "भार्यां": 6842,
      "गम्यते": 6843,
      "धावति": 6844,
      "धर्मेषु": 6845,
      "स्फुटम्": 6846,
      "बृहस्पतिर्": 6847,
      "स्वामिन्": 6848,
      "अंहसः": 6849,
      "गृहाण": 6850,
      "ददृशे": 6851,
      "त्रयोदश": 6852,
      "पङ्क्ति": 6853,
      "मरीचि": 6854,
      "̍ज": 6855,
      "̍सो̱": 6856,
      "अर्ष": 6857,
      "अन्ते": 6858,
      "अङ्गा": 6859,
      "आलम्ब": 6860,
      "इमम्": 6861,
      "उद्ध": 6862,
      "उभय": 6863,
      "एके": 6864,
      "गह्व": 6865,
      "घटा": 6866,
      "चरम्": 6867,
      "जौ": 6868,
      "ढ्यं": 6869,
      "त̱ꣳ": 6870,
      "तन्तु": 6871,
      "दितम्": 6872,
      "नयो": 6873,
      "पाना": 6874,
      "भ̍र": 6875,
      "मला": 6876,
      "यत्य्": 6877,
      "यजे": 6878,
      "ययुः": 6879,
      "रब्": 6880,
      "रब्ध": 6881,
      "वराय": 6882,
      "षित": 6883,
      "सरि": 6884,
      "स̱म्": 6885,
      "सन्न्": 6886,
      "ऽष्ट": 6887,
      "ेना": 6888,
      "ौज": 6889,
      "विलोक": 6890,
      "विपरी": 6891,
      "प्रबल": 6892,
      "प्रस्ता": 6893,
      "प्रमोद": 6894,
      "मायां": 6895,
      "मादाय": 6896,
      "नाया": 6897,
      "नाशय": 6898,
      "निधान": 6899,
      "निवृत्ति": 6900,
      "सुतं": 6901,
      "सुमन": 6902,
      "सुतम्": 6903,
      "पात्य": 6904,
      "तुर": 6905,
      "तुला": 6906,
      "संस्थिताः": 6907,
      "महीं": 6908,
      "परया": 6909,
      "दिवस": 6910,
      "भागि": 6911,
      "कृन्त": 6912,
      "वेत": 6913,
      "वेणु": 6914,
      "सर्वः": 6915,
      "सर्वदेव": 6916,
      "सिञ्च": 6917,
      "जालं": 6918,
      "भूमे": 6919,
      "रेच": 6920,
      "रेत": 6921,
      "दु̱": 6922,
      "दुप": 6923,
      "श्वर्यं": 6924,
      "रिः": 6925,
      "महाभागा": 6926,
      "महाशयः": 6927,
      "र्थम": 6928,
      "ङ्गे": 6929,
      "प्राणे": 6930,
      "प्राप्स्य": 6931,
      "मानसं": 6932,
      "वृन्द": 6933,
      "मोप": 6934,
      "ल्का": 6935,
      "किमु": 6936,
      "मृड": 6937,
      "दृशः": 6938,
      "वीतरा": 6939,
      "रूप्य": 6940,
      "समर्प": 6941,
      "भुवो": 6942,
      "भुजो": 6943,
      "समाधाय": 6944,
      "राजि": 6945,
      "राज्यम्": 6946,
      "गोल्द्": 6947,
      "श्यते": 6948,
      "अ̱पो": 6949,
      "त्रापि": 6950,
      "पेतां": 6951,
      "धर्मधा": 6952,
      "क्षिप": 6953,
      "बालो": 6954,
      "ब्धि": 6955,
      "ध्वजः": 6956,
      "कर्णा": 6957,
      "स्रं": 6958,
      "मन्तो": 6959,
      "स्त्रेण": 6960,
      "दोर्": 6961,
      "धीमता": 6962,
      "णो̱": 6963,
      "इन्द्र̍ः": 6964,
      "सिद्ध्य": 6965,
      "भेदे": 6966,
      "किंचि": 6967,
      "सुखि": 6968,
      "दानवा": 6969,
      "अ̍स्तु": 6970,
      "म̱हा": 6971,
      "सर्वां": 6972,
      "वृत्तिः": 6973,
      "करैः": 6974,
      "ग्निः": 6975,
      "भृत्": 6976,
      "गिरे": 6977,
      "अभिषि": 6978,
      "धर्माः": 6979,
      "पतिता": 6980,
      "प्राप्तः": 6981,
      "महेन्द्र": 6982,
      "अर्जु": 6983,
      "फलप्र": 6984,
      "ख्यः": 6985,
      "गीयते": 6986,
      "श्रेयो": 6987,
      "कार्यो": 6988,
      "ग्रहण": 6989,
      "ग्रहणं": 6990,
      "भूषितम्": 6991,
      "प्रीत्या": 6992,
      "यमस्य": 6993,
      "मूर्तिं": 6994,
      "ध्रि": 6995,
      "ब्रह्माणं": 6996,
      "वरुणो": 6997,
      "महीयते": 6998,
      "वर्धते": 6999,
      "ङ्गुलि": 7000,
      "रावणः": 7001,
      "कदाचित्": 7002,
      "अग्ने̍": 7003,
      "सुराणां": 7004,
      "वाहनः": 7005,
      "सत्त्वार्थ": 7006,
      "द्वीपा": 7007,
      "बाहुं": 7008,
      "युगं": 7009,
      "परमेश्वरः": 7010,
      "इ̍व̱": 7011,
      "उक्तः": 7012,
      "मूर्धनि": 7013,
      "व्रजति": 7014,
      "पयसा": 7015,
      "द्भवम्": 7016,
      "विशाल": 7017,
      "रूढा": 7018,
      "चक्ष्व": 7019,
      "र̍ण्य": 7020,
      "चिन्तामणि": 7021,
      "कार्मु": 7022,
      "ऋषयो": 7023,
      "धिष्ठि": 7024,
      "मित्रावरुणा": 7025,
      "मालिनी": 7026,
      "सुगन्धि": 7027,
      "जरासं": 7028,
      "गमिष्यामि": 7029,
      "प्रत्युवाच": 7030,
      "श्रद्धया": 7031,
      "नाडी": 7032,
      "हुताश": 7033,
      "कृत्स्नं": 7034,
      "दा̱शुषे̍": 7035,
      "वि̱दथ": 7036,
      "दीर्घा": 7037,
      "द्यावापृथिवी": 7038,
      "यथान्यायं": 7039,
      "अपरि": 7040,
      "अपे": 7041,
      "अंश": 7042,
      "अधः": 7043,
      "अखिल": 7044,
      "आपः": 7045,
      "उर्व": 7046,
      "उच्छ": 7047,
      "एतु": 7048,
      "एहि": 7049,
      "गन्ता": 7050,
      "गान्ध": 7051,
      "तवै": 7052,
      "दितः": 7053,
      "धना": 7054,
      "धन्य": 7055,
      "पस्": 7056,
      "भट": 7057,
      "मदो": 7058,
      "मज्ज": 7059,
      "यमी": 7060,
      "यानं": 7061,
      "रताः": 7062,
      "वयो̍": 7063,
      "शकु": 7064,
      "सदो": 7065,
      "हौ": 7066,
      "ॄणां": 7067,
      "विपश्य": 7068,
      "विश्रा": 7069,
      "विक्रान्त": 7070,
      "प्रलय": 7071,
      "मासे": 7072,
      "वाज̍सा": 7073,
      "नाद्य": 7074,
      "निबन्ध": 7075,
      "नियत": 7076,
      "क्ष्यामि": 7077,
      "त्रये": 7078,
      "काशः": 7079,
      "पा̍": 7080,
      "पादम्": 7081,
      "पाणौ": 7082,
      "संचर": 7083,
      "परान्": 7084,
      "दिवः": 7085,
      "भासं": 7086,
      "सर्वबुद्ध": 7087,
      "त्वन्": 7088,
      "स्वतो": 7089,
      "श्रमे": 7090,
      "श्रिता": 7091,
      "नेत्रे": 7092,
      "दुग्ध": 7093,
      "स्थल": 7094,
      "लाद्": 7095,
      "श्वरीं": 7096,
      "धात्री": 7097,
      "मनश्": 7098,
      "प्राङ्": 7099,
      "प्राञ्जलि": 7100,
      "शुक": 7101,
      "शिष्ट": 7102,
      "वृषा": 7103,
      "गुड": 7104,
      "नीया": 7105,
      "नीतं": 7106,
      "नीयं": 7107,
      "न्यवेद": 7108,
      "णि̍": 7109,
      "मृते": 7110,
      "दृग्": 7111,
      "ण्डं": 7112,
      "समय": 7113,
      "षात्": 7114,
      "्येण": 7115,
      "सहितो": 7116,
      "वैदि": 7117,
      "समाग": 7118,
      "प्रतिषे": 7119,
      "प्रतिपत्ति": 7120,
      "व्याप्य": 7121,
      "जगद": 7122,
      "जगतो": 7123,
      "ज्ञाः": 7124,
      "ानुग्रह": 7125,
      "इन्द्र̍ꣳ": 7126,
      "ब्रह्मवादि": 7127,
      "शीलं": 7128,
      "कारणात्": 7129,
      "मुखेन": 7130,
      "मुखाः": 7131,
      "कथ्य": 7132,
      "परात्": 7133,
      "समुत्थ": 7134,
      "च्यसे": 7135,
      "कर्मणो": 7136,
      "स्वामी": 7137,
      "कलौ": 7138,
      "भीत": 7139,
      "स̱म": 7140,
      "प्रियां": 7141,
      "युक्त्या": 7142,
      "न्तु̱": 7143,
      "र्ध्वा": 7144,
      "दुःखे": 7145,
      "रथ̱ꣳ": 7146,
      "चक्रमे": 7147,
      "चक्रवर्ति": 7148,
      "मात्मनः": 7149,
      "ज्ञेय": 7150,
      "शतधा": 7151,
      "शतैर्": 7152,
      "नरके": 7153,
      "साधन": 7154,
      "प्रेम्": 7155,
      "ैकेन": 7156,
      "मधुना": 7157,
      "सूर्यः": 7158,
      "विद्यया": 7159,
      "निष्क": 7160,
      "बृं": 7161,
      "मध्यमा": 7162,
      "निरव": 7163,
      "प्रीतिर्": 7164,
      "यज्ञो": 7165,
      "इ̱दꣳ": 7166,
      "देवेषु": 7167,
      "स्तोम": 7168,
      "गेन्द्र": 7169,
      "भवाय": 7170,
      "पर्यन्तं": 7171,
      "भरतः": 7172,
      "सोम̍म्": 7173,
      "प्रसादेन": 7174,
      "दण्डं": 7175,
      "वाहन": 7176,
      "पश्या": 7177,
      "चक्षुः": 7178,
      "ग्रीवा": 7179,
      "विष्णुना": 7180,
      "गृहीत": 7181,
      "शैले": 7182,
      "स्वभावतः": 7183,
      "निर्वृतः": 7184,
      "निर्वृतिम्": 7185,
      "बुद्धिं": 7186,
      "प्रययौ": 7187,
      "चूर्णं": 7188,
      "लब्ध्वा": 7189,
      "ददामि": 7190,
      "तृतीयं": 7191,
      "पार्थिव": 7192,
      "धेनु": 7193,
      "मङ्गल": 7194,
      "वल्ली": 7195,
      "भ̱द्रा": 7196,
      "इत्युक्त्वा": 7197,
      "हर्ता": 7198,
      "द्विजोत्तमाः": 7199,
      "इत्येव": 7200,
      "जनार्दनः": 7201,
      "सकृद्": 7202,
      "सनातनम्": 7203,
      "अयोध्या": 7204,
      "म̱घवा̍": 7205,
      "गुह्यं": 7206,
      "वसुंधरा": 7207,
      "̍यो": 7208,
      "̱तः": 7209,
      "̱नाम्": 7210,
      "अक्षो": 7211,
      "अर्थि": 7212,
      "आज्य": 7213,
      "आख्या": 7214,
      "इम": 7215,
      "उभ": 7216,
      "उद्व": 7217,
      "ऋजु": 7218,
      "एतानि": 7219,
      "एतच्": 7220,
      "कङ्क": 7221,
      "कण्व": 7222,
      "कदम्ब": 7223,
      "गव्य": 7224,
      "चर्ष": 7225,
      "चराः": 7226,
      "जान्": 7227,
      "झट": 7228,
      "ठा": 7229,
      "ढ्य": 7230,
      "ण̍म्": 7231,
      "तट": 7232,
      "दन्": 7233,
      "दपि": 7234,
      "दये": 7235,
      "पच": 7236,
      "प̱र्": 7237,
      "मरा": 7238,
      "मधि": 7239,
      "यसी": 7240,
      "रꣳ": 7241,
      "वशो": 7242,
      "शनै": 7243,
      "सनि": 7244,
      "सद्य": 7245,
      "सैः": 7246,
      "सज्ज": 7247,
      "ूक": 7248,
      "ोपरि": 7249,
      "क़्": 7250,
      "फ़्": 7251,
      "म्ल": 7252,
      "विचिन्त": 7253,
      "विनय": 7254,
      "त्स्व": 7255,
      "प्रयाति": 7256,
      "प्रचण्ड": 7257,
      "स्खल": 7258,
      "माली": 7259,
      "वातो": 7260,
      "नारा": 7261,
      "नास्तीति": 7262,
      "रामा": 7263,
      "निव": 7264,
      "निन्दा": 7265,
      "क्षितौ": 7266,
      "कामम्": 7267,
      "स्यै": 7268,
      "स्युः": 7269,
      "सुप्र": 7270,
      "सुव्रत": 7271,
      "पाण": 7272,
      "र्वे": 7273,
      "संम": 7274,
      "संह": 7275,
      "सापि": 7276,
      "सात्य": 7277,
      "पुङ्ग": 7278,
      "दाता": 7279,
      "दात्म": 7280,
      "दासी": 7281,
      "भिला": 7282,
      "मिल": 7283,
      "भाषा": 7284,
      "त्यः": 7285,
      "वेगा": 7286,
      "श्रयम्": 7287,
      "कुर्": 7288,
      "ांश": 7289,
      "जा̍": 7290,
      "युधिष्ठि": 7291,
      "चाव": 7292,
      "व्ये": 7293,
      "महात": 7294,
      "महामुनिः": 7295,
      "महामते": 7296,
      "प्रायो": 7297,
      "भवती": 7298,
      "र्यम्": 7299,
      "र्य̱मा": 7300,
      "तीम्": 7301,
      "गुरू": 7302,
      "नीला": 7303,
      "किरण": 7304,
      "मृतो": 7305,
      "परिण": 7306,
      "समस्तं": 7307,
      "लेखा": 7308,
      "सूत्रा": 7309,
      "समाः": 7310,
      "समाख्याता": 7311,
      "पृश्": 7312,
      "त्रिर्": 7313,
      "प्रति̱": 7314,
      "र्णो": 7315,
      "बुद्धयः": 7316,
      "बोधा": 7317,
      "गृध्र": 7318,
      "कल्प्यते": 7319,
      "द्यावा̍": 7320,
      "मन्तम्": 7321,
      "जीवो": 7322,
      "सौम": 7323,
      "सौभाग्य": 7324,
      "सिद्धो": 7325,
      "वत्सर": 7326,
      "श्रुतिः": 7327,
      "विश्व̍": 7328,
      "विश्वस्य": 7329,
      "वरदा": 7330,
      "भगवं": 7331,
      "सृजे": 7332,
      "रत्नम्": 7333,
      "विषयं": 7334,
      "विते": 7335,
      "स्थां": 7336,
      "स्थावर": 7337,
      "वृत्तम्": 7338,
      "कृतौ": 7339,
      "कृतकृत्य": 7340,
      "बिभर्": 7341,
      "भृङ्ग": 7342,
      "स्थितां": 7343,
      "शतक्र": 7344,
      "साधयेत्": 7345,
      "उत्तरे": 7346,
      "प्रणमित": 7347,
      "नित्यशः": 7348,
      "कूर्म": 7349,
      "प्रभावा": 7350,
      "भूषणम्": 7351,
      "प्रथमो": 7352,
      "भद्रम्": 7353,
      "धारणा": 7354,
      "द्रुत": 7355,
      "ततस्ते": 7356,
      "रुद्रं": 7357,
      "हृदया": 7358,
      "ज्योतिः": 7359,
      "कटु": 7360,
      "रावणं": 7361,
      "व्योम्नि": 7362,
      "यावज्": 7363,
      "अग्नेर्": 7364,
      "अनागत": 7365,
      "बाहुर्": 7366,
      "श्रेष्ठो": 7367,
      "जातवेद": 7368,
      "त्पन्न": 7369,
      "वांस्": 7370,
      "रूपिणम्": 7371,
      "निर्वृति": 7372,
      "हरेर्": 7373,
      "श्याम": 7374,
      "श्यामा": 7375,
      "̱नाꣳ": 7376,
      "अमिता": 7377,
      "शरणम्": 7378,
      "अस्माकं": 7379,
      "इच्छसि": 7380,
      "परस्पर": 7381,
      "श्राद्धं": 7382,
      "दुर्लभं": 7383,
      "यातुधान": 7384,
      "माहात्म्य": 7385,
      "क्लिष्ट": 7386,
      "कच्चित्": 7387,
      "रागादि": 7388,
      "युग्मं": 7389,
      "संस्थाप्य": 7390,
      "अचिन्ति": 7391,
      "शशाङ्क": 7392,
      "शीघ्रम्": 7393,
      "स̱हस्र̍": 7394,
      "मैत्रेय": 7395,
      "जङ्घ": 7396,
      "प्रतापवान्": 7397,
      "मर्हसि": 7398,
      "विचक्षणः": 7399,
      "महाम्भोधौ": 7400,
      "̍ष्": 7401,
      "̍से": 7402,
      "̱षे": 7403,
      "अद": 7404,
      "अकार": 7405,
      "अपूर्व": 7406,
      "असु̍": 7407,
      "इती": 7408,
      "उभे": 7409,
      "एतान्": 7410,
      "कत": 7411,
      "कवच": 7412,
      "गजा": 7413,
      "गन्तुं": 7414,
      "जनि": 7415,
      "जप्त": 7416,
      "तदे": 7417,
      "दरी": 7418,
      "धां": 7419,
      "नान्त": 7420,
      "फणि": 7421,
      "बह्व": 7422,
      "भये": 7423,
      "भयाद्": 7424,
      "मद्य": 7425,
      "मदी": 7426,
      "यमान": 7427,
      "रक": 7428,
      "रितम्": 7429,
      "वड": 7430,
      "वतो": 7431,
      "शव": 7432,
      "शव̍": 7433,
      "सत्वा": 7434,
      "सन्ता": 7435,
      "ऽपरः": 7436,
      "ऽधुना": 7437,
      "ैस्त": 7438,
      "र्ता": 7439,
      "विलम्ब": 7440,
      "न्थ": 7441,
      "तिशय": 7442,
      "वादः": 7443,
      "वालु": 7444,
      "नार्थं": 7445,
      "तेति": 7446,
      "निरूप": 7447,
      "क्षणि": 7448,
      "क्षितः": 7449,
      "काये": 7450,
      "काश्च": 7451,
      "काशो": 7452,
      "कामिनी": 7453,
      "पाया": 7454,
      "तुमु": 7455,
      "संवर्त": 7456,
      "संभृ": 7457,
      "संगृह्य": 7458,
      "सायं": 7459,
      "त्तम्": 7460,
      "पु̱त्र": 7461,
      "दास": 7462,
      "दाया": 7463,
      "मुकु": 7464,
      "मुनिर्": 7465,
      "द्रव्या": 7466,
      "परितो": 7467,
      "ष्टकं": 7468,
      "मिहा": 7469,
      "मिच्छामि": 7470,
      "भासो": 7471,
      "वेता": 7472,
      "स्वेन": 7473,
      "स्वरूपं": 7474,
      "कुबे": 7475,
      "सिध्य": 7476,
      "श्चै": 7477,
      "हिर̍ण्य": 7478,
      "दुरु": 7479,
      "स्थम्": 7480,
      "लाह": 7481,
      "श्व̱": 7482,
      "श्वः": 7483,
      "द्वयो": 7484,
      "रिर्": 7485,
      "चारा": 7486,
      "चारं": 7487,
      "व्यञ्ज": 7488,
      "महाबाहो": 7489,
      "ङ्गानि": 7490,
      "प्राय": 7491,
      "प्राक्": 7492,
      "शाख": 7493,
      "पूत": 7494,
      "तीत": 7495,
      "गुणे": 7496,
      "हास्य": 7497,
      "मृतम्": 7498,
      "बुद": 7499,
      "लिप्त": 7500,
      "लिङ्गा": 7501,
      "सहः": 7502,
      "समादाय": 7503,
      "नमस्यामि": 7504,
      "अ̱न्य": 7505,
      "हेमा": 7506,
      "द्वि̱": 7507,
      "सर्गा": 7508,
      "भावस्य": 7509,
      "स्मरण": 7510,
      "त्याग": 7511,
      "त्यादि": 7512,
      "लम्भ": 7513,
      "णीः": 7514,
      "ब्रह्मणे": 7515,
      "भेत्": 7516,
      "शीला": 7517,
      "कथितो": 7518,
      "पराङ्": 7519,
      "पराक्रमः": 7520,
      "समुद्य": 7521,
      "दानवः": 7522,
      "ह्यु": 7523,
      "वरवर्णि": 7524,
      "पी̱": 7525,
      "स्मिन्न्": 7526,
      "विधम्": 7527,
      "पुनरु": 7528,
      "वाच̍म्": 7529,
      "स्मात्": 7530,
      "रथो": 7531,
      "रथ̍ꣳ": 7532,
      "दूर्ध्वं": 7533,
      "धेयं": 7534,
      "ान्यपि": 7535,
      "रक्षसां": 7536,
      "दुर्गा": 7537,
      "वन्द्य": 7538,
      "गच्छेत्": 7539,
      "स्फू": 7540,
      "उत्पाद": 7541,
      "ोपवी": 7542,
      "उत्तरा": 7543,
      "सूर्यस्य": 7544,
      "उ̱षा": 7545,
      "हरिम्": 7546,
      "ख्यसंवरम्": 7547,
      "मैत्र": 7548,
      "विधिर्": 7549,
      "तदैव": 7550,
      "निरन्त": 7551,
      "पुराणं": 7552,
      "वक्तुम्": 7553,
      "ब्रवीमि": 7554,
      "दैत्ये": 7555,
      "भक्तानां": 7556,
      "मानाम्": 7557,
      "घ्नो": 7558,
      "मात्रो": 7559,
      "महि̍": 7560,
      "पर्वता": 7561,
      "व्यवस्थिता": 7562,
      "रुद्रो": 7563,
      "र̱ण्य": 7564,
      "निश्चयी": 7565,
      "महीपतिः": 7566,
      "रांसि": 7567,
      "शोभित": 7568,
      "कदाचि": 7569,
      "योगिनी": 7570,
      "ध्रुव": 7571,
      "कराल": 7572,
      "स्वभावं": 7573,
      "वपुर्": 7574,
      "तन्त्रा": 7575,
      "कीर्तिर्": 7576,
      "विशुद्धा": 7577,
      "प्राप्यते": 7578,
      "षट्कं": 7579,
      "गृह्णा": 7580,
      "भुवनानि": 7581,
      "ब्राह्मणस्य": 7582,
      "द्भवं": 7583,
      "दृढं": 7584,
      "ईशान": 7585,
      "प्रजया": 7586,
      "तृतीया": 7587,
      "पार्थिवः": 7588,
      "ऋषिः": 7589,
      "भिन्नं": 7590,
      "विवर्जितः": 7591,
      "अस्याः": 7592,
      "चत्वारो": 7593,
      "कश्चिन्": 7594,
      "शु̱क्र": 7595,
      "मुदिता": 7596,
      "हविर्": 7597,
      "मि̱त्रा": 7598,
      "अग्नौ": 7599,
      "श्लक्ष्ण": 7600,
      "लावण्य": 7601,
      "महर्षयः": 7602,
      "अप्सर": 7603,
      "पव̍मान": 7604,
      "पुण्डरीका": 7605,
      "मार्कण्डेय": 7606,
      "दारिद्र": 7607,
      "जिघां": 7608,
      "̍यः": 7609,
      "ंशु": 7610,
      "अच्छ": 7611,
      "अक्षि": 7612,
      "अजी": 7613,
      "अभवत्": 7614,
      "आच": 7615,
      "आसन्": 7616,
      "एतं": 7617,
      "कराः": 7618,
      "घर्म": 7619,
      "चरः": 7620,
      "जै": 7621,
      "जैः": 7622,
      "जनि̍": 7623,
      "तलम्": 7624,
      "तव्यं": 7625,
      "नता": 7626,
      "नक्त": 7627,
      "नमु": 7628,
      "न्यां": 7629,
      "न̱म्": 7630,
      "लस्": 7631,
      "वत": 7632,
      "शर्ध": 7633,
      "शस्त्रा": 7634,
      "सरा": 7635,
      "सितं": 7636,
      "सताम्": 7637,
      "समनु": 7638,
      "हन्तु": 7639,
      "्रे": 7640,
      "विग्रह": 7641,
      "त्मान": 7642,
      "त्मनो": 7643,
      "प्रदं": 7644,
      "मातुर्": 7645,
      "वाचि": 7646,
      "वाणी": 7647,
      "तेभ्यः": 7648,
      "रात्रं": 7649,
      "निश्": 7650,
      "निवास": 7651,
      "यात्र": 7652,
      "स्तेषु": 7653,
      "पापा": 7654,
      "तुषा": 7655,
      "तुष्टा": 7656,
      "तुष्टि": 7657,
      "संधान": 7658,
      "संभवा": 7659,
      "संग्रामे": 7660,
      "त्तरा": 7661,
      "पुरू": 7662,
      "मुह्य": 7663,
      "महति": 7664,
      "द्रक्ष्य": 7665,
      "पिन्व": 7666,
      "ष्टक": 7667,
      "योनौ": 7668,
      "सर्वो": 7669,
      "त्वो": 7670,
      "स्वपि": 7671,
      "स्वरूपेण": 7672,
      "कु̱": 7673,
      "जाताः": 7674,
      "लोम": 7675,
      "धिया": 7676,
      "रोम": 7677,
      "रोचि": 7678,
      "त्वाद": 7679,
      "युतम्": 7680,
      "रिव": 7681,
      "रि̱ता": 7682,
      "चाति": 7683,
      "व्ययम्": 7684,
      "महात्मनाम्": 7685,
      "प्राति": 7686,
      "शिक्षा": 7687,
      "वृत": 7688,
      "वृध": 7689,
      "वृष्णि": 7690,
      "ैवम्": 7691,
      "गुह्या": 7692,
      "ह्न": 7693,
      "एवम": 7694,
      "न्यि": 7695,
      "हार्": 7696,
      "हारो": 7697,
      "सोमा̍": 7698,
      "लिप्ता": 7699,
      "भुर्": 7700,
      "भुजं": 7701,
      "केशि": 7702,
      "केलि": 7703,
      "केनापि": 7704,
      "दीयते": 7705,
      "राजते": 7706,
      "भ्युप": 7707,
      "अ̱र्वा": 7708,
      "अ̱हꣳ": 7709,
      "व्याख्या": 7710,
      "र्णम्": 7711,
      "निर्भ": 7712,
      "निर्वास": 7713,
      "क्तिः": 7714,
      "क्तिर्": 7715,
      "कर्णि": 7716,
      "जगती": 7717,
      "र्याः": 7718,
      "ज्ञाति": 7719,
      "सम्भवः": 7720,
      "ानुप": 7721,
      "इन्द्र̱ः": 7722,
      "इन्द्र̍स्य": 7723,
      "कारैः": 7724,
      "विशत्": 7725,
      "पराम्": 7726,
      "समुच्च": 7727,
      "स्तिष्ठ": 7728,
      "नृणां": 7729,
      "सुखे": 7730,
      "दानवाः": 7731,
      "वरद": 7732,
      "क्षाल": 7733,
      "अनुत्तमम्": 7734,
      "चतुर्व": 7735,
      "मन्त्रः": 7736,
      "नामतः": 7737,
      "सृष्टा": 7738,
      "भीता": 7739,
      "नाथस्य": 7740,
      "विषयो": 7741,
      "विषयः": 7742,
      "हीनो": 7743,
      "द्वारे": 7744,
      "शूलि": 7745,
      "मुक्ताः": 7746,
      "करौ": 7747,
      "बोधिचर्या": 7748,
      "बिन्द": 7749,
      "चक्रुर्": 7750,
      "पूज्या": 7751,
      "लुब्ध": 7752,
      "अन्तरे": 7753,
      "प्रेक्ष": 7754,
      "क्षीरं": 7755,
      "म̍घ": 7756,
      "विधिं": 7757,
      "विनाशाय": 7758,
      "राजा̍": 7759,
      "कौतूह": 7760,
      "मध्यगम्": 7761,
      "रसेन": 7762,
      "धो̍": 7763,
      "प्रथमा": 7764,
      "पातक": 7765,
      "इ̱मे": 7766,
      "भक्तिर्": 7767,
      "ब्राह्मणे": 7768,
      "राक्षसः": 7769,
      "तस्मिं": 7770,
      "वर्जितः": 7771,
      "भरत": 7772,
      "व्यवहार": 7773,
      "हृदयम्": 7774,
      "वा̱जि": 7775,
      "दि̱वे": 7776,
      "न्तीह": 7777,
      "सोमस्य": 7778,
      "प्रसादा": 7779,
      "कोट्यः": 7780,
      "भगवते": 7781,
      "भगवता": 7782,
      "तमसा": 7783,
      "मुनीश्वर": 7784,
      "मार्गा": 7785,
      "जित्": 7786,
      "योगाद्": 7787,
      "श्मश": 7788,
      "रजनी": 7789,
      "षडक्ष": 7790,
      "अभ्यु": 7791,
      "मथु": 7792,
      "इन्द्रा̍": 7793,
      "निर्वाणं": 7794,
      "वासिनी": 7795,
      "दिवौक": 7796,
      "म्रियते": 7797,
      "लक्ष्मीः": 7798,
      "प्रकीर्तिता": 7799,
      "प्रकीर्तितम्": 7800,
      "रुचिर": 7801,
      "दुर्गति": 7802,
      "पत्यं": 7803,
      "शङ्खचक्र": 7804,
      "विज्ञेया": 7805,
      "ग्रहाः": 7806,
      "राक्षसान्": 7807,
      "कुम्भकर्ण": 7808,
      "द्यौः": 7809,
      "क्वापि": 7810,
      "वाराण": 7811,
      "विलास": 7812,
      "पाताले": 7813,
      "मुद्रां": 7814,
      "सामर्थ्य": 7815,
      "व्यतिरे": 7816,
      "हव̍म्": 7817,
      "रुधिरं": 7818,
      "त्वत्तः": 7819,
      "व्यापिनी": 7820,
      "त्रैलोक्ये": 7821,
      "रक्षांसि": 7822,
      "प्राप्नुवन्ति": 7823,
      "वैदेहीं": 7824,
      "ललाट": 7825,
      "अ̱स्मभ्य": 7826,
      "झटिति": 7827,
      "̱के": 7828,
      "अद्": 7829,
      "अणि": 7830,
      "अहु": 7831,
      "अव्या": 7832,
      "अनाम": 7833,
      "अघ्": 7834,
      "आप्त": 7835,
      "आश्चर्य": 7836,
      "इतः": 7837,
      "इषु": 7838,
      "इमाम्": 7839,
      "ऊ̱तये̍": 7840,
      "एतम्": 7841,
      "एतेन": 7842,
      "गभ": 7843,
      "गणं": 7844,
      "चनम्": 7845,
      "छेद": 7846,
      "जति": 7847,
      "जयो": 7848,
      "जां": 7849,
      "जयन्त": 7850,
      "टु": 7851,
      "णꣳ": 7852,
      "तये": 7853,
      "तान्य्": 7854,
      "दध्य": 7855,
      "धया": 7856,
      "बध्यते": 7857,
      "बन्धि": 7858,
      "भण": 7859,
      "भक्ष्य": 7860,
      "यमानो": 7861,
      "रवा": 7862,
      "ल्त": 7863,
      "वयः": 7864,
      "वशम्": 7865,
      "सदृश": 7866,
      "ऽव̍": 7867,
      "ैरु": 7868,
      "ोष": 7869,
      "र्धा": 7870,
      "ानभि": 7871,
      "ाननः": 7872,
      "विं": 7873,
      "विपक्ष": 7874,
      "विभज": 7875,
      "प्रु": 7876,
      "प्रचे": 7877,
      "प्रकृते": 7878,
      "प्रयोजयेत्": 7879,
      "प्रधानं": 7880,
      "न्ने": 7881,
      "माधु": 7882,
      "मा̱ता": 7883,
      "वामह": 7884,
      "वाहं": 7885,
      "निर्य": 7886,
      "क्षयः": 7887,
      "क्षमः": 7888,
      "क्षत्रं": 7889,
      "तापि": 7890,
      "न्त̍म्": 7891,
      "काग्र": 7892,
      "्वाः": 7893,
      "सुम̱": 7894,
      "सुपर्ण": 7895,
      "पाषा": 7896,
      "संशय": 7897,
      "संचिन्त्य": 7898,
      "त्तमा": 7899,
      "मुद्": 7900,
      "द्रष्टा": 7901,
      "भिन": 7902,
      "भिषि": 7903,
      "रु̍": 7904,
      "योनिर्": 7905,
      "दिका": 7906,
      "दिशं": 7907,
      "भा̍": 7908,
      "भाग्": 7909,
      "कृतिर्": 7910,
      "स्व̍": 7911,
      "स्वरूपे": 7912,
      "श्रित": 7913,
      "श्रद्": 7914,
      "नेत्रं": 7915,
      "धिग्": 7916,
      "भूम्या": 7917,
      "श्वशु": 7918,
      "युयु": 7919,
      "धारी": 7920,
      "द्वः": 7921,
      "चाष्ट": 7922,
      "चारः": 7923,
      "मनस": 7924,
      "महामतिः": 7925,
      "प्रातर्": 7926,
      "वर्चो": 7927,
      "शुभ्र": 7928,
      "वृद्धा": 7929,
      "नुः": 7930,
      "नुम्": 7931,
      "ानि̱": 7932,
      "परिकल्प": 7933,
      "समवा": 7934,
      "स्तुतः": 7935,
      "न्धु": 7936,
      "वैद्य": 7937,
      "समाप्त": 7938,
      "समासतः": 7939,
      "दीनाम्": 7940,
      "नमी": 7941,
      "प्रतिज्ञा": 7942,
      "प्रतिपत्त": 7943,
      "अ̱भी": 7944,
      "व्यापी": 7945,
      "वोर्": 7946,
      "पेतुर्": 7947,
      "जिह्": 7948,
      "जिनः": 7949,
      "कर्णिका": 7950,
      "स्मरेत्": 7951,
      "जगत्त्र": 7952,
      "स्त्रिया": 7953,
      "व्रताः": 7954,
      "सौख्य": 7955,
      "दृष्टिर्": 7956,
      "दृष्टिः": 7957,
      "इन्द्रः": 7958,
      "इन्द्रस्य": 7959,
      "सिद्धगन्धर्व": 7960,
      "सुखदुःख": 7961,
      "क्षाणि": 7962,
      "पुत्रस्": 7963,
      "भीरु": 7964,
      "सदाशिवः": 7965,
      "युक्तस्य": 7966,
      "द्वारं": 7967,
      "द्वाभ्यां": 7968,
      "शूरा": 7969,
      "शूद्रा": 7970,
      "वृत्त्या": 7971,
      "ञ्जनम्": 7972,
      "बिन्": 7973,
      "यस्य̱": 7974,
      "सुरान्": 7975,
      "सुरभि": 7976,
      "दूराद्": 7977,
      "ग्रामं": 7978,
      "पादप": 7979,
      "य̱ः": 7980,
      "मनोज": 7981,
      "मनोज्ञ": 7982,
      "बन्धं": 7983,
      "एकैकं": 7984,
      "वि̱श्वा": 7985,
      "पतित": 7986,
      "अन्यद्": 7987,
      "सर̍": 7988,
      "उत्था": 7989,
      "चन्द्रम": 7990,
      "च्छाद": 7991,
      "निष्क्रम्य": 7992,
      "शान्ते": 7993,
      "हरन्ति": 7994,
      "रत्नानि": 7995,
      "सिद्धिम्": 7996,
      "प्रभास": 7997,
      "मूर्ते": 7998,
      "शम्भवे": 7999,
      "भ्रात्रा": 8000,
      "भ्रातरं": 8001,
      "घ्नं": 8002,
      "महिम्": 8003,
      "रागद्वेष": 8004,
      "देहः": 8005,
      "र̱थ": 8006,
      "निर्व्या": 8007,
      "ह̱विषा": 8008,
      "स्पृश्य": 8009,
      "शक्तो": 8010,
      "शृणुष्व": 8011,
      "जिनस्य": 8012,
      "भाषते": 8013,
      "मन्यते": 8014,
      "निर्मल": 8015,
      "त̍ना": 8016,
      "गौत": 8017,
      "बलात्": 8018,
      "द्वीपं": 8019,
      "योगिनां": 8020,
      "सिंहः": 8021,
      "सिंहस्य": 8022,
      "समन्विताः": 8023,
      "भगवति": 8024,
      "क्रान्तं": 8025,
      "रूपिणः": 8026,
      "पाणिर्": 8027,
      "यस्यां": 8028,
      "ऽन्यत्र": 8029,
      "परमेष्ठि": 8030,
      "मरुतो": 8031,
      "नारदः": 8032,
      "छिन्न": 8033,
      "समाधिं": 8034,
      "कारिणः": 8035,
      "सुखावतीम्": 8036,
      "लब्धं": 8037,
      "ब्राह्मणान्": 8038,
      "प्सितम्": 8039,
      "द्वैतं": 8040,
      "गगने": 8041,
      "गगनं": 8042,
      "य̱ज्ञꣳ": 8043,
      "वशात्": 8044,
      "सुन्दरि": 8045,
      "बृहस्पतिः": 8046,
      "पुरुषोत्तमः": 8047,
      "अत्यन्त": 8048,
      "हविः": 8049,
      "जन्मा": 8050,
      "साक्षाद्": 8051,
      "अरिं": 8052,
      "विचारणा": 8053,
      "विश्रुतः": 8054,
      "पितॄणां": 8055,
      "कारुणि": 8056,
      "विष्कम्": 8057,
      "गच्छामि": 8058,
      "लज्जा": 8059,
      "बाष्प": 8060,
      "आदित्या": 8061,
      "सर्वेषाम्": 8062,
      "महेशानि": 8063,
      "पुरस्कृत्य": 8064,
      "अ̱न्तरि̍": 8065,
      "नास्त्य्": 8066,
      "चिकित्": 8067,
      "मैथिली": 8068,
      "विनश्यति": 8069,
      "नीलोत्पल": 8070,
      "वैदेह्या": 8071,
      "̍न्न्": 8072,
      "̍ता̱": 8073,
      "̍नि̱": 8074,
      "̱य": 8075,
      "̱सा": 8076,
      "̱णा": 8077,
      "अर्थं": 8078,
      "अमोघ": 8079,
      "आर्या": 8080,
      "आश्चर्यं": 8081,
      "इमाः": 8082,
      "ऐव": 8083,
      "कॢ": 8084,
      "कित": 8085,
      "करेण": 8086,
      "कपर्": 8087,
      "चरं": 8088,
      "च्यां": 8089,
      "जपा": 8090,
      "तस्त": 8091,
      "तरम्": 8092,
      "दक्षो": 8093,
      "धन्यो": 8094,
      "नव्य": 8095,
      "नानां": 8096,
      "पर्ष": 8097,
      "पानं": 8098,
      "भस्": 8099,
      "मरि": 8100,
      "मस्तु": 8101,
      "मकर": 8102,
      "मधू": 8103,
      "मरणं": 8104,
      "यजु": 8105,
      "रवः": 8106,
      "लान्": 8107,
      "वच्": 8108,
      "वधा": 8109,
      "वश्य": 8110,
      "वन्तः": 8111,
      "शल्य": 8112,
      "शरणे": 8113,
      "षेण": 8114,
      "सान": 8115,
      "ऽब्रवीत्": 8116,
      "ैरा": 8117,
      "ैर्वृ": 8118,
      "॥।": 8119,
      "्य̍म्": 8120,
      "विनी": 8121,
      "विमुक्ति": 8122,
      "विद्वेष": 8123,
      "विन्यसेत्": 8124,
      "विसर्ज": 8125,
      "त्न": 8126,
      "प्रभव": 8127,
      "तिथि": 8128,
      "वाल": 8129,
      "नास्य": 8130,
      "नार्थ": 8131,
      "नाहम्": 8132,
      "नाथाय": 8133,
      "तेनो": 8134,
      "याच्": 8135,
      "यासि": 8136,
      "काश्": 8137,
      "कादि": 8138,
      "स्यम्": 8139,
      "श्लोक": 8140,
      "सुते": 8141,
      "सुकृत": 8142,
      "सुगन्ध": 8143,
      "पाठ": 8144,
      "पाति": 8145,
      "पालो": 8146,
      "र्वै": 8147,
      "संहा": 8148,
      "पुः": 8149,
      "मुग्ध": 8150,
      "द्धू": 8151,
      "रुवाच": 8152,
      "येच्": 8153,
      "दिष्टा": 8154,
      "भाषि": 8155,
      "ङ्धि": 8156,
      "मेक": 8157,
      "श्रमं": 8158,
      "नेमि": 8159,
      "जाया": 8160,
      "जाम्बू": 8161,
      "भूतां": 8162,
      "रोमा": 8163,
      "दुह": 8164,
      "स्थी": 8165,
      "श्वो": 8166,
      "द्व्य": 8167,
      "रिम्": 8168,
      "चा̱": 8169,
      "चात्मानं": 8170,
      "व्यक्तं": 8171,
      "महात्म": 8172,
      "र्थ्य": 8173,
      "र्थतः": 8174,
      "वर्त्य": 8175,
      "भवन्तम्": 8176,
      "वृश्चि": 8177,
      "मो̱": 8178,
      "ग्रः": 8179,
      "तीय": 8180,
      "चिरा": 8181,
      "चिके": 8182,
      "गुर्वी": 8183,
      "ल्पा": 8184,
      "नी̱": 8185,
      "न्यस्त": 8186,
      "लोकपाल": 8187,
      "वीं": 8188,
      "ण्डी": 8189,
      "परिच्छ": 8190,
      "वैनेय": 8191,
      "केयू": 8192,
      "राजान": 8193,
      "त्रिविध": 8194,
      "अ̱द्या": 8195,
      "अ̱भ्य्": 8196,
      "र्णवम्": 8197,
      "भोगि": 8198,
      "ञ्चो": 8199,
      "बोधाय": 8200,
      "द्विगुणं": 8201,
      "प्सित": 8202,
      "गृ̍": 8203,
      "ध्वजो": 8204,
      "हृदा": 8205,
      "सीतया": 8206,
      "सम्प्र": 8207,
      "यिष्य": 8208,
      "ानुसा": 8209,
      "जनकं": 8210,
      "जनकात्म": 8211,
      "दृष्ट्व": 8212,
      "मुख्या": 8213,
      "श्रुता": 8214,
      "समु̱द्र": 8215,
      "क्वचि": 8216,
      "उपसं": 8217,
      "स्वात्म": 8218,
      "अ̍सि": 8219,
      "पञ्चमी": 8220,
      "पञ्चविंश": 8221,
      "द्वारि": 8222,
      "वितान": 8223,
      "अनन्य": 8224,
      "वृत्तिर्": 8225,
      "र्षे": 8226,
      "न्ते̱": 8227,
      "क्षुधा": 8228,
      "व̱न्": 8229,
      "पश्यसि": 8230,
      "लक्षं": 8231,
      "स्माकं": 8232,
      "घोषो": 8233,
      "शुद्धे": 8234,
      "सुरैः": 8235,
      "कालस्य": 8236,
      "रक्षन्ति": 8237,
      "षो̱": 8238,
      "वनस्": 8239,
      "तथेति": 8240,
      "प्राप्ताः": 8241,
      "पूजनं": 8242,
      "पूजितः": 8243,
      "शतैः": 8244,
      "तिष्ठन्": 8245,
      "तिष्ठत्य्": 8246,
      "दक्षिणेन": 8247,
      "उत्थाय": 8248,
      "कामस्य": 8249,
      "ोपदेश": 8250,
      "अर्घ": 8251,
      "अर्था": 8252,
      "ख्यानं": 8253,
      "मैथु": 8254,
      "दत्ते": 8255,
      "क्षीणा": 8256,
      "कार्यः": 8257,
      "रूपाः": 8258,
      "मध्यस्थं": 8259,
      "हूय": 8260,
      "पुरतो": 8261,
      "रमते": 8262,
      "यज्ञस्य": 8263,
      "यज्ञोपवी": 8264,
      "भक्तिः": 8265,
      "े̍षु": 8266,
      "महिष": 8267,
      "नायकः": 8268,
      "स्फुरति": 8269,
      "पूर्णे": 8270,
      "जगत्पते": 8271,
      "महीम्": 8272,
      "ह̱व्य": 8273,
      "मणिः": 8274,
      "नन्दनः": 8275,
      "शक्त्य": 8276,
      "कुर्वन्न्": 8277,
      "ान्विताः": 8278,
      "प्रसादं": 8279,
      "पौर्ण": 8280,
      "क्रियतां": 8281,
      "जम्बु": 8282,
      "वह̍": 8283,
      "कोट्यो": 8284,
      "मासान्": 8285,
      "भजन्ति": 8286,
      "पाणिं": 8287,
      "परमेश्वरम्": 8288,
      "अद्यैव": 8289,
      "कीर्णा": 8290,
      "तीर्थ्य": 8291,
      "वाक्येन": 8292,
      "दे̱ववी": 8293,
      "छिद्र": 8294,
      "केशवः": 8295,
      "निरुद्ध": 8296,
      "प्रयच्छति": 8297,
      "कारिणी": 8298,
      "रजत": 8299,
      "शुभाशुभ": 8300,
      "प्रतिष्ठिताः": 8301,
      "दृश्यं": 8302,
      "वारिणा": 8303,
      "संयुगे": 8304,
      "घ्नन्ति": 8305,
      "प्रजां": 8306,
      "प्रजानां": 8307,
      "कपिः": 8308,
      "कमलो": 8309,
      "ानन्दं": 8310,
      "शौचं": 8311,
      "अस्माकम्": 8312,
      "प्याय": 8313,
      "लोकनाथम्": 8314,
      "कथां": 8315,
      "मालां": 8316,
      "द्रष्टुम्": 8317,
      "दे̱वाꣳ": 8318,
      "मनीषिणः": 8319,
      "कुटी": 8320,
      "विनाशनम्": 8321,
      "चतुरश्र": 8322,
      "महातेजाः": 8323,
      "प्राणाया": 8324,
      "लब्धा": 8325,
      "सौमित्रि": 8326,
      "ग्रहेण": 8327,
      "र̱यिम्": 8328,
      "युष्मा": 8329,
      "बृ̱हद्": 8330,
      "भाजां": 8331,
      "जिनात्मजः": 8332,
      "भाव्यते": 8333,
      "जितेन्द्रियः": 8334,
      "विदित्वा": 8335,
      "कठि": 8336,
      "पीयूष": 8337,
      "wइ": 8338,
      "̍तो": 8339,
      "̍नम्": 8340,
      "̱व्": 8341,
      "अक्र": 8342,
      "अन्ति": 8343,
      "असङ्ग": 8344,
      "अद्भु": 8345,
      "अखिलं": 8346,
      "आया": 8347,
      "इवे": 8348,
      "उन्म": 8349,
      "ऊरु": 8350,
      "ऋतु": 8351,
      "ऋत्वि": 8352,
      "एषो": 8353,
      "एतस्मिन्न्": 8354,
      "कक्ष": 8355,
      "कशि": 8356,
      "कस्मै": 8357,
      "खर्व": 8358,
      "खट्वा": 8359,
      "गमा": 8360,
      "चला": 8361,
      "छो": 8362,
      "छृणु": 8363,
      "जलि": 8364,
      "ट्त": 8365,
      "ढ्या": 8366,
      "तवः": 8367,
      "तच्छ्र": 8368,
      "थ्": 8369,
      "दान्": 8370,
      "धरे": 8371,
      "धराः": 8372,
      "नकि": 8373,
      "मथा": 8374,
      "मदे̍": 8375,
      "यजेत्": 8376,
      "रतो": 8377,
      "रजा": 8378,
      "रनु": 8379,
      "रितं": 8380,
      "रक्षि": 8381,
      "र̍म्": 8382,
      "रथि": 8383,
      "रज̍": 8384,
      "रहितं": 8385,
      "लघ": 8386,
      "लयो": 8387,
      "लग्": 8388,
      "वौ": 8389,
      "वैव": 8390,
      "वन्न्": 8391,
      "शस्": 8392,
      "श̱त": 8393,
      "शकट": 8394,
      "षिता": 8395,
      "हनि": 8396,
      "ऽग्ने": 8397,
      "ॄन्": 8398,
      "विने": 8399,
      "विभव": 8400,
      "विक्षे": 8401,
      "विद्वा": 8402,
      "विष्टो": 8403,
      "विबुध": 8404,
      "प्रसृ": 8405,
      "प्रख्या": 8406,
      "प्रमुदित": 8407,
      "न्मुख": 8408,
      "स्पदम्": 8409,
      "तिरि": 8410,
      "मासं": 8411,
      "मारो": 8412,
      "मा̱त": 8413,
      "वासः": 8414,
      "वाह्य": 8415,
      "नालं": 8416,
      "नाशो": 8417,
      "रात्रा": 8418,
      "निहिता": 8419,
      "निभं": 8420,
      "निवह": 8421,
      "न्तꣳ": 8422,
      "न्त्ये": 8423,
      "त्रो": 8424,
      "त्रयः": 8425,
      "कामु": 8426,
      "स्तैर्": 8427,
      "सुदुर्": 8428,
      "पातं": 8429,
      "र्व्या": 8430,
      "संयोग": 8431,
      "संकाशं": 8432,
      "त्तृ": 8433,
      "त्त्वा": 8434,
      "पुष्ट": 8435,
      "मु̱": 8436,
      "मुत्र": 8437,
      "महते": 8438,
      "परहित": 8439,
      "पिना": 8440,
      "पिपा": 8441,
      "पिप्": 8442,
      "ष्टका": 8443,
      "योत्": 8444,
      "दिह": 8445,
      "दिदं": 8446,
      "भाक्": 8447,
      "भारो": 8448,
      "भारं": 8449,
      "ङ्के": 8450,
      "सर्वमा": 8451,
      "सर्वज्ञः": 8452,
      "सर्ववित्": 8453,
      "श्रान्त": 8454,
      "कुमु": 8455,
      "ांश्च": 8456,
      "धि̱": 8457,
      "धिकं": 8458,
      "धिपाः": 8459,
      "भूयि": 8460,
      "रेवं": 8461,
      "धातौ": 8462,
      "धारणी": 8463,
      "शा̍": 8464,
      "शाला": 8465,
      "शायि": 8466,
      "शिरा": 8467,
      "वृतं": 8468,
      "वृषो": 8469,
      "न्यु": 8470,
      "स्याय": 8471,
      "दृशम्": 8472,
      "सोप": 8473,
      "सोमं": 8474,
      "सोमाय": 8475,
      "वीणा": 8476,
      "परिघ": 8477,
      "समभ्यर्च्य": 8478,
      "लिख्य": 8479,
      "भुः": 8480,
      "सहस्व": 8481,
      "वैश्य": 8482,
      "समासेन": 8483,
      "समासाद्य": 8484,
      "समाहिताः": 8485,
      "शोको": 8486,
      "त्रिपुर": 8487,
      "प्रतिज्ञ": 8488,
      "प्रतिपद्यते": 8489,
      "भ्य̍ः": 8490,
      "भोः": 8491,
      "भोजन": 8492,
      "बुद्धत्वं": 8493,
      "हेतुर्": 8494,
      "बाह्ये": 8495,
      "ध्वस्त": 8496,
      "भावान्": 8497,
      "हृषी": 8498,
      "त्याय": 8499,
      "सीते": 8500,
      "दोला": 8501,
      "यिनो": 8502,
      "तत्रस्थः": 8503,
      "धीरः": 8504,
      "जीवं": 8505,
      "ानुकम्": 8506,
      "जनिता": 8507,
      "विशन्ति": 8508,
      "योग्य": 8509,
      "कीर्ष": 8510,
      "कल्पितं": 8511,
      "पराः": 8512,
      "दानवे": 8513,
      "दानीम्": 8514,
      "कर्मणः": 8515,
      "गुणम्": 8516,
      "चतुरो": 8517,
      "मन्त्रम्": 8518,
      "अ̍श्वि": 8519,
      "भीष्म": 8520,
      "नाथः": 8521,
      "पञ्चमं": 8522,
      "पञ्चदश": 8523,
      "विषम": 8524,
      "प्रियत": 8525,
      "अनन्ता": 8526,
      "व̱त्": 8527,
      "बोधिचित्तम्": 8528,
      "पुनश्च": 8529,
      "पश्यन्न्": 8530,
      "बिल्व": 8531,
      "भृतो": 8532,
      "न्याः": 8533,
      "बहुभिर्": 8534,
      "स्तात्": 8535,
      "ान्यत्": 8536,
      "जो̍": 8537,
      "सप्तधा": 8538,
      "प्राप्तौ": 8539,
      "जुगु": 8540,
      "मण्डित": 8541,
      "सु̱ते": 8542,
      "गन्धपुष्पा": 8543,
      "साधको": 8544,
      "अन्तर": 8545,
      "पापानि": 8546,
      "उत्तम": 8547,
      "वदति": 8548,
      "तत्त्वेन": 8549,
      "खिला": 8550,
      "धूम्र": 8551,
      "शब्दं": 8552,
      "सिद्धिप्रदा": 8553,
      "दैव्य": 8554,
      "प्रजापति": 8555,
      "भ्राज": 8556,
      "चैत्य": 8557,
      "धारयेत्": 8558,
      "पर्वते": 8559,
      "चीर": 8560,
      "शिवस्य": 8561,
      "वर्जिता": 8562,
      "आसनं": 8563,
      "उपाय": 8564,
      "निश्चय": 8565,
      "वसु̍": 8566,
      "दि̱वः": 8567,
      "डाकि": 8568,
      "मोक्षः": 8569,
      "स्त्रिंश": 8570,
      "स्कन्धा": 8571,
      "कुर्वते": 8572,
      "हस्तम्": 8573,
      "निर्मित": 8574,
      "द्यु̱": 8575,
      "कदाचिद्": 8576,
      "शत्रून्": 8577,
      "पद्यत": 8578,
      "करणी": 8579,
      "आयुष्": 8580,
      "कोट्य": 8581,
      "मानुषा": 8582,
      "गृहीतो": 8583,
      "करिष्य": 8584,
      "राघवम्": 8585,
      "राघवस्य": 8586,
      "भगवतो": 8587,
      "तनुम्": 8588,
      "श्रोतुम्": 8589,
      "लवण": 8590,
      "समीप": 8591,
      "शून्यं": 8592,
      "याम्य्": 8593,
      "तीर्थानि": 8594,
      "वृ̱धे": 8595,
      "विषाद": 8596,
      "स्मरणाद्": 8597,
      "प्रभोः": 8598,
      "प्रदापयेत्": 8599,
      "मृत्युम्": 8600,
      "मतिमान्": 8601,
      "समाधिम्": 8602,
      "मुनेः": 8603,
      "विविधानि": 8604,
      "सूक्ष्मा": 8605,
      "बलिं": 8606,
      "विन्दति": 8607,
      "तृतीये": 8608,
      "कपिल": 8609,
      "पीठे": 8610,
      "अमर": 8611,
      "पठे": 8612,
      "भोजनम्": 8613,
      "चुम्ब": 8614,
      "विवर्जिताः": 8615,
      "ज्येष्ठा": 8616,
      "नगरे": 8617,
      "भेषजम्": 8618,
      "विज्ञेयं": 8619,
      "जपेन्": 8620,
      "वृ̍णी": 8621,
      "प्रहरण": 8622,
      "मन्त्राणां": 8623,
      "अमुं": 8624,
      "विधानतः": 8625,
      "वदामि": 8626,
      "अग्नी": 8627,
      "पिशाचा": 8628,
      "अन्योन्य": 8629,
      "पृथि̱व्या": 8630,
      "नन्तरम्": 8631,
      "जनार्दनम्": 8632,
      "मुच्यन्ते": 8633,
      "गाम्भी": 8634,
      "पण्डित": 8635,
      "पङ्के": 8636,
      "प्रायश्चित्तं": 8637,
      "अनेकधा": 8638,
      "भाजनम्": 8639,
      "प्रत्येकं": 8640,
      "माणिक्य": 8641,
      "रुक्मि": 8642,
      "कदली": 8643,
      "मयूर": 8644,
      "सारथिः": 8645,
      "भास्कर": 8646,
      "अच्छा̍": 8647,
      "क्रौञ्च": 8648,
      "सान्त्व": 8649,
      "गान्धर्व": 8650,
      "̍द": 8651,
      "̍मा": 8652,
      "̍ने": 8653,
      "̱हा": 8654,
      "अण्ड": 8655,
      "अमू": 8656,
      "अधी": 8657,
      "अभी": 8658,
      "अजान": 8659,
      "अधुना": 8660,
      "आगता": 8661,
      "आस्वाद": 8662,
      "उष": 8663,
      "उद्धृ": 8664,
      "कैव": 8665,
      "गत्य": 8666,
      "गैः": 8667,
      "गरी": 8668,
      "गतस्": 8669,
      "गत्या": 8670,
      "घूर्ण": 8671,
      "चनं": 8672,
      "चयेत्": 8673,
      "जये": 8674,
      "जृम्भ": 8675,
      "टङ्क": 8676,
      "ण̍ः": 8677,
      "तरो": 8678,
      "तनो": 8679,
      "तदी": 8680,
      "तैस्": 8681,
      "दरे": 8682,
      "दले": 8683,
      "दमः": 8684,
      "नल": 8685,
      "नश्च": 8686,
      "नितम्": 8687,
      "पन": 8688,
      "पण्य": 8689,
      "पर्वा": 8690,
      "भित": 8691,
      "भयाव": 8692,
      "भजामि": 8693,
      "मत्ता": 8694,
      "मध्वा": 8695,
      "यदृ": 8696,
      "लैर्": 8697,
      "शना": 8698,
      "शतेन": 8699,
      "शक्रो": 8700,
      "सङ्क": 8701,
      "सवि̱ता": 8702,
      "हरा": 8703,
      "हविष": 8704,
      "ैतद्": 8705,
      "ानपि": 8706,
      "ितश्": 8707,
      "विचि": 8708,
      "विली": 8709,
      "विहार": 8710,
      "विचिन्त्य": 8711,
      "प्र̍": 8712,
      "प्रदक्षिणं": 8713,
      "प्रसह्य": 8714,
      "मात्म": 8715,
      "वामा": 8716,
      "वारं": 8717,
      "वाज̍": 8718,
      "नायि": 8719,
      "ना̍म्": 8720,
      "रात्री": 8721,
      "निहित": 8722,
      "निवर्तते": 8723,
      "निखिल": 8724,
      "क्षू": 8725,
      "क्षिता": 8726,
      "याम्य": 8727,
      "काद्": 8728,
      "काशि": 8729,
      "स्तद्": 8730,
      "्वा̍": 8731,
      "सुप्ता": 8732,
      "पाधि": 8733,
      "पापे": 8734,
      "तु̍": 8735,
      "तुष्टो": 8736,
      "संकाश": 8737,
      "संपत्": 8738,
      "त्तमे": 8739,
      "पुना": 8740,
      "पुस्त": 8741,
      "पुच्छ": 8742,
      "क्त्या": 8743,
      "क्तानि": 8744,
      "परशु": 8745,
      "परित्या": 8746,
      "पिबा": 8747,
      "भिरु": 8748,
      "रुरु": 8749,
      "रुणा": 8750,
      "योध": 8751,
      "दिनीम्": 8752,
      "ङ्कारो": 8753,
      "वेक्ष्य": 8754,
      "मेख": 8755,
      "मेने": 8756,
      "त्वमा": 8757,
      "श्रौ": 8758,
      "श्रिताः": 8759,
      "कुर्वा": 8760,
      "सिध्यति": 8761,
      "तोयं": 8762,
      "श्चे": 8763,
      "जातम्": 8764,
      "लोहिता": 8765,
      "हि̱ता": 8766,
      "भूयात्": 8767,
      "धा̍": 8768,
      "द्वृ": 8769,
      "द्यू": 8770,
      "चाप्य": 8771,
      "मनसः": 8772,
      "महादेवो": 8773,
      "महावीर्या": 8774,
      "प्राणं": 8775,
      "प्राकार": 8776,
      "प्राविश": 8777,
      "ञ्चि": 8778,
      "ञ्चित": 8779,
      "वर्षे": 8780,
      "मानस": 8781,
      "मान्य्": 8782,
      "भवन्म": 8783,
      "वृषा̱": 8784,
      "पूषा": 8785,
      "देवैः": 8786,
      "देवदेवस्य": 8787,
      "चिच्छेद": 8788,
      "किन्तु": 8789,
      "हाद्": 8790,
      "दृशी": 8791,
      "रू̱": 8792,
      "गाथा": 8793,
      "कोण": 8794,
      "सेद्": 8795,
      "सेव्य": 8796,
      "राज्या": 8797,
      "गोपी": 8798,
      "गोचर": 8799,
      "षुः": 8800,
      "ब्रह्मे": 8801,
      "ध्यो": 8802,
      "ध्यन्ते": 8803,
      "निर्ज": 8804,
      "ष्यो": 8805,
      "पेत्": 8806,
      "पेता": 8807,
      "पेक्षा": 8808,
      "हेरु": 8809,
      "धर्मस्य": 8810,
      "धर्मज्ञ": 8811,
      "ब्धो": 8812,
      "यत्नाद्": 8813,
      "कर्श": 8814,
      "कर्षा": 8815,
      "हृतः": 8816,
      "दश̱": 8817,
      "त्याम्": 8818,
      "ज्ञातो": 8819,
      "णीय": 8820,
      "व्रति": 8821,
      "ानुलेप": 8822,
      "म्यम्": 8823,
      "रूपस्य": 8824,
      "कीं": 8825,
      "समुच्चार्य": 8826,
      "भगवान": 8827,
      "भ्रमः": 8828,
      "भ्रमति": 8829,
      "पूर्वेण": 8830,
      "तृष्ण": 8831,
      "सत्त्वेषु": 8832,
      "पुत्रे": 8833,
      "सृ̱": 8834,
      "भीमा": 8835,
      "श्रीमन्": 8836,
      "रत्नो": 8837,
      "युक्ते": 8838,
      "युक्तेन": 8839,
      "द्वाꣳ": 8840,
      "पुनरेव": 8841,
      "दित्या": 8842,
      "दुःखेन": 8843,
      "लक्षणः": 8844,
      "पुरु̱": 8845,
      "गिरी": 8846,
      "वनानि": 8847,
      "प्रत्ययो": 8848,
      "पतन्ति": 8849,
      "वचन": 8850,
      "ध्यायन्": 8851,
      "पद्मिनी": 8852,
      "पूजयेद्": 8853,
      "प्रोक्तः": 8854,
      "अन्येन": 8855,
      "जु̍": 8856,
      "सु̱तम्": 8857,
      "सु̱वीर्य": 8858,
      "साधक": 8859,
      "ष्टिं": 8860,
      "दक्षिणो": 8861,
      "यितु": 8862,
      "वेदना": 8863,
      "तपस्": 8864,
      "तपश्": 8865,
      "म्बं": 8866,
      "उत्तरं": 8867,
      "मधुरं": 8868,
      "सूर्ये": 8869,
      "सूर्य̍स्य": 8870,
      "उ̱भे": 8871,
      "विद्यो": 8872,
      "चन्द्रं": 8873,
      "सत्येन": 8874,
      "शुभदं": 8875,
      "ट्टा": 8876,
      "स्त्वे": 8877,
      "कौतु": 8878,
      "कौमारी": 8879,
      "कार्ये": 8880,
      "प्रभाते": 8881,
      "जानति": 8882,
      "भ्यो̍": 8883,
      "रामस्": 8884,
      "कीर्तिता": 8885,
      "मूर्तिः": 8886,
      "भ्राम": 8887,
      "वरु̍": 8888,
      "पर्ज": 8889,
      "स्फुरत्": 8890,
      "ड्ड": 8891,
      "कृताञ्जलि": 8892,
      "चरेयं": 8893,
      "चरेयम्": 8894,
      "प्रविष्ट": 8895,
      "मन्वन्त": 8896,
      "वर्षसहस्राणि": 8897,
      "वर्धनम्": 8898,
      "शङ्का": 8899,
      "स्त्रियो": 8900,
      "निर्मिता": 8901,
      "प्रसादात्": 8902,
      "कुशला": 8903,
      "अनादि": 8904,
      "गमने": 8905,
      "ऽथवा": 8906,
      "मयीं": 8907,
      "वहति": 8908,
      "लक्ष्मणं": 8909,
      "श्रेष्ठः": 8910,
      "वत्सलः": 8911,
      "त्रीन्": 8912,
      "क्रुद्धा": 8913,
      "भावेषु": 8914,
      "कर्तव्या": 8915,
      "कर्तव्यम्": 8916,
      "समीपे": 8917,
      "ऽन्ये": 8918,
      "प्रवृत्तिर्": 8919,
      "मार्गो": 8920,
      "मृत्योर्": 8921,
      "मूढस्य": 8922,
      "व्रजन्ति": 8923,
      "नारायणं": 8924,
      "सूक्ष्मं": 8925,
      "ओषधे": 8926,
      "संसारा": 8927,
      "नदीम्": 8928,
      "लक्ष्मीर्": 8929,
      "तुल्या": 8930,
      "तुल्यं": 8931,
      "̍नꣳ": 8932,
      "भोजनं": 8933,
      "वर्तिनः": 8934,
      "अमृता": 8935,
      "अशेषा": 8936,
      "किञ्चि": 8937,
      "जपेद्": 8938,
      "विज्ञाप": 8939,
      "आहुः": 8940,
      "पश्चिम": 8941,
      "सुहृत्": 8942,
      "विद्युत्": 8943,
      "ददतु": 8944,
      "हिरण्यकशि": 8945,
      "रिपुः": 8946,
      "समाश्रित्य": 8947,
      "परिकीर्तितः": 8948,
      "भर्तारं": 8949,
      "रूपिणीम्": 8950,
      "वैराग्यं": 8951,
      "शुष्क": 8952,
      "जीविते": 8953,
      "अजायत": 8954,
      "अप्सु": 8955,
      "मञ्जुघोषं": 8956,
      "मुमुक्षुर्": 8957,
      "त्वत्तस्": 8958,
      "किमर्थं": 8959,
      "यक्ष्मं": 8960,
      "वदेत्": 8961,
      "ब̱र्हिर्": 8962,
      "महाबाहुर्": 8963,
      "त्रिलोकी": 8964,
      "पशून्": 8965,
      "रचना": 8966,
      "शो̱चि": 8967,
      "स्त्रैलोक्य": 8968,
      "स्फटिक": 8969,
      "उत्तिष्ठ": 8970,
      "लिखेत्": 8971,
      "जीमूत": 8972,
      "द्यावा̍पृथि̱वी": 8973,
      "शङ्खचक्रगदा": 8974,
      "पौर्णमा": 8975,
      "̱मम्": 8976,
      "अण": 8977,
      "अयु": 8978,
      "असृ": 8979,
      "असत्": 8980,
      "अविर": 8981,
      "असद्": 8982,
      "अद̍": 8983,
      "अब्रवीद्": 8984,
      "इमि": 8985,
      "उपति": 8986,
      "उन्न": 8987,
      "उच्छि": 8988,
      "ऊर्ध्वा": 8989,
      "कषा": 8990,
      "कन्ध": 8991,
      "जेन": 8992,
      "दङ्ग": 8993,
      "दक्षा": 8994,
      "दधे": 8995,
      "दन्ता": 8996,
      "धव": 8997,
      "नयः": 8998,
      "पस्य": 8999,
      "पतद्": 9000,
      "फेन": 9001,
      "मल्": 9002,
      "रते": 9003,
      "लज्ज": 9004,
      "लग्न": 9005,
      "वशं": 9006,
      "वसन्": 9007,
      "शयाः": 9008,
      "श̱ता": 9009,
      "षद्": 9010,
      "सन्द": 9011,
      "सरम्": 9012,
      "सक्ता": 9013,
      "सक्तं": 9014,
      "सङ्गा": 9015,
      "समाना": 9016,
      "सन्तः": 9017,
      "सचरा": 9018,
      "र्जु": 9019,
      "्त्": 9020,
      "ानल": 9021,
      "विट": 9022,
      "विभवे": 9023,
      "विवक्ष": 9024,
      "विध्वं": 9025,
      "विमोच": 9026,
      "विरोध": 9027,
      "त्सि": 9028,
      "त्मिका": 9029,
      "प्रच": 9030,
      "प्रव्र": 9031,
      "प्रणे": 9032,
      "प्रहर": 9033,
      "प्रमत्त": 9034,
      "प्रवृद्ध": 9035,
      "प्रधाना": 9036,
      "प्रददौ": 9037,
      "माव": 9038,
      "माणम्": 9039,
      "्या̍": 9040,
      "वावृ": 9041,
      "वाप्त": 9042,
      "वादो": 9043,
      "नाप्य": 9044,
      "राधि": 9045,
      "रामाय": 9046,
      "राज्ञां": 9047,
      "निं": 9048,
      "निसर्ग": 9049,
      "निधनं": 9050,
      "क्षप": 9051,
      "क्षति": 9052,
      "तारे": 9053,
      "त्रम्": 9054,
      "त्रयी": 9055,
      "सुं": 9056,
      "सु̱त": 9057,
      "सुदुःख": 9058,
      "सुकृतं": 9059,
      "सुप्तो": 9060,
      "पापी": 9061,
      "संधि": 9062,
      "संरक्ष": 9063,
      "संयुक्ता": 9064,
      "संस्थानं": 9065,
      "सारो": 9066,
      "पुत्रि": 9067,
      "पुञ्ज": 9068,
      "दापयेत्": 9069,
      "क्ताः": 9070,
      "परमानन्द": 9071,
      "भि̱": 9072,
      "रुन्ध": 9073,
      "दिग्वि": 9074,
      "भाय": 9075,
      "भावै": 9076,
      "भाव्यं": 9077,
      "कृमि": 9078,
      "कृत्ति": 9079,
      "ङ्कं": 9080,
      "स्वो": 9081,
      "स्वरं": 9082,
      "स्व̱र्": 9083,
      "स्वभावो": 9084,
      "कुन्त": 9085,
      "कुवल": 9086,
      "कुप्यति": 9087,
      "सिन्दू": 9088,
      "जात्य": 9089,
      "जारण": 9090,
      "लोहित": 9091,
      "लोलु": 9092,
      "स्थग": 9093,
      "स्थस्य": 9094,
      "स्थ्यं": 9095,
      "लाभे": 9096,
      "धाम्ना": 9097,
      "रिपू": 9098,
      "चामि": 9099,
      "चास्ति": 9100,
      "चारेण": 9101,
      "मन̍सा": 9102,
      "व्यभि": 9103,
      "महात्मानं": 9104,
      "ान्तु": 9105,
      "ङ्गः": 9106,
      "प्रासाद": 9107,
      "वर्णः": 9108,
      "मानस्": 9109,
      "भवत": 9110,
      "भवसि": 9111,
      "भवन्तं": 9112,
      "शु̍": 9113,
      "शुच": 9114,
      "शिष्या": 9115,
      "शिल्प": 9116,
      "तीतं": 9117,
      "चिरेण": 9118,
      "चिकीर्ष": 9119,
      "गुद": 9120,
      "गुणां": 9121,
      "नीर्": 9122,
      "ष्ठम्": 9123,
      "किरणा": 9124,
      "मृ̍": 9125,
      "मृतस्य": 9126,
      "परिजन": 9127,
      "परिपाल": 9128,
      "समव": 9129,
      "कोपा": 9130,
      "भु̱": 9131,
      "सूत्रे": 9132,
      "सू̱र": 9133,
      "समाख्या": 9134,
      "समायुक्तं": 9135,
      "समागताः": 9136,
      "तांश्": 9137,
      "यथावद्": 9138,
      "यथाकामं": 9139,
      "तस्यै": 9140,
      "गोपाल": 9141,
      "ष्णीं": 9142,
      "अ̱र्": 9143,
      "व्यापार": 9144,
      "भोक्ता": 9145,
      "ञ्चन": 9146,
      "हेत्": 9147,
      "बोद्ध": 9148,
      "प्सर": 9149,
      "ब्धा": 9150,
      "मितो": 9151,
      "जिनं": 9152,
      "जिज्ञा": 9153,
      "जिघ्र": 9154,
      "प्यो": 9155,
      "कर्तु": 9156,
      "जगदेक": 9157,
      "चेन्": 9158,
      "दर्शी": 9159,
      "सम्भवा": 9160,
      "यिष्ये": 9161,
      "यिष्यन्ति": 9162,
      "जीवः": 9163,
      "जनित": 9164,
      "सौभाग": 9165,
      "ब्रह्मणस्": 9166,
      "सिद्धे": 9167,
      "अपि̍": 9168,
      "वत्सा": 9169,
      "नृत्त": 9170,
      "चैवं": 9171,
      "अनुत्त": 9172,
      "स्वा̱": 9173,
      "स्वादु": 9174,
      "प्रियाम्": 9175,
      "अनर्थ": 9176,
      "वर्तन्ते": 9177,
      "वृत्तौ": 9178,
      "मुक्तस्य": 9179,
      "मुक्तये": 9180,
      "करैर्": 9181,
      "कृतान्त": 9182,
      "बलः": 9183,
      "ख्याति": 9184,
      "चरते": 9185,
      "चरिता": 9186,
      "वज्रेण": 9187,
      "घोषा": 9188,
      "पादयोः": 9189,
      "वि̱द्वान्": 9190,
      "पुष्पाणि": 9191,
      "पतितो": 9192,
      "प्रोद्य": 9193,
      "जुह्व": 9194,
      "सु̱तः": 9195,
      "अवलोक": 9196,
      "लुम्": 9197,
      "देशान्": 9198,
      "लोकेश्वरो": 9199,
      "त्रेता": 9200,
      "घाट": 9201,
      "सूर्यं": 9202,
      "प्रणतो": 9203,
      "कृष्णम्": 9204,
      "तस्यापि": 9205,
      "वसान": 9206,
      "य̍न्न्": 9207,
      "गीता": 9208,
      "गी̱र्": 9209,
      "पते̱": 9210,
      "देवीर्": 9211,
      "कूटे": 9212,
      "प्रीतः": 9213,
      "म्भसि": 9214,
      "प्रथित": 9215,
      "यू̱": 9216,
      "मूर्धा": 9217,
      "इ̱त्था": 9218,
      "वरुणस्य": 9219,
      "मत्स̱": 9220,
      "पुरुषस्य": 9221,
      "नायकम्": 9222,
      "भरतो": 9223,
      "देहस्": 9224,
      "गणैर्": 9225,
      "चेतसि": 9226,
      "रुद्रस्य": 9227,
      "वा̱जिन": 9228,
      "नू̱नम्": 9229,
      "र̱श्मि": 9230,
      "आत्मन": 9231,
      "बद्धं": 9232,
      "धर्माणां": 9233,
      "स्थानम्": 9234,
      "भूमिषु": 9235,
      "तरङ्ग": 9236,
      "ङ्गुष्ठ": 9237,
      "ङ्गुली": 9238,
      "पदां": 9239,
      "मोहितः": 9240,
      "प्रभुर्": 9241,
      "अस्य्": 9242,
      "क्रियः": 9243,
      "गम्या": 9244,
      "अत्र̍": 9245,
      "बृहद्": 9246,
      "विजया": 9247,
      "विजयं": 9248,
      "करिष्यन्ति": 9249,
      "करिष्यसि": 9250,
      "तनुर्": 9251,
      "नियता": 9252,
      "कण्ठा": 9253,
      "ह्रीं": 9254,
      "̍ण̱ꣳ": 9255,
      "मरुतः": 9256,
      "प्रवृत्ते": 9257,
      "अर्थम्": 9258,
      "उक्ते": 9259,
      "मातरः": 9260,
      "ऋ̱ष्व": 9261,
      "विदध": 9262,
      "गृह्या": 9263,
      "अध̍": 9264,
      "महोत्": 9265,
      "महोत्स": 9266,
      "कल्याणि": 9267,
      "जगाद": 9268,
      "जगामा": 9269,
      "लङ्का": 9270,
      "नारायणा": 9271,
      "नारायणो": 9272,
      "वृक्षस्य": 9273,
      "कर्षण": 9274,
      "शुचिर्": 9275,
      "तनयो": 9276,
      "दैत्यो": 9277,
      "बोधिसत्त्वानां": 9278,
      "ब्रुवा": 9279,
      "पीठं": 9280,
      "वर्चसः": 9281,
      "रूढं": 9282,
      "वस्त्रं": 9283,
      "ह्येते": 9284,
      "समुद्भूतं": 9285,
      "विस्तृ": 9286,
      "रविः": 9287,
      "मातृका": 9288,
      "इत्यादि": 9289,
      "मूर्ध्ना": 9290,
      "सखा̍": 9291,
      "भीषण": 9292,
      "प्लुत्य": 9293,
      "हयग्री": 9294,
      "रौद्रं": 9295,
      "प्येवं": 9296,
      "हेतोर्": 9297,
      "पण्डितः": 9298,
      "अयोध्यां": 9299,
      "स्फार": 9300,
      "करुणया": 9301,
      "युष्मान्": 9302,
      "शर्म̍": 9303,
      "द्रूपं": 9304,
      "निवेश्य": 9305,
      "ऋषीन्": 9306,
      "परिणाम": 9307,
      "वाहिनी": 9308,
      "राज्ञी": 9309,
      "पाणेः": 9310,
      "दरिद्र": 9311,
      "चैतन्य": 9312,
      "वाञ्छा": 9313,
      "अ̱न्तर्": 9314,
      "भुक्तिमुक्ति": 9315,
      "प्रौढ": 9316,
      "पवित्रा": 9317,
      "वर्तेत": 9318,
      "बौद्ध": 9319,
      "इक्ष्वाकु": 9320,
      "वीतरागो": 9321,
      "प्रणमितशिरसा": 9322,
      "=>": 9323,
      "̱णाम्": 9324,
      "अद्र": 9325,
      "अवै": 9326,
      "असू": 9327,
      "अघो": 9328,
      "अविद्या": 9329,
      "अपरं": 9330,
      "आशी": 9331,
      "आकर्ण्य": 9332,
      "इय": 9333,
      "इयम्": 9334,
      "ई̍ꣳ": 9335,
      "उच्चा": 9336,
      "ऋक्ष": 9337,
      "एतौ": 9338,
      "एवेति": 9339,
      "ओफ़्": 9340,
      "कफ": 9341,
      "करू": 9342,
      "करत्": 9343,
      "करीं": 9344,
      "कस्यापि": 9345,
      "घनं": 9346,
      "तप्य": 9347,
      "दैः": 9348,
      "ध्य्": 9349,
      "नतो": 9350,
      "पट्ट": 9351,
      "फले": 9352,
      "बर": 9353,
      "बू": 9354,
      "बर्ह": 9355,
      "भरणं": 9356,
      "भग्न": 9357,
      "मरण": 9358,
      "मधो": 9359,
      "मनाः": 9360,
      "रसम्": 9361,
      "रयी": 9362,
      "वक्र": 9363,
      "वबोध": 9364,
      "शानं": 9365,
      "शक्ता": 9366,
      "शनैर्": 9367,
      "ष्त": 9368,
      "सवि": 9369,
      "सता": 9370,
      "सका": 9371,
      "सन्तं": 9372,
      "हव̍": 9373,
      "ी̱": 9374,
      "्यन्त": 9375,
      "ित्रा": 9376,
      "विद्व": 9377,
      "विवर्": 9378,
      "विश्य": 9379,
      "विचर": 9380,
      "विदुर्": 9381,
      "विन्यस्य": 9382,
      "विचेष्ट": 9383,
      "प्रदान": 9384,
      "तिरो": 9385,
      "तिस्रो": 9386,
      "मायु": 9387,
      "मायू": 9388,
      "माप्नुयात्": 9389,
      "वारे": 9390,
      "वादं": 9391,
      "नाथा": 9392,
      "नाधि": 9393,
      "नाभ्य": 9394,
      "निभ": 9395,
      "निमे": 9396,
      "निधे": 9397,
      "निराम": 9398,
      "याश्च": 9399,
      "यामः": 9400,
      "स्यः": 9401,
      "श्नुते": 9402,
      "पाशं": 9403,
      "तुष्टु": 9404,
      "देम": 9405,
      "देवर्षि": 9406,
      "संस्पृ": 9407,
      "संक्लेश": 9408,
      "संप्रार्थ": 9409,
      "सार्": 9410,
      "पुर्": 9411,
      "मुच": 9412,
      "भिद्यते": 9413,
      "योस्": 9414,
      "दिङ्": 9415,
      "दिनम्": 9416,
      "दिवो": 9417,
      "भात्": 9418,
      "कृश": 9419,
      "णा̍": 9420,
      "मेत्": 9421,
      "सर्वभूतेषु": 9422,
      "त्वच्": 9423,
      "स्वकर्म": 9424,
      "स्वल्प": 9425,
      "कुं": 9426,
      "कुब्ज": 9427,
      "क्रमो": 9428,
      "रेफ": 9429,
      "रेखा": 9430,
      "दुर्वृ": 9431,
      "स्थौ": 9432,
      "धार्यते": 9433,
      "महाभि": 9434,
      "प्राजा": 9435,
      "मानवाः": 9436,
      "शास्तु": 9437,
      "भवभय": 9438,
      "मोहि": 9439,
      "तीक्ष्": 9440,
      "देवदेवेश": 9441,
      "चि̱त्": 9442,
      "न्द्रेण": 9443,
      "गुः": 9444,
      "ब्र̱": 9445,
      "नीति": 9446,
      "कि̱": 9447,
      "न्यू": 9448,
      "णिः": 9449,
      "हात्": 9450,
      "मृगो": 9451,
      "स्यात्त": 9452,
      "दृश्या": 9453,
      "लोकनायक": 9454,
      "वीक्ष": 9455,
      "बुधाः": 9456,
      "गाल": 9457,
      "गामिनी": 9458,
      "कोवि": 9459,
      "कोष्ठ": 9460,
      "भुवा": 9461,
      "वैरोच": 9462,
      "लेभे": 9463,
      "केशो": 9464,
      "समाहित": 9465,
      "राजे": 9466,
      "त्रिभिः": 9467,
      "त्रिविधं": 9468,
      "प्रतिगृह्य": 9469,
      "त्राता": 9470,
      "व्यात्": 9471,
      "पेत": 9472,
      "पेतो": 9473,
      "हेस्": 9474,
      "धर्मता": 9475,
      "मूलम्": 9476,
      "क्षिणी": 9477,
      "क्षिप्ता": 9478,
      "बाणा": 9479,
      "बाले": 9480,
      "मित्या": 9481,
      "जिष्ण": 9482,
      "जगताम्": 9483,
      "दो̱": 9484,
      "सम्पाद": 9485,
      "यिन्": 9486,
      "सौर": 9487,
      "सौवर्ण": 9488,
      "सौम्या": 9489,
      "दृष्टः": 9490,
      "इन्द्रेण": 9491,
      "ब्रह्मचारी": 9492,
      "शीतल": 9493,
      "कथयिष्यामि": 9494,
      "कीट": 9495,
      "पतिना": 9496,
      "पति̍म्": 9497,
      "दान्व": 9498,
      "पीन": 9499,
      "पीति": 9500,
      "गुणेन": 9501,
      "सत्त्वो": 9502,
      "न्नरः": 9503,
      "भीति": 9504,
      "स̱मत्": 9505,
      "युक्ताः": 9506,
      "वृत्ता": 9507,
      "बोधिसत्व": 9508,
      "पुनश्": 9509,
      "भूतये": 9510,
      "पुरुषे": 9511,
      "चोत्": 9512,
      "स्थितिर्": 9513,
      "बन्धुर्": 9514,
      "अभिश": 9515,
      "देवास्": 9516,
      "पुष्कर": 9517,
      "पुष्पद": 9518,
      "प्राप्तम्": 9519,
      "पूजये": 9520,
      "पूजिताः": 9521,
      "सरसि": 9522,
      "सु̱तस्य̍": 9523,
      "स्फी": 9524,
      "अवस्था": 9525,
      "दक्षिणाम्": 9526,
      "सहस्रम्": 9527,
      "महेश्वरम्": 9528,
      "देशम्": 9529,
      "अन्तस्": 9530,
      "अन्तरा": 9531,
      "करोषि": 9532,
      "वदना": 9533,
      "हरिणा": 9534,
      "वसन": 9535,
      "धूर्ज": 9536,
      "विधिम्": 9537,
      "विधिवद्": 9538,
      "शब्देन": 9539,
      "तन्मे": 9540,
      "कूलं": 9541,
      "प्रभाष": 9542,
      "दैवा": 9543,
      "पालयेत्": 9544,
      "नैमित्त": 9545,
      "ष्ठाय": 9546,
      "कस्यचित्": 9547,
      "ज्वलित": 9548,
      "ब्रह्माण्ड": 9549,
      "घृता": 9550,
      "घृ̱त": 9551,
      "̍त̱म्": 9552,
      "पर्वताः": 9553,
      "चित्रम्": 9554,
      "चेतसाम्": 9555,
      "रुद्रः": 9556,
      "निर्वे": 9557,
      "बद्धः": 9558,
      "र्थिनः": 9559,
      "क्रियाः": 9560,
      "नयनं": 9561,
      "नानाविध": 9562,
      "र्जित": 9563,
      "हस्तेन": 9564,
      "मुनिम्": 9565,
      "ान्वि": 9566,
      "मोहान्ध": 9567,
      "कायवाक": 9568,
      "प्रतीत्य": 9569,
      "उद्दिश्य": 9570,
      "दण्डकारण": 9571,
      "तूर्य": 9572,
      "च̍र्ष": 9573,
      "स्येति": 9574,
      "तर्क": 9575,
      "गृहीता": 9576,
      "ध्रुवा": 9577,
      "विकल्पो": 9578,
      "नमस्कृत्य": 9579,
      "कर्तव्यो": 9580,
      "श्रोणि": 9581,
      "स्वभावस्य": 9582,
      "पाणिना": 9583,
      "ऽन्यः": 9584,
      "तैल": 9585,
      "काराणि": 9586,
      "सृजन्": 9587,
      "मूढा": 9588,
      "कारिणे": 9589,
      "ग्राह्या": 9590,
      "श्मश्रु": 9591,
      "लोचने": 9592,
      "प्रतिष्ठिता": 9593,
      "षोडशा": 9594,
      "विनिर्ज": 9595,
      "पिबेत्": 9596,
      "दिवसे": 9597,
      "नदीं": 9598,
      "प्रणिपत्य": 9599,
      "सो̍म": 9600,
      "शोधयेत्": 9601,
      "दुष्कृतं": 9602,
      "अनिन्द": 9603,
      "विभूषिता": 9604,
      "नगर": 9605,
      "प्रशम": 9606,
      "वृत्तिं": 9607,
      "इत्यर्थः": 9608,
      "शङ्करः": 9609,
      "विस्तरम्": 9610,
      "क्षिप्तः": 9611,
      "क्षिप्त्वा": 9612,
      "वासुदेव": 9613,
      "शिष्यो": 9614,
      "वृद्धिर्": 9615,
      "जानामि": 9616,
      "श्वरीम्": 9617,
      "ट्टहा": 9618,
      "स̱हस्रा": 9619,
      "प्राणिनां": 9620,
      "भुवना": 9621,
      "अन्नं": 9622,
      "दे̍व̱": 9623,
      "कैकेय्या": 9624,
      "पिङ्गला": 9625,
      "सर्वार्थसिद्धिं": 9626,
      "ग̍हि": 9627,
      "तिमिर": 9628,
      "शरणागतम्": 9629,
      "ऽहनि": 9630,
      "निरीक्ष्य": 9631,
      "मुनयो": 9632,
      "मुनयः": 9633,
      "अरुन्ध": 9634,
      "हरी̍": 9635,
      "दुन्दुभि": 9636,
      "जुहुयात्": 9637,
      "मनुष्याणां": 9638,
      "दातव्यं": 9639,
      "चत्वारिंश": 9640,
      "मोहाद्": 9641,
      "दे̱वाना̍म्": 9642,
      "हनूमान्": 9643,
      "भास्करः": 9644,
      "स̱त्यम्": 9645,
      "मन्दिरम्": 9646,
      "स्त्वां": 9647,
      "सुभगा": 9648,
      "ऐश्वर्यम्": 9649,
      "नैरात्म्य": 9650,
      "जज्ञिरे": 9651,
      "शुक्ला": 9652,
      "शाक्यसिंहं": 9653,
      "ब्रह्महत्या": 9654,
      "दुर्लभा": 9655,
      "ह̱विषा̍": 9656,
      "̍म̱": 9657,
      "अय": 9658,
      "असु": 9659,
      "अलि": 9660,
      "अधु": 9661,
      "अब्रवी": 9662,
      "अनाग": 9663,
      "अस्य̱": 9664,
      "अदृश्य": 9665,
      "अभवद्": 9666,
      "अज्ञानाद्": 9667,
      "आतु": 9668,
      "आहा": 9669,
      "आचक्ष्व": 9670,
      "इतर": 9671,
      "इळा": 9672,
      "उष्ण": 9673,
      "कच": 9674,
      "कनी": 9675,
      "कसंवर": 9676,
      "गꣳ": 9677,
      "ग्वा": 9678,
      "गभी": 9679,
      "घान": 9680,
      "जलम्": 9681,
      "डमरु": 9682,
      "तयः": 9683,
      "तत्तु": 9684,
      "दशो": 9685,
      "दधी": 9686,
      "धयः": 9687,
      "धरी": 9688,
      "ध̍ः": 9689,
      "पञ्ज": 9690,
      "पऽइ": 9691,
      "बभ्र": 9692,
      "बऽइ": 9693,
      "भस्मा": 9694,
      "मज्": 9695,
      "मर्ष": 9696,
      "यजा": 9697,
      "यमो": 9698,
      "रतं": 9699,
      "रचित": 9700,
      "रितः": 9701,
      "वना": 9702,
      "ववृ": 9703,
      "वहा": 9704,
[...]
