{
  "version": "1.0",
  "truncation": null,
  "padding": null,
  "added_tokens": [
    {
      "id": 0,
      "content": "[MASK]",
      "single_word": false,
      "lstrip": false,
      "rstrip": false,
      "normalized": false,
      "special": true
    },
    {
      "id": 1,
      "content": "[PAD]",
      "single_word": false,
      "lstrip": false,
      "rstrip": false,
      "normalized": false,
      "special": true
    },
    {
      "id": 2,
      "content": "[UNK]",
      "single_word": false,
      "lstrip": false,
      "rstrip": false,
      "normalized": false,
      "special": true
    },
    {
      "id": 3,
      "content": "[CLS]",
      "single_word": false,
      "lstrip": false,
      "rstrip": false,
      "normalized": false,
      "special": true
    },
    {
      "id": 4,
      "content": "[SEP]",
      "single_word": false,
      "lstrip": false,
      "rstrip": false,
      "normalized": false,
      "special": true
    }
  ],
  "normalizer": null,
  "pre_tokenizer": {
    "type": "Whitespace"
  },
  "post_processor": null,
  "decoder": null,
  "model": {
    "type": "BPE",
    "dropout": null,
    "unk_token": "[UNK]",
    "continuing_subword_prefix": null,
    "end_of_word_suffix": null,
    "fuse_unk": false,
    "byte_fallback": false,
    "ignore_merges": false,
    "vocab": {
      "[MASK]": 0,
      "[PAD]": 1,
      "[UNK]": 2,
      "[CLS]": 3,
      "[SEP]": 4,
      "!": 5,
      "\"": 6,
      "#": 7,
      "$": 8,
      "%": 9,
      "&": 10,
      "'": 11,
      "(": 12,
      ")": 13,
      "*": 14,
      "+": 15,
      ",": 16,
      "-": 17,
      ".": 18,
      "/": 19,
      ":": 20,
      ";": 21,
      "<": 22,
      "=": 23,
      ">": 24,
      "?": 25,
      "@": 26,
      "A": 27,
      "B": 28,
      "C": 29,
      "D": 30,
      "E": 31,
      "G": 32,
      "H": 33,
      "I": 34,
      "J": 35,
      "K": 36,
      "L": 37,
      "M": 38,
      "N": 39,
      "O": 40,
      "P": 41,
      "Q": 42,
      "R": 43,
      "S": 44,
      "T": 45,
      "U": 46,
      "V": 47,
      "W": 48,
      "X": 49,
      "Y": 50,
      "[": 51,
      "\\": 52,
      "]": 53,
      "_": 54,
      "`": 55,
      "a": 56,
      "b": 57,
      "c": 58,
      "d": 59,
      "e": 60,
      "f": 61,
      "g": 62,
      "h": 63,
      "i": 64,
      "j": 65,
      "k": 66,
      "l": 67,
      "m": 68,
      "n": 69,
      "o": 70,
      "p": 71,
      "q": 72,
      "r": 73,
      "s": 74,
      "t": 75,
      "u": 76,
      "v": 77,
      "w": 78,
      "x": 79,
      "y": 80,
      "z": 81,
      "{": 82,
      "|": 83,
      "}": 84,
      "~": 85,
      "°": 86,
      "á": 87,
      "â": 88,
      "æ": 89,
      "ê": 90,
      "î": 91,
      "ï": 92,
      "ñ": 93,
      "ö": 94,
      "ú": 95,
      "ü": 96,
      "Ā": 97,
      "ā": 98,
      "ē": 99,
      "Ī": 100,
      "ī": 101,
      "Ō": 102,
      "ō": 103,
      "Ś": 104,
      "ś": 105,
      "ū": 106,
      "́": 107,
      "̄": 108,
      "̆": 109,
      "̍": 110,
      "̐": 111,
      "̥": 112,
      "̱": 113,
      "Ḍ": 114,
      "ḍ": 115,
      "ḥ": 116,
      "ḫ": 117,
      "ḷ": 118,
      "ḹ": 119,
      "ḻ": 120,
      "ṁ": 121,
      "ṃ": 122,
      "ṅ": 123,
      "Ṇ": 124,
      "ṇ": 125,
      "ṉ": 126,
      "Ṛ": 127,
      "ṛ": 128,
      "ṝ": 129,
      "ṟ": 130,
      "ṣ": 131,
      "Ṭ": 132,
      "ṭ": 133,
      "ẖ": 134,
      "–": 135,
      "’": 136,
      "…": 137,
      "⏑": 138,
      "⟨": 139,
      "⟩": 140,
      "ya": 141,
      "ra": 142,
      "ta": 143,
      "va": 144,
      "ha": 145,
      "ma": 146,
      "na": 147,
      "sa": 148,
      "pa": 149,
      "yā": 150,
      "hā": 151,
      "vā": 152,
      "ca": 153,
      "vi": 154,
      "ti": 155,
      "ka": 156,
      "rā": 157,
      "hi": 158,
      "tā": 159,
      "da": 160,
      "mā": 161,
      "nā": 162,
      "//": 163,
      "te": 164,
      "ga": 165,
      "ni": 166,
      "śa": 167,
      "pra": 168,
      "la": 169,
      "bh": 170,
      "ja": 171,
      "bha": 172,
      "ṇa": 173,
      "ṣa": 174,
      "dha": 175,
      "ri": 176,
      "tu": 177,
      "kā": 178,
      "dh": 179,
      "ye": 180,
      "sya": 181,
      "pā": 182,
      "yo": 183,
      "su": 184,
      "ṣṭ": 185,
      "dā": 186,
      "ru": 187,
      "sā": 188,
      "de": 189,
      "tha": 190,
      "ve": 191,
      "tra": 192,
      "saṃ": 193,
      "pi": 194,
      "taḥ": 195,
      "mi": 196,
      "taṃ": 197,
      "kṣ": 198,
      "thā": 199,
      "re": 200,
      "di": 201,
      "pu": 202,
      "to": 203,
      "||": 204,
      "yaṃ": 205,
      "mu": 206,
      "sar": 207,
      "bhi": 208,
      "ro": 209,
      "ṇā": 210,
      "ci": 211,
      "bhā": 212,
      "dhā": 213,
      "tvā": 214,
      "yu": 215,
      "kṛ": 216,
      "dhi": 217,
      "tva": 218,
      "kṣa": 219,
      "me": 220,
      "jā": 221,
      "ba": 222,
      "ne": 223,
      "tam": 224,
      "si": 225,
      "rī": 226,
      "jñ": 227,
      "nu": 228,
      "cā": 229,
      "iva": 230,
      "ku": 231,
      "lā": 232,
      "he": 233,
      "śā": 234,
      "sva": 235,
      "lo": 236,
      "tya": 237,
      "naṃ": 238,
      "tī": 239,
      "nta": 240,
      "bhū": 241,
      "nd": 242,
      "sarva": 243,
      "raṃ": 244,
      "st": 245,
      "mahā": 246,
      "no": 247,
      "var": 248,
      "vī": 249,
      "ūr": 250,
      "vṛ": 251,
      "iḥ": 252,
      "du": 253,
      "yaḥ": 254,
      "ho": 255,
      "prā": 256,
      "ṣā": 257,
      "naḥ": 258,
      "tas": 259,
      "gā": 260,
      "nam": 261,
      "nī": 262,
      "nti": 263,
      "gu": 264,
      "śu": 265,
      "ir": 266,
      "yate": 267,
      "śi": 268,
      "cc": 269,
      "tat": 270,
      "kha": 271,
      "eva": 272,
      "rma": 273,
      "ki": 274,
      "yam": 275,
      "śca": 276,
      "bhava": 277,
      "tta": 278,
      "rū": 279,
      "ke": 280,
      "hu": 281,
      "śva": 282,
      "ṣu": 283,
      "jñā": 284,
      "ddha": 285,
      "ṇi": 286,
      "ram": 287,
      "man": 288,
      "li": 289,
      "mṛ": 290,
      "nāṃ": 291,
      "dṛ": 292,
      "vo": 293,
      "pari": 294,
      "ṣṭa": 295,
      "ji": 296,
      "tathā": 297,
      "ṇḍ": 298,
      "so": 299,
      "bu": 300,
      "rtha": 301,
      "raḥ": 302,
      "le": 303,
      "yas": 304,
      "tāḥ": 305,
      "tāṃ": 306,
      "ko": 307,
      "yan": 308,
      "mo": 309,
      "trā": 310,
      "vai": 311,
      "nir": 312,
      "sthi": 313,
      "yāṃ": 314,
      "vya": 315,
      "haṃ": 316,
      "tasya": 317,
      "yathā": 318,
      "tad": 319,
      "bra": 320,
      "bhu": 321,
      "deva": 322,
      "yat": 323,
      "samā": 324,
      "tri": 325,
      "śe": 326,
      "daṃ": 327,
      "tma": 328,
      "ṇaṃ": 329,
      "tyā": 330,
      "laṃ": 331,
      "yi": 332,
      "para": 333,
      "vyā": 334,
      "stu": 335,
      "kh": 336,
      "kra": 337,
      "go": 338,
      "kṣi": 339,
      "syā": 340,
      "kaṃ": 341,
      "ṅga": 342,
      "sat": 343,
      "has": 344,
      "nama": 345,
      "ṇe": 346,
      "dī": 347,
      "sama": 348,
      "śo": 349,
      "pṛ": 350,
      "prati": 351,
      "hṛ": 352,
      "vān": 353,
      "a̱": 354,
      "gra": 355,
      "sam": 356,
      "pū": 357,
      "pe": 358,
      "gha": 359,
      "kar": 360,
      "bho": 361,
      "tvaṃ": 362,
      "ndra": 363,
      "dya": 364,
      "kal": 365,
      "brah": 366,
      "thi": 367,
      "dvi": 368,
      "vaṃ": 369,
      "ṇo": 370,
      "rya": 371,
      "ṣi": 372,
      "pūr": 373,
      "iti": 374,
      "se": 375,
      "kam": 376,
      "bā": 377,
      "ccha": 378,
      "nya": 379,
      "ṇī": 380,
      "ṇḍa": 381,
      "dra": 382,
      "hī": 383,
      "madh": 384,
      "bo": 385,
      "tena": 386,
      "kti": 387,
      "sta": 388,
      "ṭa": 389,
      "nda": 390,
      "paś": 391,
      "ndha": 392,
      "ñca": 393,
      "gṛ": 394,
      "yati": 395,
      "kāra": 396,
      "vid": 397,
      "̍ḥ": 398,
      "maṃ": 399,
      "ce": 400,
      "dhe": 401,
      "tām": 402,
      "yet": 403,
      "bhe": 404,
      "dharma": 405,
      "sū": 406,
      "ty": 407,
      "yad": 408,
      "van": 409,
      "lam": 410,
      "pati": 411,
      "dar": 412,
      "bhiḥ": 413,
      "dhī": 414,
      "kṣā": 415,
      "jaga": 416,
      "vat": 417,
      "viṣ": 418,
      "vaḥ": 419,
      "nām": 420,
      "sthā": 421,
      "ṣṭha": 422,
      "jī": 423,
      "cit": 424,
      "pha": 425,
      "ṇam": 426,
      "̍m": 427,
      "kta": 428,
      "gi": 429,
      "sī": 430,
      "śī": 431,
      "ge": 432,
      "bhave": 433,
      "tṛ": 434,
      "ddhi": 435,
      "parā": 436,
      "ryā": 437,
      "tatra": 438,
      "sau": 439,
      "do": 440,
      "kaḥ": 441,
      "ṇu": 442,
      "jña": 443,
      "rat": 444,
      "kī": 445,
      "śra": 446,
      "api": 447,
      "brahma": 448,
      "rāja": 449,
      "vra": 450,
      "̱r": 451,
      "ṇāṃ": 452,
      "ṇaḥ": 453,
      "khā": 454,
      "daśa": 455,
      "ṣṭā": 456,
      "par": 457,
      "tava": 458,
      "reṇa": 459,
      "san": 460,
      "nṛ": 461,
      "kiṃ": 462,
      "kara": 463,
      "̱m": 464,
      "upa": 465,
      "tan": 466,
      "saḥ": 467,
      "hya": 468,
      "pta": 469,
      "samu": 470,
      "śru": 471,
      "po": 472,
      "maḥ": 473,
      "bhir": 474,
      "tān": 475,
      "pī": 476,
      "̱ṁ": 477,
      "ham": 478,
      "sma": 479,
      "dhyā": 480,
      "ddhā": 481,
      "rūpa": 482,
      "va̍": 483,
      "vara": 484,
      "sti": 485,
      "traṃ": 486,
      "tmā": 487,
      "anu": 488,
      "lī": 489,
      "maha": 490,
      "nāma": 491,
      "śaṃ": 492,
      "caiva": 493,
      "dho": 494,
      "sarve": 495,
      "kṣe": 496,
      "nyā": 497,
      "karma": 498,
      "kva": 499,
      "pya": 500,
      "svā": 501,
      "jana": 502,
      "loka": 503,
      "duḥ": 504,
      "̍ṁ": 505,
      "mama": 506,
      "mān": 507,
      "vaj": 508,
      "māṃ": 509,
      "catu": 510,
      "pat": 511,
      "ag": 512,
      "va̱": 513,
      "saha": 514,
      "yena": 515,
      "thaṃ": 516,
      "ṣe": 517,
      "dam": 518,
      "sadā": 519,
      "bhāva": 520,
      "yuk": 521,
      "māna": 522,
      "khyā": 523,
      "bhaga": 524,
      "dhar": 525,
      "tiḥ": 526,
      "a̍": 527,
      "smi": 528,
      "śrī": 529,
      "bhī": 530,
      "mī": 531,
      "rt": 532,
      "yāḥ": 533,
      "dhu": 534,
      "ma̱": 535,
      "tadā": 536,
      "sarvā": 537,
      "ṣāṃ": 538,
      "gh": 539,
      "sṛ": 540,
      "viś": 541,
      "evaṃ": 542,
      "yasya": 543,
      "pri": 544,
      "je": 545,
      "mana": 546,
      "sa̱": 547,
      "mam": 548,
      "bodhi": 549,
      "tau": 550,
      "pad": 551,
      "māt": 552,
      "tataḥ": 553,
      "co": 554,
      "an": 555,
      "pañca": 556,
      "ind": 557,
      "dur": 558,
      "muk": 559,
      "sahas": 560,
      "namo": 561,
      "tato": 562,
      "dṛṣṭ": 563,
      "dva": 564,
      "devā": 565,
      "buddha": 566,
      "yām": 567,
      "ḍa": 568,
      "kṣu": 569,
      "darśa": 570,
      "dvā": 571,
      "puna": 572,
      "mayā": 573,
      "ya̱": 574,
      "tir": 575,
      "kalpa": 576,
      "pan": 577,
      "cara": 578,
      "u̱": 579,
      "śū": 580,
      "mū": 581,
      "dyā": 582,
      "ar": 583,
      "yāmi": 584,
      "bhṛ": 585,
      "nena": 586,
      "ṇya": 587,
      "tre": 588,
      "ṣo": 589,
      "drā": 590,
      "puru": 591,
      "viśva": 592,
      "viṣa": 593,
      "mya": 594,
      "vṛt": 595,
      "kīr": 596,
      "gī": 597,
      "śaḥ": 598,
      "dhva": 599,
      "guṇa": 600,
      "prāp": 601,
      "śṛ": 602,
      "khi": 603,
      "nara": 604,
      "jo": 605,
      "grā": 606,
      "yamā": 607,
      "varta": 608,
      "vāca": 609,
      "smṛ": 610,
      "śara": 611,
      "indra": 612,
      "ghā": 613,
      "abhi": 614,
      "gho": 615,
      "vi̱": 616,
      "nātha": 617,
      "bhya": 618,
      "tāni": 619,
      "ivā": 620,
      "ste": 621,
      "ut": 622,
      "̍r": 623,
      "mār": 624,
      "jan": 625,
      "puṣ": 626,
      "yanti": 627,
      "tvam": 628,
      "ṭi": 629,
      "jñāna": 630,
      "bahu": 631,
      "sura": 632,
      "kṛtvā": 633,
      "bhavet": 634,
      "śeṣa": 635,
      "daḥ": 636,
      "kṛṣ": 637,
      "ntā": 638,
      "jñe": 639,
      "tuṃ": 640,
      "ñja": 641,
      "dhṛ": 642,
      "vaca": 643,
      "eka": 644,
      "kṛta": 645,
      "ju": 646,
      "bi": 647,
      "śri": 648,
      "pre": 649,
      "ṣṭhā": 650,
      "bala": 651,
      "sūr": 652,
      "niḥ": 653,
      "de̱": 654,
      "rāḥ": 655,
      "namā": 656,
      "loke": 657,
      "su̱": 658,
      "rthaṃ": 659,
      "mat": 660,
      "gar": 661,
      "kri": 662,
      "tiṃ": 663,
      "vinā": 664,
      "lakṣa": 665,
      "sukha": 666,
      "vajra": 667,
      "tyaṃ": 668,
      "cchā": 669,
      "pro": 670,
      "rājā": 671,
      "ṅgā": 672,
      "nava": 673,
      "namaḥ": 674,
      "niṣ": 675,
      "pāda": 676,
      "kya": 677,
      "mar": 678,
      "dhya": 679,
      "mano": 680,
      "śiva": 681,
      "iś": 682,
      "cid": 683,
      "hari": 684,
      "yū": 685,
      "lakṣ": 686,
      "ira": 687,
      "dū": 688,
      "punaḥ": 689,
      "ava": 690,
      "dakṣi": 691,
      "it": 692,
      "hat": 693,
      "kāla": 694,
      "̱ḥ": 695,
      "devī": 696,
      "yadi": 697,
      "kala": 698,
      "rva": 699,
      "ana": 700,
      "putra": 701,
      "vad": 702,
      "tapa": 703,
      "yāt": 704,
      "tiṣṭha": 705,
      "guru": 706,
      "veda": 707,
      "./": 708,
      "bhra": 709,
      "janā": 710,
      "ṇām": 711,
      "sara": 712,
      "stha": 713,
      "tara": 714,
      "nna": 715,
      "mahe": 716,
      "ktā": 717,
      "ṣṭi": 718,
      "pūrva": 719,
      "ya̍": 720,
      "hara": 721,
      "rān": 722,
      "lu": 723,
      "cca": 724,
      "kāḥ": 725,
      "sarvaṃ": 726,
      "idaṃ": 727,
      "vā̍": 728,
      "atha": 729,
      "smā": 730,
      "karo": 731,
      "yān": 732,
      "rāma": 733,
      "śam": 734,
      "mukha": 735,
      "tum": 736,
      "sp": 737,
      "yatra": 738,
      "dhū": 739,
      "yoga": 740,
      "vāsa": 741,
      "prajā": 742,
      "mantra": 743,
      "manu": 744,
      "dat": 745,
      "gandha": 746,
      "kṣī": 747,
      "mūr": 748,
      "sapta": 749,
      "madhu": 750,
      "hy": 751,
      "śak": 752,
      "maṇḍa": 753,
      "sāra": 754,
      "ma̍": 755,
      "nn": 756,
      "gata": 757,
      "śakti": 758,
      "̱ta": 759,
      "py": 760,
      "bhūta": 761,
      "ud": 762,
      "stā": 763,
      "tve": 764,
      "vana": 765,
      "kṣo": 766,
      "rāva": 767,
      "śata": 768,
      "bhara": 769,
      "vidhā": 770,
      "sattvā": 771,
      "hū": 772,
      "vada": 773,
      "meva": 774,
      "yama": 775,
      "vidyā": 776,
      "ṭā": 777,
      "dṛṣṭvā": 778,
      "vyaṃ": 779,
      "bhavati": 780,
      "sattva": 781,
      "nityaṃ": 782,
      "vidha": 783,
      "cyate": 784,
      "gni": 785,
      "vidhi": 786,
      "rāya": 787,
      "kāma": 788,
      "kār": 789,
      "dāna": 790,
      "pratya": 791,
      "ika": 792,
      "vā̱": 793,
      "tasyā": 794,
      "paṃ": 795,
      "tro": 796,
      "tv": 797,
      "ṃśa": 798,
      "nte": 799,
      "vam": 800,
      "duḥkha": 801,
      "tyu": 802,
      "yata": 803,
      "sādha": 804,
      "tatha": 805,
      "bhaviṣ": 806,
      "ātma": 807,
      "śab": 808,
      "śubha": 809,
      "i̱": 810,
      "prabhā": 811,
      "yau": 812,
      "namas": 813,
      "jaḥ": 814,
      "rāh": 815,
      "nau": 816,
      "catur": 817,
      "jya": 818,
      "ahaṃ": 819,
      "tada": 820,
      "ṅka": 821,
      "siddhi": 822,
      "han": 823,
      "katha": 824,
      "sāṃ": 825,
      "brāh": 826,
      "gaccha": 827,
      "tur": 828,
      "tvayā": 829,
      "kim": 830,
      "varā": 831,
      "bṛ": 832,
      "bhyo": 833,
      "nāt": 834,
      "adhi": 835,
      "ktaṃ": 836,
      "utta": 837,
      "gatā": 838,
      "praṇa": 839,
      "cin": 840,
      "dhāra": 841,
      "mai": 842,
      "śre": 843,
      "pitā": 844,
      "Bhat": 845,
      "rakṣa": 846,
      "pate": 847,
      "vāk": 848,
      "Bhatt": 849,
      "rṣa": 850,
      "cī": 851,
      "jaṃ": 852,
      "purā": 853,
      "bī": 854,
      "bhrā": 855,
      "cāpi": 856,
      "rūpā": 857,
      "kau": 858,
      "anta": 859,
      "teṣāṃ": 860,
      "kuru": 861,
      "bhakti": 862,
      "bravī": 863,
      "vak": 864,
      "bhyāṃ": 865,
      "śuddha": 866,
      "stra": 867,
      "rākṣa": 868,
      "hitā": 869,
      "devi": 870,
      "pṛthi": 871,
      "kathaṃ": 872,
      "prī": 873,
      "haḥ": 874,
      "gam": 875,
      "yante": 876,
      "apa": 877,
      "pura": 878,
      "nāḥ": 879,
      "sad": 880,
      "bodha": 881,
      "ṣṭaṃ": 882,
      "viṣṇu": 883,
      "punar": 884,
      "yadā": 885,
      "siddha": 886,
      "taiḥ": 887,
      "mahi": 888,
      "phala": 889,
      "ity": 890,
      "tim": 891,
      "guṇā": 892,
      "dharmā": 893,
      "ban": 894,
      "yī": 895,
      "svar": 896,
      "ratna": 897,
      "tasmi": 898,
      "ratha": 899,
      "sthitaḥ": 900,
      "mala": 901,
      "ṣaṃ": 902,
      "siṃ": 903,
      "brahmā": 904,
      "yoḥ": 905,
      "nanda": 906,
      "sto": 907,
      "pramā": 908,
      "nira": 909,
      "khe": 910,
      "nāya": 911,
      "nitya": 912,
      "bhavā": 913,
      "paraṃ": 914,
      "bandha": 915,
      "vyava": 916,
      "paḥ": 917,
      "pār": 918,
      "deve": 919,
      "cche": 920,
      "brāhma": 921,
      "kū": 922,
      "yor": 923,
      "sahasra": 924,
      "pada": 925,
      "snā": 926,
      "śya": 927,
      "nai": 928,
      "ta̱": 929,
      "tama": 930,
      "tasmā": 931,
      "--": 932,
      "śarī": 933,
      "śvara": 934,
      "nān": 935,
      "saṅ": 936,
      "param": 937,
      "hyā": 938,
      "kīrti": 939,
      "kṛtā": 940,
      "kro": 941,
      "varu": 942,
      "māyā": 943,
      "laḥ": 944,
      "jagat": 945,
      "ghṛ": 946,
      "upā": 947,
      "kasya": 948,
      "yase": 949,
      "trī": 950,
      "cāra": 951,
      "tar": 952,
      "jam": 953,
      "aś": 954,
      "ur": 955,
      "ṭha": 956,
      "dhaṃ": 957,
      "kāṃ": 958,
      "kena": 959,
      "gaṃ": 960,
      "pratha": 961,
      "ṇena": 962,
      "rasā": 963,
      "kalā": 964,
      "bhaṃ": 965,
      "kṛtaṃ": 966,
      "tīr": 967,
      "te̱": 968,
      "jāyate": 969,
      "rāṃ": 970,
      "yur": 971,
      "yitvā": 972,
      "ntu": 973,
      "ḍā": 974,
      "ṣī": 975,
      "puṇ": 976,
      "tayā": 977,
      "cha": 978,
      "ta̍": 979,
      "deśa": 980,
      "̱d": 981,
      "kān": 982,
      "pāpa": 983,
      "ra̱": 984,
      "bhāvā": 985,
      "mahī": 986,
      "ṣya": 987,
      "pūja": 988,
      "sphu": 989,
      "̱tā": 990,
      "hṛda": 991,
      "jva": 992,
      "kṛt": 993,
      "pa̱": 994,
      "cak": 995,
      "prakā": 996,
      "śaṅ": 997,
      "ṣv": 998,
      "vasu": 999,
      "vatī": 1000,
      "rasa": 1001,
      "smin": 1002,
      "cakra": 1003,
      "dai": 1004,
      "yaś": 1005,
      "padā": 1006,
      "rāṇi": 1007,
      "pāta": 1008,
      "namāmi": 1009,
      "saman": 1010,
      "rūpaṃ": 1011,
      "hāra": 1012,
      "śrutvā": 1013,
      "gataḥ": 1014,
      "bud": 1015,
      "māḥ": 1016,
      "iha": 1017,
      "vyo": 1018,
      "hita": 1019,
      "nānā": 1020,
      "yed": 1021,
      "cai": 1022,
      "mām": 1023,
      "yāti": 1024,
      "pravi": 1025,
      "dṛś": 1026,
      "kle": 1027,
      "kaṇ": 1028,
      "stri": 1029,
      "pāra": 1030,
      "dru": 1031,
      "daśā": 1032,
      "ati": 1033,
      "nan": 1034,
      "rāt": 1035,
      "buddhi": 1036,
      "padma": 1037,
      "sa̍": 1038,
      "śat": 1039,
      "citta": 1040,
      "uk": 1041,
      "ḍha": 1042,
      "mau": 1043,
      "ṣaḥ": 1044,
      "is": 1045,
      "bhūmi": 1046,
      "spṛ": 1047,
      "taś": 1048,
      "di̱": 1049,
      "pāla": 1050,
      "lena": 1051,
      "dyu": 1052,
      "ātmā": 1053,
      "ca̱": 1054,
      "labha": 1055,
      "tuḥ": 1056,
      "evā": 1057,
      "eṣa": 1058,
      "care": 1059,
      "tānāṃ": 1060,
      "ścaiva": 1061,
      "sya̱": 1062,
      "varṇa": 1063,
      "madhye": 1064,
      "ha̱": 1065,
      "ndri": 1066,
      "syāt": 1067,
      "parva": 1068,
      "jyo": 1069,
      "naiva": 1070,
      "trai": 1071,
      "ṣva": 1072,
      "jala": 1073,
      "mit": 1074,
      "śān": 1075,
      "rthe": 1076,
      "śṛṇu": 1077,
      "sada": 1078,
      "dāya": 1079,
      "vāṃ": 1080,
      "gan": 1081,
      "dau": 1082,
      "evam": 1083,
      "āsa": 1084,
      "candra": 1085,
      "māra": 1086,
      "ceta": 1087,
      "lokya": 1088,
      "nas": 1089,
      "nāga": 1090,
      "nirā": 1091,
      "jīva": 1092,
      "asi": 1093,
      "na̱": 1094,
      "ja̍": 1095,
      "graha": 1096,
      "paramā": 1097,
      "dhara": 1098,
      "kuryā": 1099,
      "balā": 1100,
      "koṭi": 1101,
      "tvāṃ": 1102,
      "uvāca": 1103,
      "ṅgu": 1104,
      "prasā": 1105,
      "i̍": 1106,
      "teṣu": 1107,
      "yā̍": 1108,
      "naya": 1109,
      "janma": 1110,
      "lab": 1111,
      "yuḥ": 1112,
      "bhagavān": 1113,
      "cana": 1114,
      "kṛṣṇa": 1115,
      "muni": 1116,
      "jñānaṃ": 1117,
      "dve": 1118,
      "vira": 1119,
      "bhyaḥ": 1120,
      "kṣya": 1121,
      "mba": 1122,
      "tattva": 1123,
      "gataṃ": 1124,
      "rud": 1125,
      "vṛṣa": 1126,
      "soma": 1127,
      "vartate": 1128,
      "dhvaṃ": 1129,
      "bravīt": 1130,
      "kadā": 1131,
      "mānā": 1132,
      "satya": 1133,
      "bhūṣi": 1134,
      "nāśa": 1135,
      "prabhu": 1136,
      "surā": 1137,
      "kriyā": 1138,
      "chi": 1139,
      "ran": 1140,
      "gaṇa": 1141,
      "pratī": 1142,
      "mokṣa": 1143,
      "vasa": 1144,
      "kaś": 1145,
      "maṇi": 1146,
      "yāma": 1147,
      "varji": 1148,
      "tram": 1149,
      "vardha": 1150,
      "ṭe": 1151,
      "buddhā": 1152,
      "yajña": 1153,
      "kula": 1154,
      "ttama": 1155,
      "sthitā": 1156,
      "agne": 1157,
      "vāḥ": 1158,
      "karu": 1159,
      "lya": 1160,
      "tye": 1161,
      "gama": 1162,
      "nāni": 1163,
      "pita": 1164,
      "puṇya": 1165,
      "strī": 1166,
      "hyaṃ": 1167,
      "pata": 1168,
      "khya": 1169,
      "ptā": 1170,
      "putrā": 1171,
      "samud": 1172,
      "ādi": 1173,
      "nād": 1174,
      "lokā": 1175,
      "patiḥ": 1176,
      "da̍": 1177,
      "sām": 1178,
      "bhar": 1179,
      "avi": 1180,
      "saṃśa": 1181,
      "mahātma": 1182,
      "etad": 1183,
      "ti̱": 1184,
      "bhak": 1185,
      "ṣṭo": 1186,
      "svayaṃ": 1187,
      "tasmāt": 1188,
      "bāhu": 1189,
      "gena": 1190,
      "vane": 1191,
      "dhvā": 1192,
      "bhāga": 1193,
      "aho": 1194,
      "tatas": 1195,
      "yogi": 1196,
      "kur": 1197,
      "kuśa": 1198,
      "̍ta": 1199,
      "cakṣu": 1200,
      "dhaḥ": 1201,
      "tvat": 1202,
      "stathā": 1203,
      "pade": 1204,
      "śvaraḥ": 1205,
      "madhya": 1206,
      "grī": 1207,
      "yād": 1208,
      ".//": 1209,
      "cinta": 1210,
      "varṣa": 1211,
      "sra": 1212,
      "ska": 1213,
      "bhaira": 1214,
      "vena": 1215,
      "cchi": 1216,
      "etat": 1217,
      "ndrā": 1218,
      "krā": 1219,
      "nye": 1220,
      "mṛtyu": 1221,
      "puṣpa": 1222,
      "anā": 1223,
      "ṣṭhi": 1224,
      "tair": 1225,
      "nasya": 1226,
      "sata": 1227,
      "vitā": 1228,
      "tāra": 1229,
      "sāga": 1230,
      "gau": 1231,
      "uda": 1232,
      "ścā": 1233,
      "manaḥ": 1234,
      "viśeṣa": 1235,
      "jaya": 1236,
      "rthā": 1237,
      "yaṁ": 1238,
      "vini": 1239,
      "ṇāḥ": 1240,
      "mānu": 1241,
      "citra": 1242,
      "aham": 1243,
      "maho": 1244,
      "teja": 1245,
      "kāle": 1246,
      "rāj": 1247,
      "kāya": 1248,
      "dhru": 1249,
      "devo": 1250,
      "tvāt": 1251,
      "jño": 1252,
      "bhau": 1253,
      "ṣṭhe": 1254,
      "ṇḍi": 1255,
      "ṅgaṃ": 1256,
      "lakṣma": 1257,
      "ntaṃ": 1258,
      "kari": 1259,
      "veśa": 1260,
      "vīra": 1261,
      "tasyai": 1262,
      "karā": 1263,
      "pradā": 1264,
      "mukti": 1265,
      "tasmin": 1266,
      "gne": 1267,
      "vakṣ": 1268,
      "cari": 1269,
      "rā̱": 1270,
      "pūjā": 1271,
      "mbha": 1272,
      "padaṃ": 1273,
      "vṛ̱": 1274,
      "khī": 1275,
      "krama": 1276,
      "gṛhī": 1277,
      "ñcā": 1278,
      "pare": 1279,
      "ca̍": 1280,
      "jāna": 1281,
      "nū": 1282,
      "cch": 1283,
      "vatsa": 1284,
      "tathaiva": 1285,
      "mara": 1286,
      "pau": 1287,
      "vāha": 1288,
      "divya": 1289,
      "ṣyati": 1290,
      "vādi": 1291,
      "ṣām": 1292,
      "pṛtha": 1293,
      "lla": 1294,
      "ryaṃ": 1295,
      "pa̍": 1296,
      "pūra": 1297,
      "gaḥ": 1298,
      "ye̍": 1299,
      "yoja": 1300,
      "nīṃ": 1301,
      "atra": 1302,
      "athā": 1303,
      "devaṃ": 1304,
      "asya": 1305,
      "cya": 1306,
      "bhaya": 1307,
      "sarvān": 1308,
      "nāsti": 1309,
      "miti": 1310,
      "yāva": 1311,
      "vāri": 1312,
      "vit": 1313,
      "saṃsāra": 1314,
      "giri": 1315,
      "puruṣa": 1316,
      "cu": 1317,
      "tanu": 1318,
      "kas": 1319,
      "sukhā": 1320,
      "ṇān": 1321,
      "rīṃ": 1322,
      "tho": 1323,
      "cittaṃ": 1324,
      "mapi": 1325,
      "rāgha": 1326,
      "bhagavan": 1327,
      "̍n": 1328,
      "no̱": 1329,
      "namaste": 1330,
      "śro": 1331,
      "mada": 1332,
      "vāna": 1333,
      "vipra": 1334,
      "bhāra": 1335,
      "a̱bhi": 1336,
      "krī": 1337,
      "̱n": 1338,
      "ṇḍā": 1339,
      "samya": 1340,
      "paśya": 1341,
      "anya": 1342,
      "rā̍": 1343,
      "yo̱": 1344,
      "parama": 1345,
      "bheda": 1346,
      "ā̱": 1347,
      "ṣṭu": 1348,
      "ve̍": 1349,
      "bhavat": 1350,
      "gṛh": 1351,
      "yuktaṃ": 1352,
      "raṇa": 1353,
      "rasya": 1354,
      "tai": 1355,
      "gati": 1356,
      "ṣaṭ": 1357,
      "kāri": 1358,
      "yogā": 1359,
      "no̍": 1360,
      "ḍi": 1361,
      "to̱": 1362,
      "tamo": 1363,
      "tīṃ": 1364,
      "vāpi": 1365,
      "śai": 1366,
      "prakṛ": 1367,
      "ṇasya": 1368,
      "rūpe": 1369,
      "sthitam": 1370,
      "phalaṃ": 1371,
      "sūrya": 1372,
      "ṣyāmi": 1373,
      "naiḥ": 1374,
      "svap": 1375,
      "nīm": 1376,
      "dīr": 1377,
      "bhaḥ": 1378,
      "mukta": 1379,
      "viṣā": 1380,
      "nāra": 1381,
      "kṛtam": 1382,
      "karta": 1383,
      "bhaviṣyati": 1384,
      "as": 1385,
      "ṛ̱": 1386,
      "ṣṇa": 1387,
      "dhātu": 1388,
      "kṣaṃ": 1389,
      "jāta": 1390,
      "indu": 1391,
      "ṭī": 1392,
      "pu̱": 1393,
      "śāsa": 1394,
      "śivā": 1395,
      "vi̍": 1396,
      "yeṣu": 1397,
      "samī": 1398,
      "ści": 1399,
      "nanta": 1400,
      "bhūtā": 1401,
      "ekā": 1402,
      "naś": 1403,
      "viśa": 1404,
      "lava": 1405,
      "śānta": 1406,
      "noti": 1407,
      "dvitī": 1408,
      "paścā": 1409,
      "ddhe": 1410,
      "cāri": 1411,
      "tatrā": 1412,
      "parame": 1413,
      "kṣetra": 1414,
      "mātra": 1415,
      "yu̱": 1416,
      "jīvi": 1417,
      "vāp": 1418,
      "gato": 1419,
      "ayaṃ": 1420,
      "hitaṃ": 1421,
      "pūrvaṃ": 1422,
      "astu": 1423,
      "m̐": 1424,
      "yasyā": 1425,
      "rṇa": 1426,
      "nāpi": 1427,
      "yeta": 1428,
      "meṇa": 1429,
      "pṛthivī": 1430,
      "ṅgi": 1431,
      "sādhu": 1432,
      "ndu": 1433,
      "tasmai": 1434,
      "vidyate": 1435,
      "idam": 1436,
      "vapu": 1437,
      "yāmā": 1438,
      "yāni": 1439,
      "daṇḍa": 1440,
      "tasmād": 1441,
      "tū": 1442,
      "hare": 1443,
      "parya": 1444,
      "gatvā": 1445,
      "dhana": 1446,
      "ṇāt": 1447,
      "babhū": 1448,
      "rūpi": 1449,
      "sthitāḥ": 1450,
      "namastasyai": 1451,
      "rdha": 1452,
      "mayi": 1453,
      "hetu": 1454,
      "śubhā": 1455,
      "viṃśa": 1456,
      "munī": 1457,
      "har": 1458,
      "kai": 1459,
      "tā̍": 1460,
      "saṃs": 1461,
      "mahat": 1462,
      "samanvi": 1463,
      "e̱": 1464,
      "vas": 1465,
      "paṭ": 1466,
      "hira": 1467,
      "mṛta": 1468,
      "so̱": 1469,
      "agni": 1470,
      "ad": 1471,
      "dvī": 1472,
      "bhyā": 1473,
      "mi̱": 1474,
      "varti": 1475,
      "karmā": 1476,
      "dan": 1477,
      "mātā": 1478,
      "mānaṃ": 1479,
      "nābhi": 1480,
      "mitā": 1481,
      "jina": 1482,
      "śve": 1483,
      "prabho": 1484,
      "deha": 1485,
      "tsa": 1486,
      "ṃs": 1487,
      "vāsi": 1488,
      "kaiḥ": 1489,
      "dena": 1490,
      "sarvatra": 1491,
      "vah": 1492,
      "pakṣa": 1493,
      "hitaḥ": 1494,
      "rudra": 1495,
      "kṛte": 1496,
      "sarvadā": 1497,
      "vo̱": 1498,
      "samādhi": 1499,
      "rau": 1500,
      "na̍": 1501,
      "karaṃ": 1502,
      "kathi": 1503,
      "sva̱": 1504,
      "tac": 1505,
      "viśe": 1506,
      "bhadra": 1507,
      "yeva": 1508,
      "pāya": 1509,
      "lita": 1510,
      "phalā": 1511,
      "pitṛ": 1512,
      "rthaḥ": 1513,
      "oṣa": 1514,
      "raś": 1515,
      "narā": 1516,
      "bhavanti": 1517,
      "adya": 1518,
      "ktvā": 1519,
      "āga": 1520,
      "padam": 1521,
      "māta": 1522,
      "ṣṭe": 1523,
      "ttamam": 1524,
      "dṛṣṭa": 1525,
      "nirvṛ": 1526,
      "pūrṇa": 1527,
      "siṃha": 1528,
      "apy": 1529,
      "chā": 1530,
      "ghu": 1531,
      "hva": 1532,
      "rama": 1533,
      "niśca": 1534,
      "pra̱": 1535,
      "laṅ": 1536,
      "bhad": 1537,
      "paśyan": 1538,
      "māni": 1539,
      "jagā": 1540,
      "kṛtya": 1541,
      "baddha": 1542,
      "svayam": 1543,
      "śena": 1544,
      "syād": 1545,
      "maru": 1546,
      "tāpa": 1547,
      "mukhā": 1548,
      "bhi̱r": 1549,
      "tvām": 1550,
      "kleśa": 1551,
      "yayau": 1552,
      "pravṛt": 1553,
      "kāśa": 1554,
      "̱ra": 1555,
      "yāya": 1556,
      "niya": 1557,
      "bham": 1558,
      "kalyā": 1559,
      "jja": 1560,
      "paraḥ": 1561,
      "nārāya": 1562,
      "śuci": 1563,
      "bhuva": 1564,
      "nṛpa": 1565,
      "yānti": 1566,
      "vinir": 1567,
      "nādi": 1568,
      "yoni": 1569,
      "rtho": 1570,
      "loca": 1571,
      "myaham": 1572,
      "ny": 1573,
      "ḍhā": 1574,
      "vastu": 1575,
      "sakala": 1576,
      "mā̱": 1577,
      "dharā": 1578,
      "mune": 1579,
      "jāḥ": 1580,
      "samanta": 1581,
      "samut": 1582,
      "de̱vā": 1583,
      "dag": 1584,
      "nā̱": 1585,
      "bhaja": 1586,
      "ro̍": 1587,
      "dhāna": 1588,
      "vīrya": 1589,
      "sukhaṃ": 1590,
      "karoti": 1591,
      "the": 1592,
      "u̍": 1593,
      "mati": 1594,
      "ṣaḍ": 1595,
      "bhi̍r": 1596,
      "brū": 1597,
      "mālā": 1598,
      "nāti": 1599,
      "prasa": 1600,
      "bhāṣa": 1601,
      "rati": 1602,
      "viśā": 1603,
      "bhavan": 1604,
      "doṣa": 1605,
      "sā̱": 1606,
      "lāḥ": 1607,
      "vacanaṃ": 1608,
      "cyu": 1609,
      "̍ṇa": 1610,
      "hati": 1611,
      "mamā": 1612,
      "kama": 1613,
      "kāmā": 1614,
      "dāra": 1615,
      "prāṇa": 1616,
      "liṅga": 1617,
      "vo̍": 1618,
      "mārga": 1619,
      "ani": 1620,
      "vāma": 1621,
      "nā̍": 1622,
      "śama": 1623,
      "prajñā": 1624,
      "bhūtvā": 1625,
      "dhena": 1626,
      "viśvā": 1627,
      "vin": 1628,
      "rāga": 1629,
      "tās": 1630,
      "kārā": 1631,
      "saṃyu": 1632,
      "siddhā": 1633,
      "kusu": 1634,
      "mahān": 1635,
      "apā": 1636,
      "mbu": 1637,
      "sai": 1638,
      "saṃni": 1639,
      "hur": 1640,
      "bhoga": 1641,
      "patir": 1642,
      "śvā": 1643,
      "vayaṃ": 1644,
      "vāra": 1645,
      "dāṃ": 1646,
      "tvad": 1647,
      "priye": 1648,
      "gya": 1649,
      "kru": 1650,
      "tā̱": 1651,
      "te̍": 1652,
      "puro": 1653,
      "bhāvi": 1654,
      "vṛtta": 1655,
      "sūkṣ": 1656,
      "āsī": 1657,
      "raja": 1658,
      "kaṭa": 1659,
      "bhavān": 1660,
      "tvayi": 1661,
      "huḥ": 1662,
      "moha": 1663,
      "karṣa": 1664,
      "bāla": 1665,
      "manasā": 1666,
      "hye": 1667,
      "kto": 1668,
      "vijñā": 1669,
      "dadā": 1670,
      "dadhi": 1671,
      "nirma": 1672,
      "vedā": 1673,
      "satataṃ": 1674,
      "abravīt": 1675,
      "lpa": 1676,
      "name": 1677,
      "nāva": 1678,
      "jane": 1679,
      "dhāya": 1680,
      "svabhāva": 1681,
      "ntare": 1682,
      "saṃśayaḥ": 1683,
      "ṣyate": 1684,
      "ka̱": 1685,
      "tāt": 1686,
      "vṛkṣa": 1687,
      "nirvā": 1688,
      "dhīḥ": 1689,
      "iśca": 1690,
      "ṣyā": 1691,
      "tana": 1692,
      "vasya": 1693,
      "yā̱": 1694,
      "pūji": 1695,
      "asa": 1696,
      "kapi": 1697,
      "bhyaṃ": 1698,
      "kāraṃ": 1699,
      "ṣṭhaṃ": 1700,
      "saṃsā": 1701,
      "bahi": 1702,
      "śuk": 1703,
      "keśa": 1704,
      "dvija": 1705,
      "yac": 1706,
      "rakta": 1707,
      "dadyā": 1708,
      "jani": 1709,
      "dhau": 1710,
      "ṣoḍa": 1711,
      "akṣa": 1712,
      "keva": 1713,
      "āyu": 1714,
      "ha̍": 1715,
      "paro": 1716,
      "saṃpra": 1717,
      "sthe": 1718,
      "priya": 1719,
      "śabda": 1720,
      "dyo": 1721,
      "mupa": 1722,
      "bhin": 1723,
      "tṛtī": 1724,
      "smara": 1725,
      "kāryaṃ": 1726,
      "bhaktyā": 1727,
      "pañcā": 1728,
      "tāva": 1729,
      "śas": 1730,
      "sarvam": 1731,
      "prāpya": 1732,
      "vy": 1733,
      "śrā": 1734,
      "ṃś": 1735,
      "mad": 1736,
      "tāna": 1737,
      "gate": 1738,
      "ni̱": 1739,
      "niru": 1740,
      "ṇau": 1741,
      "yasmi": 1742,
      "ptaṃ": 1743,
      "ucyate": 1744,
      "pāṇi": 1745,
      "lokaṃ": 1746,
      "bhūṣa": 1747,
      "rtham": 1748,
      "śobha": 1749,
      "u̱ta": 1750,
      "vākyaṃ": 1751,
      "nadī": 1752,
      "hāt": 1753,
      "tāla": 1754,
      "śataṃ": 1755,
      "mitra": 1756,
      "khyaṃ": 1757,
      "satyaṃ": 1758,
      "gṛhya": 1759,
      "sukham": 1760,
      "ddho": 1761,
      "treṇa": 1762,
      "pala": 1763,
      "gaṅgā": 1764,
      "kām": 1765,
      "deśe": 1766,
      "jih": 1767,
      "jinā": 1768,
      "śatru": 1769,
      "bindu": 1770,
      "āha": 1771,
      "bhūtaṃ": 1772,
      "a̱g": 1773,
      "rājan": 1774,
      "vraja": 1775,
      "patti": 1776,
      "kurute": 1777,
      "parī": 1778,
      "yās": 1779,
      "ṇas": 1780,
      "dhanu": 1781,
      "ddhaṃ": 1782,
      "lakṣmī": 1783,
      "tapo": 1784,
      "vaśā": 1785,
      "nair": 1786,
      "mā̍": 1787,
      "kṛ̱": 1788,
      "balaṃ": 1789,
      "ntara": 1790,
      "bru": 1791,
      "yato": 1792,
      "varaṃ": 1793,
      "dehi": 1794,
      "ndo": 1795,
      "trāṇi": 1796,
      "jñaḥ": 1797,
      "viśvaṃ": 1798,
      "vacaḥ": 1799,
      "pārthi": 1800,
      "jvala": 1801,
      "ra̍": 1802,
      "vikalpa": 1803,
      "māya": 1804,
      "nās": 1805,
      "mucyate": 1806,
      "bhagava": 1807,
      "vāyu": 1808,
      "gatam": 1809,
      "ri̍": 1810,
      "divyā": 1811,
      "neka": 1812,
      "ivaṃ": 1813,
      "moda": 1814,
      "..": 1815,
      "vija": 1816,
      "saṃjñā": 1817,
      "mṛga": 1818,
      "ṇḍī": 1819,
      "lamba": 1820,
      "aṣṭa": 1821,
      "th": 1822,
      "śma": 1823,
      "vasi": 1824,
      "praṇi": 1825,
      "sāma": 1826,
      "bhavad": 1827,
      "ttamaḥ": 1828,
      "namāmyaham": 1829,
      "lyā": 1830,
      "spar": 1831,
      "sān": 1832,
      "mena": 1833,
      "śānti": 1834,
      "strā": 1835,
      "gāḥ": 1836,
      "eko": 1837,
      "my": 1838,
      "rakṣā": 1839,
      "nāda": 1840,
      "gatāḥ": 1841,
      "mita": 1842,
      "reṣu": 1843,
      "puṃ": 1844,
      "aśva": 1845,
      "id": 1846,
      "jvā": 1847,
      "sana": 1848,
      "nāmā": 1849,
      "prakīrti": 1850,
      "ṣam": 1851,
      "pāḥ": 1852,
      "pādā": 1853,
      "ditā": 1854,
      "yuga": 1855,
      "śvaram": 1856,
      "kramāt": 1857,
      "samaṃ": 1858,
      "darśi": 1859,
      "kram": 1860,
      "vyam": 1861,
      "śrū": 1862,
      "da̱": 1863,
      "ja̱": 1864,
      "midaṃ": 1865,
      "ditaṃ": 1866,
      "varū": 1867,
      "smṛtaḥ": 1868,
      "dṛśyate": 1869,
      "rūpeṇa": 1870,
      "nyaṃ": 1871,
      "karaḥ": 1872,
      "dadhā": 1873,
      "kārya": 1874,
      "cāru": 1875,
      "duṣ": 1876,
      "cet": 1877,
      "ravi": 1878,
      "vare": 1879,
      "kālaṃ": 1880,
      "dāru": 1881,
      "mudā": 1882,
      "mudrā": 1883,
      "kulā": 1884,
      "hena": 1885,
      "varca": 1886,
      "yuktā": 1887,
      "śaraṇaṃ": 1888,
      "tvo": 1889,
      "ṇy": 1890,
      "yai": 1891,
      "rasaṃ": 1892,
      "yāna": 1893,
      "vipu": 1894,
      "śaya": 1895,
      "bha̍": 1896,
      "tu̱": 1897,
      "pāva": 1898,
      "ruci": 1899,
      "vīta": 1900,
      "jagad": 1901,
      "ṣeṇa": 1902,
      "mūla": 1903,
      "antar": 1904,
      "prabhuḥ": 1905,
      "amṛ": 1906,
      "nma": 1907,
      "tavā": 1908,
      "nātra": 1909,
      "jape": 1910,
      "ndro": 1911,
      "karmaṇā": 1912,
      "sṛja": 1913,
      "naga": 1914,
      "rād": 1915,
      "ṣṭho": 1916,
      "dig": 1917,
      "kuṇḍa": 1918,
      "nopa": 1919,
      "jñātvā": 1920,
      "ṇḍe": 1921,
      "sthito": 1922,
      "paśyati": 1923,
      "be": 1924,
      "jyā": 1925,
      "rthi": 1926,
      "ṅge": 1927,
      "yaccha": 1928,
      "paśu": 1929,
      "teḥ": 1930,
      "gaga": 1931,
      "dhan": 1932,
      "kāro": 1933,
      "saro": 1934,
      "varṇā": 1935,
      "prāpta": 1936,
      "paramaṃ": 1937,
      "dharmaṃ": 1938,
      "karuṇā": 1939,
      "vakṣyāmi": 1940,
      "pṛthak": 1941,
      "ras": 1942,
      "hito": 1943,
      "mādi": 1944,
      "yopa": 1945,
      "khalu": 1946,
      "so̍": 1947,
      "goca": 1948,
      "pratiṣṭhā": 1949,
      "lakṣaṇa": 1950,
      "ai": 1951,
      "dyaṃ": 1952,
      "ete": 1953,
      "rca": 1954,
      "bhayaṃ": 1955,
      "yo̍": 1956,
      "kṣaṇa": 1957,
      "śrava": 1958,
      "devīṃ": 1959,
      "krodha": 1960,
      "jyoti": 1961,
      "ā̍": 1962,
      "hasi": 1963,
      "sadṛ": 1964,
      "hiṃ": 1965,
      "dakṣa": 1966,
      "prasan": 1967,
      "cintā": 1968,
      "ṣṭaḥ": 1969,
      "puruṣā": 1970,
      "dattvā": 1971,
      "ṣṇā": 1972,
      "vina": 1973,
      "kanyā": 1974,
      "ye̱": 1975,
      "dā̱": 1976,
      "kṛtaḥ": 1977,
      "bali": 1978,
      "bhavaḥ": 1979,
      "śobhi": 1980,
      "vande": 1981,
      "tṛp": 1982,
      "dhyāna": 1983,
      "yatāṃ": 1984,
      "rathā": 1985,
      "palā": 1986,
      "dhyate": 1987,
      "yeṇa": 1988,
      "tattvaṃ": 1989,
      "viṣṇo": 1990,
      "khyātaṃ": 1991,
      "jet": 1992,
      "bīja": 1993,
      "adha": 1994,
      "nto": 1995,
      "āp": 1996,
      "taṁ": 1997,
      "viprā": 1998,
      "su̍": 1999,
      "sunda": 2000,
      "ve̱": 2001,
      "gandharva": 2002,
      "vikal": 2003,
      "kṛpā": 2004,
      "jñi": 2005,
      "iśvar": 2006,
      "puṇyaṃ": 2007,
      "tenā": 2008,
      "reva": 2009,
      "muñca": 2010,
      "roca": 2011,
      "stho": 2012,
      "khye": 2013,
      "ṇīṃ": 2014,
      "śūnya": 2015,
      "yogena": 2016,
      "ru̱": 2017,
      "kule": 2018,
      "mantrā": 2019,
      "paści": 2020,
      "ananta": 2021,
      "dīrgha": 2022,
      "avya": 2023,
      "asmā": 2024,
      "vācā": 2025,
      "niśā": 2026,
      "ri̱": 2027,
      "lāṃ": 2028,
      "hema": 2029,
      "nīla": 2030,
      "kila": 2031,
      "ttara": 2032,
      "sena": 2033,
      "::": 2034,
      "apra": 2035,
      "dga": 2036,
      "jyate": 2037,
      "ntī": 2038,
      "vasā": 2039,
      "sahasrāṇi": 2040,
      "labhate": 2041,
      "caret": 2042,
      "babhūva": 2043,
      "atho": 2044,
      "ār": 2045,
      "yada": 2046,
      "tadu": 2047,
      "tale": 2048,
      "paya": 2049,
      "kana": 2050,
      "kathā": 2051,
      "ter": 2052,
      "śa̱": 2053,
      "bhi̍ḥ": 2054,
      "ro̱": 2055,
      "ṇḍu": 2056,
      "bhuvana": 2057,
      "tmanaḥ": 2058,
      "grahā": 2059,
      "phalam": 2060,
      "prakāśa": 2061,
      "asti": 2062,
      "sthaṃ": 2063,
      "śrāva": 2064,
      "ṅku": 2065,
      "kāryā": 2066,
      "sāda": 2067,
      "ditaḥ": 2068,
      "putro": 2069,
      "vīr": 2070,
      "gān": 2071,
      "gṛhe": 2072,
      "sanni": 2073,
      "duḥkhā": 2074,
      "de̱va": 2075,
      "yatha": 2076,
      "yataḥ": 2077,
      "nataḥ": 2078,
      "sanā": 2079,
      "pam": 2080,
      "vibhā": 2081,
      "vijñe": 2082,
      "śau": 2083,
      "dhāri": 2084,
      "kurva": 2085,
      "lok": 2086,
      "tīti": 2087,
      "mahābala": 2088,
      "kiñ": 2089,
      "hṛdi": 2090,
      "cintya": 2091,
      "syo": 2092,
      "tāta": 2093,
      "mitrā": 2094,
      "paras": 2095,
      "sarveṣāṃ": 2096,
      "svāhā": 2097,
      "̱taṁ": 2098,
      "jye": 2099,
      "̍ya": 2100,
      "varam": 2101,
      "harṣa": 2102,
      "sati": 2103,
      "viśu": 2104,
      "tāv": 2105,
      "māno": 2106,
      "cār": 2107,
      "jita": 2108,
      "bhaved": 2109,
      "̍d": 2110,
      "hata": 2111,
      "payet": 2112,
      "vihā": 2113,
      "nija": 2114,
      "bhiś": 2115,
      "ṇād": 2116,
      "bhāvo": 2117,
      "bhāṣi": 2118,
      "kṣamā": 2119,
      "śvaraṃ": 2120,
      "vyāgh": 2121,
      "daśabala": 2122,
      "cchāmi": 2123,
      "gacchati": 2124,
      "uktvā": 2125,
      "mbho": 2126,
      "ṣma": 2127,
      "vanaṃ": 2128,
      "maya": 2129,
      "saṁ": 2130,
      "pavi": 2131,
      "vida": 2132,
      "tārā": 2133,
      "sār": 2134,
      "saṃsthā": 2135,
      "dita": 2136,
      "neṣu": 2137,
      "dharme": 2138,
      "cakre": 2139,
      "agra": 2140,
      "sye": 2141,
      "tyo": 2142,
      "̱ha": 2143,
      "taraṃ": 2144,
      "maṅga": 2145,
      "nane": 2146,
      "vāg": 2147,
      "dayā": 2148,
      "bhyu": 2149,
      "puraṃ": 2150,
      "ntar": 2151,
      "śubhe": 2152,
      "mukhaṃ": 2153,
      "mahātmanaḥ": 2154,
      "vibhu": 2155,
      "sādya": 2156,
      "bhāve": 2157,
      "caraṇa": 2158,
      "kaṇṭ": 2159,
      "jagāma": 2160,
      "ccā": 2161,
      "ntaḥ": 2162,
      "ṛṣi": 2163,
      "catvā": 2164,
      "vivarji": 2165,
      "thaḥ": 2166,
      "bhāvaṃ": 2167,
      "dṛṣṭā": 2168,
      "vrata": 2169,
      "kvacit": 2170,
      "pannaṃ": 2171,
      "garbha": 2172,
      "bṛhas": 2173,
      "yāmāsa": 2174,
      "aṃ": 2175,
      "asyā": 2176,
      "aṅga": 2177,
      "eṣā": 2178,
      "hūr": 2179,
      "iccha": 2180,
      "vanta": 2181,
      "saddha": 2182,
      "vima": 2183,
      "māru": 2184,
      "prayat": 2185,
      "pravartate": 2186,
      "janaṃ": 2187,
      "divā": 2188,
      "devatā": 2189,
      "tvena": 2190,
      "udā": 2191,
      "val": 2192,
      "mataḥ": 2193,
      "rādha": 2194,
      "śaṁ": 2195,
      "rita": 2196,
      "yukta": 2197,
      "śikha": 2198,
      "kṣipra": 2199,
      "gṛhā": 2200,
      "sahasā": 2201,
      "dakṣiṇe": 2202,
      "katham": 2203,
      "śaṅkha": 2204,
      "vahni": 2205,
      "cūr": 2206,
      "gna": 2207,
      "tti": 2208,
      "vala": 2209,
      "sas": 2210,
      "sahā": 2211,
      "yāda": 2212,
      "vila": 2213,
      "kare": 2214,
      "kālā": 2215,
      "diva": 2216,
      "ṇāya": 2217,
      "tvaṁ": 2218,
      "nuyāt": 2219,
      "varṣā": 2220,
      "manda": 2221,
      "nyasya": 2222,
      "viśvā̍": 2223,
      "grāha": 2224,
      "sarasva": 2225,
      "bandhu": 2226,
      "ch": 2227,
      "vaya": 2228,
      "vāya": 2229,
      "carā": 2230,
      "hi̱": 2231,
      "hitam": 2232,
      "nive": 2233,
      "sāḥ": 2234,
      "ṇāni": 2235,
      "jā̱": 2236,
      "vṛtaḥ": 2237,
      "khaḍ": 2238,
      "kuryāt": 2239,
      "iṣa": 2240,
      "ṇyā": 2241,
      "taru": 2242,
      "vati": 2243,
      "vanti": 2244,
      "daiva": 2245,
      "dāt": 2246,
      "cida": 2247,
      "bhūt": 2248,
      "ṣṭam": 2249,
      "bhuja": 2250,
      "gran": 2251,
      "sīda": 2252,
      "ṅgī": 2253,
      "santi": 2254,
      "cala": 2255,
      "rāṣṭ": 2256,
      "daya": 2257,
      "niha": 2258,
      "guro": 2259,
      "guṇo": 2260,
      "pari̍": 2261,
      "sthitaṃ": 2262,
      "śodha": 2263,
      "smai": 2264,
      "ivo": 2265,
      "myaṃ": 2266,
      "rci": 2267,
      "̍na": 2268,
      "vaś": 2269,
      "mātrā": 2270,
      "kṛpa": 2271,
      "bhuvi": 2272,
      "jagan": 2273,
      "svāmi": 2274,
      "śrīmān": 2275,
      "itya": 2276,
      "stam": 2277,
      "ṛṣa": 2278,
      "vaha": 2279,
      "vadā": 2280,
      "pava": 2281,
      "vāsu": 2282,
      "vikra": 2283,
      "viśuddha": 2284,
      "nimit": 2285,
      "dhat": 2286,
      "śār": 2287,
      "bhūyo": 2288,
      "vṛddhi": 2289,
      "ṭaṃ": 2290,
      "puruṣo": 2291,
      "vṛtti": 2292,
      "itye": 2293,
      "śreṣṭha": 2294,
      "sy": 2295,
      "vyaḥ": 2296,
      "ṭo": 2297,
      "rāmaṃ": 2298,
      "jarā": 2299,
      "di̍": 2300,
      "devasya": 2301,
      "yathe": 2302,
      "kartā": 2303,
      "gṛha": 2304,
      "tmānaṃ": 2305,
      "gambhī": 2306,
      "artha": 2307,
      "anena": 2308,
      "tvi": 2309,
      "vām": 2310,
      "vividhā": 2311,
      "rāṇāṃ": 2312,
      "dadarśa": 2313,
      "mād": 2314,
      "lau": 2315,
      "ṇaiḥ": 2316,
      "suhṛ": 2317,
      "rudrā": 2318,
      "kṛto": 2319,
      "sin": 2320,
      "kumā": 2321,
      "nīya": 2322,
      "moca": 2323,
      "vidyu": 2324,
      "ghna": 2325,
      "priyā": 2326,
      "lakṣaṇam": 2327,
      "tiṣṭhati": 2328,
      "sthaḥ": 2329,
      "samyak": 2330,
      "asau": 2331,
      "vita": 2332,
      "tāvat": 2333,
      "dharo": 2334,
      "dāḥ": 2335,
      "bhāsa": 2336,
      "ūrdhva": 2337,
      "vṛ̍": 2338,
      "devaḥ": 2339,
      "sū̱": 2340,
      "padyate": 2341,
      "maṇḍala": 2342,
      "trailokya": 2343,
      "samantataḥ": 2344,
      "adh": 2345,
      "abhya": 2346,
      "ityā": 2347,
      "rapi": 2348,
      "nanu": 2349,
      "vividha": 2350,
      "mātṛ": 2351,
      "śa̍": 2352,
      "pān": 2353,
      "jātā": 2354,
      "guṇaṃ": 2355,
      "tmanā": 2356,
      "śoka": 2357,
      "karṇa": 2358,
      "devāḥ": 2359,
      "labdha": 2360,
      "dbhava": 2361,
      "gre": 2362,
      "hyam": 2363,
      "ntam": 2364,
      "ū̱": 2365,
      "rasi": 2366,
      "mayaṃ": 2367,
      "saka": 2368,
      "vibhūṣi": 2369,
      "gaṇā": 2370,
      "jaṭā": 2371,
      "yogī": 2372,
      "kṛti": 2373,
      "koṭ": 2374,
      "yantī": 2375,
      "śīr": 2376,
      "upa̍": 2377,
      "yukto": 2378,
      "dvand": 2379,
      "mārge": 2380,
      "ato": 2381,
      "ndā": 2382,
      "tthā": 2383,
      "vu": 2384,
      "ṇyaṃ": 2385,
      "nabha": 2386,
      "yāvat": 2387,
      "hima": 2388,
      "yen": 2389,
      "traya": 2390,
      "pit": 2391,
      "śu̱": 2392,
      "ṇīm": 2393,
      "śīgh": 2394,
      "bodhisattvā": 2395,
      "dṛṣṭi": 2396,
      "kho": 2397,
      "rda": 2398,
      "̱s": 2399,
      "ṅgo": 2400,
      "yatā": 2401,
      "saṅga": 2402,
      "śar": 2403,
      "ripu": 2404,
      "kānta": 2405,
      "kṛṇu": 2406,
      "bar": 2407,
      "śāḥ": 2408,
      "śāstra": 2409,
      "tīkṣ": 2410,
      "vī̱": 2411,
      "śikhā": 2412,
      "śvarī": 2413,
      "yaty": 2414,
      "janāḥ": 2415,
      "ap": 2416,
      "imaṃ": 2417,
      "ktam": 2418,
      "ng": 2419,
      "̱t": 2420,
      "yakṣa": 2421,
      "sali": 2422,
      "vinda": 2423,
      "rāgā": 2424,
      "tād": 2425,
      "mānaḥ": 2426,
      "kāñca": 2427,
      "śirasā": 2428,
      "mahar": 2429,
      "dharmo": 2430,
      "nyo": 2431,
      "māli": 2432,
      "dānaṃ": 2433,
      "veṇa": 2434,
      "saṃvara": 2435,
      "śām": 2436,
      "viśve": 2437,
      "ghora": 2438,
      "hiraṇya": 2439,
      "stva": 2440,
      "raṇe": 2441,
      "nakṣa": 2442,
      "vāñ": 2443,
      "kali": 2444,
      "tādṛ": 2445,
      "janam": 2446,
      "diti": 2447,
      "śilā": 2448,
      "doṣā": 2449,
      "mukhe": 2450,
      "mūrti": 2451,
      "nvi": 2452,
      "sve": 2453,
      "uta": 2454,
      "manā": 2455,
      "tāya": 2456,
      "dayaḥ": 2457,
      "dhanaṃ": 2458,
      "kāṅ": 2459,
      "kālo": 2460,
      "pāśa": 2461,
      "sādh": 2462,
      "devyā": 2463,
      "divyaṃ": 2464,
      "bhāryā": 2465,
      "bahū": 2466,
      "jñānā": 2467,
      "grahaḥ": 2468,
      "viṣaya": 2469,
      "bhrama": 2470,
      "pateḥ": 2471,
      "nityam": 2472,
      "śarīra": 2473,
      "rājyaṃ": 2474,
      "amu": 2475,
      "uṣa": 2476,
      "maṁ": 2477,
      "sakhā": 2478,
      "cakāra": 2479,
      "kava": 2480,
      "dhārā": 2481,
      "śāṃ": 2482,
      "śiṣ": 2483,
      "śvaro": 2484,
      "vairā": 2485,
      "triṃśa": 2486,
      "parāya": 2487,
      "puṣpā": 2488,
      "vidhinā": 2489,
      "varānane": 2490,
      "daitya": 2491,
      "yasmin": 2492,
      "yaja": 2493,
      "yanta": 2494,
      "naraḥ": 2495,
      "rāmo": 2496,
      "rāje": 2497,
      "gami": 2498,
      "yeti": 2499,
      "pure": 2500,
      "bhūr": 2501,
      "durā": 2502,
      "prāṇā": 2503,
      "śiro": 2504,
      "a̱gni": 2505,
      "lokanātha": 2506,
      "rūpāya": 2507,
      "sphuṭa": 2508,
      "aha": 2509,
      "mnā": 2510,
      "spa": 2511,
      "staṃ": 2512,
      "ṭu": 2513,
      "sapat": 2514,
      "māmi": 2515,
      "sāt": 2516,
      "dhāḥ": 2517,
      "sarvathā": 2518,
      "sarvabhū": 2519,
      "stṛ": 2520,
      "mahāte": 2521,
      "litā": 2522,
      "bādha": 2523,
      "jagati": 2524,
      "dvaya": 2525,
      "dvādaśa": 2526,
      "lyaṃ": 2527,
      "īśa": 2528,
      "tata": 2529,
      "mayo": 2530,
      "vārā": 2531,
      "cakṣa": 2532,
      "vir": 2533,
      "vilā": 2534,
      "visma": 2535,
      "karam": 2536,
      "garu": 2537,
      "deśi": 2538,
      "dine": 2539,
      "dhānaṃ": 2540,
      "ntaraṃ": 2541,
      "sthū": 2542,
      "kalpi": 2543,
      "rathe": 2544,
      "kiṃcid": 2545,
      "indra̱": 2546,
      "śivaḥ": 2547,
      "gandhar": 2548,
      "ātmānaṃ": 2549,
      "rka": 2550,
      "āśra": 2551,
      "rase": 2552,
      "na̍ḥ": 2553,
      "vive": 2554,
      "sākṣā": 2555,
      "de̍": 2556,
      "pi̱": 2557,
      "balena": 2558,
      "guhya": 2559,
      "pena": 2560,
      "vrataṃ": 2561,
      "karaṇa": 2562,
      "samudra": 2563,
      "mahad": 2564,
      "bhīṣa": 2565,
      "indri": 2566,
      "muktā": 2567,
      "mukto": 2568,
      "yaset": 2569,
      "i̍ndra": 2570,
      "saddharma": 2571,
      "ya̍ḥ": 2572,
      "matā": 2573,
      "caṃ": 2574,
      "vibho": 2575,
      "vista": 2576,
      "kamala": 2577,
      "gatiḥ": 2578,
      "piba": 2579,
      "citrā": 2580,
      "tvād": 2581,
      "tathāpi": 2582,
      "śeṣā": 2583,
      "dravya": 2584,
      "nāmnā": 2585,
      "śīla": 2586,
      "prīti": 2587,
      "varu̍": 2588,
      "stvaṃ": 2589,
      "yyā": 2590,
      "̱nā": 2591,
      "vanam": 2592,
      "yātu": 2593,
      "viśi": 2594,
      "daś": 2595,
      "nānāṃ": 2596,
      "gadā": 2597,
      "bhavo": 2598,
      "bhāge": 2599,
      "bhāvena": 2600,
      "megha": 2601,
      "jām": 2602,
      "jāti": 2603,
      "svaṃ": 2604,
      "khaṇḍa": 2605,
      "pūrvā": 2606,
      "anu̍": 2607,
      "khila": 2608,
      "svarga": 2609,
      "ccheda": 2610,
      "ava̍": 2611,
      "anyā": 2612,
      "aśeṣa": 2613,
      "avāp": 2614,
      "tsā": 2615,
      "ritā": 2616,
      "kānāṃ": 2617,
      "diśa": 2618,
      "ditam": 2619,
      "rodha": 2620,
      "śāli": 2621,
      "pṛccha": 2622,
      "ghana": 2623,
      "sthāna": 2624,
      "dhunā": 2625,
      "ya̱jña": 2626,
      "indra̍": 2627,
      "vi̱śva": 2628,
      "buddho": 2629,
      "krū": 2630,
      "stya": 2631,
      "yair": 2632,
      "masi": 2633,
      "sasya": 2634,
      "sabhā": 2635,
      "vidhe": 2636,
      "rātri": 2637,
      "gatiṃ": 2638,
      "pātu": 2639,
      "re̱": 2640,
      "dhipa": 2641,
      "śāya": 2642,
      "tīrtha": 2643,
      "duṣṭa": 2644,
      "prāṇi": 2645,
      "nti̱": 2646,
      "tmani": 2647,
      "hasta": 2648,
      "dīpa": 2649,
      "sthāne": 2650,
      "duḥkhaṃ": 2651,
      "snātvā": 2652,
      "ata": 2653,
      "avā": 2654,
      "asaṃ": 2655,
      "kte": 2656,
      "myā": 2657,
      "ṛte": 2658,
      "tila": 2659,
      "śasya": 2660,
      "dhye": 2661,
      "pāpaṃ": 2662,
      "ropa": 2663,
      "kṣaṇam": 2664,
      "lān": 2665,
      "ttamāḥ": 2666,
      "krameṇa": 2667,
      "gopa": 2668,
      "kāraṇa": 2669,
      "duḥkhi": 2670,
      "guruḥ": 2671,
      "puṇyā": 2672,
      "kaṇṭha": 2673,
      "kurvan": 2674,
      "yojayet": 2675,
      "ayam": 2676,
      "krān": 2677,
      "pto": 2678,
      "yy": 2679,
      "̍nā": 2680,
      "yāvad": 2681,
      "nāthaṃ": 2682,
      "kāru": 2683,
      "piśā": 2684,
      "bhi̱ḥ": 2685,
      "meru": 2686,
      "ṣṭau": 2687,
      "vyādhi": 2688,
      "syāpi": 2689,
      "a̱s": 2690,
      "kalpā": 2691,
      "dvijo": 2692,
      "sthānaṃ": 2693,
      "jñaṃ": 2694,
      "dhṛk": 2695,
      "vināśa": 2696,
      "mūrdh": 2697,
      "mahābalaḥ": 2698,
      "asmi": 2699,
      "ihā": 2700,
      "īdṛ": 2701,
      "yasi": 2702,
      "tamā": 2703,
      "vayam": 2704,
      "das": 2705,
      "tejo": 2706,
      "prabhṛ": 2707,
      "bha̱": 2708,
      "bhayā": 2709,
      "yenā": 2710,
      "yoge": 2711,
      "sure": 2712,
      "dhār": 2713,
      "jāla": 2714,
      "kulaṃ": 2715,
      "yastu": 2716,
      "yantaṃ": 2717,
      "tyāḥ": 2718,
      "anyo": 2719,
      "dvādaśā": 2720,
      "smṛti": 2721,
      "smṛtam": 2722,
      "bja": 2723,
      "pyate": 2724,
      "ṣyanti": 2725,
      "pathi": 2726,
      "canda": 2727,
      "gaja": 2728,
      "niści": 2729,
      "śakra": 2730,
      "jag": 2731,
      "sarga": 2732,
      "bhira": 2733,
      "meti": 2734,
      "netra": 2735,
      "svasti": 2736,
      "loko": 2737,
      "vṛddha": 2738,
      "mantri": 2739,
      "yatho": 2740,
      "pū̱r": 2741,
      "pūjya": 2742,
      "draṣṭu": 2743,
      "paśyanti": 2744,
      "ṣṭāḥ": 2745,
      "bhartā": 2746,
      "ataḥ": 2747,
      "atya": 2748,
      "ekaṃ": 2749,
      "ghaṃ": 2750,
      "̱yā": 2751,
      "taj": 2752,
      "taye": 2753,
      "va̍ḥ": 2754,
      "manī": 2755,
      "nakha": 2756,
      "sami": 2757,
      "paṅka": 2758,
      "māda": 2759,
      "prayā": 2760,
      "bhyām": 2761,
      "ṣaṇ": 2762,
      "sugrī": 2763,
      "bhis": 2764,
      "cinti": 2765,
      "me̱": 2766,
      "sarvasattva": 2767,
      "prārtha": 2768,
      "manye": 2769,
      "vyāp": 2770,
      "rūpam": 2771,
      "yuktaḥ": 2772,
      "sṛṣṭi": 2773,
      "darśanam": 2774,
      "pṛthi̱": 2775,
      "kramya": 2776,
      "sne": 2777,
      "tpā": 2778,
      "thu": 2779,
      "śyā": 2780,
      "raso": 2781,
      "tala": 2782,
      "samo": 2783,
      "vāṅ": 2784,
      "vākya": 2785,
      "karī": 2786,
      "rāmaḥ": 2787,
      "hite": 2788,
      "dehe": 2789,
      "roha": 2790,
      "kṣaḥ": 2791,
      "sid": 2792,
      "tīrthaṃ": 2793,
      "varṇi": 2794,
      "tatho": 2795,
      "yantu": 2796,
      "bhedā": 2797,
      "patiṃ": 2798,
      "tṛṣṇā": 2799,
      "karmāṇi": 2800,
      "hra": 2801,
      "oṃ": 2802,
      "trya": 2803,
      "̍ṣu": 2804,
      "yatrā": 2805,
      "nare": 2806,
      "kan": 2807,
      "danta": 2808,
      "mātraṃ": 2809,
      "pratyā": 2810,
      "labhe": 2811,
      "pātā": 2812,
      "pāpā": 2813,
      "subha": 2814,
      "bhikṣu": 2815,
      "bhāti": 2816,
      "sitā": 2817,
      "parikīrti": 2818,
      "samupā": 2819,
      "khyātā": 2820,
      "prāpto": 2821,
      "kṛṣṇā": 2822,
      "marda": 2823,
      "gandhā": 2824,
      "paramārtha": 2825,
      "krānta": 2826,
      "nva": 2827,
      "ḍhaṃ": 2828,
      "satva": 2829,
      "vipā": 2830,
      "kair": 2831,
      "layā": 2832,
      "ṣaḍa": 2833,
      "purī": 2834,
      "muku": 2835,
      "kumbha": 2836,
      "tyaktvā": 2837,
      "bhūmau": 2838,
      "vīrā": 2839,
      "dṛḍha": 2840,
      "budha": 2841,
      "yiṣyāmi": 2842,
      "bheṣa": 2843,
      "priyaṃ": 2844,
      "anye": 2845,
      "panthā": 2846,
      "jñeyā": 2847,
      "pūjayet": 2848,
      "dbhu": 2849,
      "graṃ": 2850,
      "ājñā": 2851,
      "ṣye": 2852,
      "raṇā": 2853,
      "mas": 2854,
      "madā": 2855,
      "candrā": 2856,
      "tāvad": 2857,
      "dara": 2858,
      "niṣe": 2859,
      "śaṅka": 2860,
      "bhasma": 2861,
      "dham": 2862,
      "tubhyaṃ": 2863,
      "saṃvi": 2864,
      "minī": 2865,
      "divi": 2866,
      "puraḥ": 2867,
      "muniḥ": 2868,
      "citā": 2869,
      "balam": 2870,
      "neva": 2871,
      "bhavam": 2872,
      "jitā": 2873,
      "tasya̍": 2874,
      "kāraṇam": 2875,
      "patim": 2876,
      "vajrā": 2877,
      "mukho": 2878,
      "dvāra": 2879,
      "yamānaḥ": 2880,
      "śabdā": 2881,
      "vaktrā": 2882,
      "pramāṇa": 2883,
      "aśvinā": 2884,
      "trailok": 2885,
      "tejasā": 2886,
      "gṛhītvā": 2887,
      "bū": 2888,
      "gū": 2889,
      "vasū": 2890,
      "padi": 2891,
      "kac": 2892,
      "nidhi": 2893,
      "śaśi": 2894,
      "laya": 2895,
      "jātu": 2896,
      "vṛtra": 2897,
      "sthiti": 2898,
      "catuṣ": 2899,
      "ma̱ru": 2900,
      "mātreṇa": 2901,
      "smṛtā": 2902,
      "dakṣiṇa": 2903,
      "praṇamāmi": 2904,
      "bījaṃ": 2905,
      "vyoma": 2906,
      "kli": 2907,
      "sv": 2908,
      "naṁ": 2909,
      "hāri": 2910,
      "vār": 2911,
      "dama": 2912,
      "gamya": 2913,
      "latā": 2914,
      "janaḥ": 2915,
      "tulya": 2916,
      "sutā": 2917,
      "putraṃ": 2918,
      "dhā̱": 2919,
      "kṛṇo": 2920,
      "prāha": 2921,
      "kratu": 2922,
      "pratiṣṭhi": 2923,
      "sthāpa": 2924,
      "smṛtāḥ": 2925,
      "putraḥ": 2926,
      "tapasā": 2927,
      "bṛha": 2928,
      "dyate": 2929,
      "imāṃ": 2930,
      "nyaḥ": 2931,
      "nyam": 2932,
      "nyas": 2933,
      "plu": 2934,
      "rnam": 2935,
      "̍va": 2936,
      "ṇiḥ": 2937,
      "mayī": 2938,
      "sap": 2939,
      "paryā": 2940,
      "dadau": 2941,
      "ga̍": 2942,
      "prasū": 2943,
      "layaṃ": 2944,
      "japa": 2945,
      "ritaṃ": 2946,
      "trayo": 2947,
      "miva": 2948,
      "dibhiḥ": 2949,
      "bhār": 2950,
      "dhāma": 2951,
      "kum": 2952,
      "ndraṃ": 2953,
      "ghaṭa": 2954,
      "kāraṇaṃ": 2955,
      "dhīyate": 2956,
      "muktaḥ": 2957,
      "panna": 2958,
      "proktaṃ": 2959,
      "ghe": 2960,
      "liḥ": 2961,
      "pye": 2962,
      "sro": 2963,
      "ñjana": 2964,
      "ñju": 2965,
      "rakṣi": 2966,
      "matha": 2967,
      "patha": 2968,
      "vicāra": 2969,
      "gacche": 2970,
      "pāṃ": 2971,
      "deho": 2972,
      "ntarā": 2973,
      "śuddhā": 2974,
      "bhavaṃ": 2975,
      "vaiṣṇa": 2976,
      "paśyāmi": 2977,
      "mūḍha": 2978,
      "bibhra": 2979,
      "a̱gnir": 2980,
      "jvālā": 2981,
      "sārdhaṃ": 2982,
      "ajā": 2983,
      "alaṃ": 2984,
      "varo": 2985,
      "patya": 2986,
      "pakṣi": 2987,
      "caryā": 2988,
      "dadha": 2989,
      "praṇam": 2990,
      "bhyas": 2991,
      "kānti": 2992,
      "yojanā": 2993,
      "tor": 2994,
      "muhūr": 2995,
      "tvā̍": 2996,
      "yug": 2997,
      "yuṣ": 2998,
      "si̱": 2999,
      "sarvajña": 3000,
      "ṣā̱": 3001,
      "gāt": 3002,
      "lepa": 3003,
      "tmajaḥ": 3004,
      "grahe": 3005,
      "bālā": 3006,
      "ceti": 3007,
      "śruti": 3008,
      "dvayaṃ": 3009,
      "pannā": 3010,
      "kīrta": 3011,
      "ghāta": 3012,
      "ñjali": 3013,
      "irapi": 3014,
      "vidhaṃ": 3015,
      "pārśva": 3016,
      "sanāta": 3017,
      "ari": 3018,
      "ktaḥ": 3019,
      "tūr": 3020,
      "sa̱ṁ": 3021,
      "paṅ": 3022,
      "viru": 3023,
      "vicitra": 3024,
      "kaṭā": 3025,
      "rām": 3026,
      "daha": 3027,
      "bhrū": 3028,
      "bhaṅga": 3029,
      "sya̍": 3030,
      "kṣayā": 3031,
      "śākya": 3032,
      "ūrdhvaṃ": 3033,
      "ṣu̍": 3034,
      "haṃsa": 3035,
      "kṣānti": 3036,
      "ratho": 3037,
      "patnī": 3038,
      "hariḥ": 3039,
      "dakṣiṇā": 3040,
      "janārda": 3041,
      "śubham": 3042,
      "samanvitam": 3043,
      "kathitaṃ": 3044,
      "ama": 3045,
      "nty": 3046,
      "upe": 3047,
      "yayā": 3048,
      "naivā": 3049,
      "sakṛ": 3050,
      "padya": 3051,
      "car": 3052,
      "virā": 3053,
      "dadṛ": 3054,
      "māhāt": 3055,
      "pratyu": 3056,
      "bhakta": 3057,
      "suḥ": 3058,
      "sutaḥ": 3059,
      "toḥ": 3060,
      "bhinna": 3061,
      "tvā̱": 3062,
      "tīva": 3063,
      "gām": 3064,
      "guhā": 3065,
      "tathāgata": 3066,
      "a̍gne": 3067,
      "viśve̍": 3068,
      "khilaṃ": 3069,
      "jñeyaṃ": 3070,
      "pitāmaha": 3071,
      "bandho": 3072,
      "brāhmaṇa": 3073,
      "kaike": 3074,
      "raśmi": 3075,
      "aja": 3076,
      "āśri": 3077,
      "̍sā": 3078,
      "vaco": 3079,
      "matiḥ": 3080,
      "mahyaṃ": 3081,
      "sari": 3082,
      "vis": 3083,
      "tirya": 3084,
      "datta": 3085,
      "game": 3086,
      "ni̍": 3087,
      "pāti": 3088,
      "ditya": 3089,
      "kṣam": 3090,
      "jānu": 3091,
      "baha": 3092,
      "vīryā": 3093,
      "vṛkṣā": 3094,
      "tathe": 3095,
      "soma̍": 3096,
      "brahman": 3097,
      "kārayet": 3098,
      "śrama": 3099,
      "dhyātvā": 3100,
      "sahasraṃ": 3101,
      "devānāṃ": 3102,
      "proktā": 3103,
      "rāmasya": 3104,
      "̱taye̍": 3105,
      "vaktra": 3106,
      "hṛdayaṃ": 3107,
      "ṣoḍaśa": 3108,
      "tsu": 3109,
      "āpo": 3110,
      "̍ra": 3111,
      "yadu": 3112,
      "varaḥ": 3113,
      "mata": 3114,
      "vāda": 3115,
      "cau": 3116,
      "rātra": 3117,
      "daṁ": 3118,
      "dada": 3119,
      "nāgā": 3120,
      "pravakṣyāmi": 3121,
      "dha̱": 3122,
      "dharaḥ": 3123,
      "dhyati": 3124,
      "syati": 3125,
      "mupā": 3126,
      "citraṃ": 3127,
      "dhāt": 3128,
      "lāva": 3129,
      "paritya": 3130,
      "koṭī": 3131,
      "vaiś": 3132,
      "sthite": 3133,
      "yituṃ": 3134,
      "sattvo": 3135,
      "śraddhā": 3136,
      "santu": 3137,
      "indrā̍": 3138,
      "mukhaḥ": 3139,
      "maṇḍalam": 3140,
      "samyag": 3141,
      "viṃśati": 3142,
      "aṣṭā": 3143,
      "jjva": 3144,
      "ttha": 3145,
      "ñjā": 3146,
      "viduḥ": 3147,
      "laghu": 3148,
      "suta": 3149,
      "roda": 3150,
      "ṇā̱": 3151,
      "kuto": 3152,
      "tīnāṃ": 3153,
      "stū": 3154,
      "mahārāja": 3155,
      "huṃ": 3156,
      "kramam": 3157,
      "pṛṣṭha": 3158,
      "ratnā": 3159,
      "antaḥ": 3160,
      "śaktir": 3161,
      "bharaṇa": 3162,
      "nātho": 3163,
      "bahir": 3164,
      "ast": 3165,
      "vyāṃ": 3166,
      "āru": 3167,
      "īśā": 3168,
      "yava": 3169,
      "tave": 3170,
      "hatā": 3171,
      "caṇḍā": 3172,
      "viva": 3173,
      "viśru": 3174,
      "nārī": 3175,
      "nānu": 3176,
      "tendri": 3177,
      "kāre": 3178,
      "kāśaṃ": 3179,
      "saṃbodhi": 3180,
      "diṣu": 3181,
      "ditāḥ": 3182,
      "dhipaḥ": 3183,
      "bhavatu": 3184,
      "vaide": 3185,
      "dviṣa": 3186,
      "bāṇa": 3187,
      "statra": 3188,
      "sītā": 3189,
      "tāny": 3190,
      "sarvārtha": 3191,
      "viśya": 3192,
      "sa̱has": 3193,
      "yamāno": 3194,
      "vatīṃ": 3195,
      "paścāt": 3196,
      "śukla": 3197,
      "cū": 3198,
      "ādāya": 3199,
      "̍t": 3200,
      "raga": 3201,
      "tayo": 3202,
      "same": 3203,
      "tiṁ": 3204,
      "gala": 3205,
      "praṇā": 3206,
      "riti": 3207,
      "kāraḥ": 3208,
      "sānu": 3209,
      "trayaṃ": 3210,
      "piṇḍa": 3211,
      "ṇāti": 3212,
      "kṣaṇā": 3213,
      "kṣatri": 3214,
      "jāṃ": 3215,
      "balo": 3216,
      "ndī": 3217,
      "varṇaṃ": 3218,
      "prāyaś": 3219,
      "sthita": 3220,
      "yady": 3221,
      "saumi": 3222,
      "vrate": 3223,
      "pīṭ": 3224,
      "pīṭha": 3225,
      "agre": 3226,
      "lokeṣu": 3227,
      "bhaviṣyanti": 3228,
      "sūkṣma": 3229,
      "kanaka": 3230,
      "ane": 3231,
      "abhū": 3232,
      "asmin": 3233,
      "dro": 3234,
      "dvai": 3235,
      "jha": 3236,
      "seva": 3237,
      "yya": 3238,
      "̱vā": 3239,
      "ṇye": 3240,
      "…)": 3241,
      "hatvā": 3242,
      "savi": 3243,
      "sattama": 3244,
      "paṇḍi": 3245,
      "kapā": 3246,
      "danu": 3247,
      "niśi": 3248,
      "pratye": 3249,
      "bhru": 3250,
      "veti": 3251,
      "thāya": 3252,
      "diśo": 3253,
      "to̍": 3254,
      "muc": 3255,
      "bhiṣe": 3256,
      "ci̱d": 3257,
      "bhāg": 3258,
      "kṣata": 3259,
      "ndraḥ": 3260,
      "śuṣ": 3261,
      "mantraṃ": 3262,
      "yann": 3263,
      "vyati": 3264,
      "syāmi": 3265,
      "dīp": 3266,
      "pet": 3267,
      "cchan": 3268,
      "sarvāṇi": 3269,
      "darśanaṃ": 3270,
      "śūla": 3271,
      "myahaṃ": 3272,
      "viśeṣataḥ": 3273,
      "sindhu": 3274,
      "(…)": 3275,
      "aga": 3276,
      "ayo": 3277,
      "llā": 3278,
      "rava": 3279,
      "haya": 3280,
      "naro": 3281,
      "sate": 3282,
      "santa": 3283,
      "pathā": 3284,
      "viṣṭa": 3285,
      "śaśva": 3286,
      "prabham": 3287,
      "kāni": 3288,
      "kāli": 3289,
      "pāri": 3290,
      "veṣa": 3291,
      "jātaṃ": 3292,
      "vṛṣ": 3293,
      "bhavatā": 3294,
      "dṛṣṭaṃ": 3295,
      "daṃṣṭ": 3296,
      "sattvaṃ": 3297,
      "kṣāṃ": 3298,
      "tatraiva": 3299,
      "viśvarū": 3300,
      "dattaṃ": 3301,
      "brūhi": 3302,
      "sāmart": 3303,
      "andha": 3304,
      "gs": 3305,
      "pla": 3306,
      "ākāśa": 3307,
      "̍ya̱": 3308,
      "nayā": 3309,
      "sanaṃ": 3310,
      "samṛ": 3311,
      "satyā": 3312,
      "paṭa": 3313,
      "pava̍": 3314,
      "vijñāna": 3315,
      "timi": 3316,
      "śayā": 3317,
      "prave": 3318,
      "jayā": 3319,
      "bhaktā": 3320,
      "dehā": 3321,
      "dinaṃ": 3322,
      "cita": 3323,
      "bhāvaḥ": 3324,
      "tyaja": 3325,
      "ṣāḥ": 3326,
      "kartuṃ": 3327,
      "agnir": 3328,
      "sarvāḥ": 3329,
      "śṛṇ": 3330,
      "grāma": 3331,
      "śaraṇa": 3332,
      "śaraṇā": 3333,
      "cakraṃ": 3334,
      "sparśa": 3335,
      "eti": 3336,
      "in": 3337,
      "rti": 3338,
      "straṃ": 3339,
      "̱ṣa": 3340,
      "vaśī": 3341,
      "mate": 3342,
      "nada": 3343,
      "satvā": 3344,
      "payo": 3345,
      "pakṣe": 3346,
      "kasaṃ": 3347,
      "nāsi": 3348,
      "labh": 3349,
      "pād": 3350,
      "ret": 3351,
      "ciraṃ": 3352,
      "dhānā": 3353,
      "kṛtyā": 3354,
      "jāmi": 3355,
      "kulam": 3356,
      "śāt": 3357,
      "tīm": 3358,
      "mahātmā": 3359,
      "vopa": 3360,
      "yanty": 3361,
      "tasya̱": 3362,
      "bāndha": 3363,
      "statha": 3364,
      "cittam": 3365,
      "karmaṇi": 3366,
      "bhāvanā": 3367,
      "mīti": 3368,
      "śūnyā": 3369,
      "lakṣaṇaṃ": 3370,
      "martya": 3371,
      "itthaṃ": 3372,
      "tapas": 3373,
      "prajāḥ": 3374,
      "madhu̍": 3375,
      "maṇḍale": 3376,
      "śreṣṭhā": 3377,
      "brāhmaṇā": 3378,
      "---": 3379,
      "buddhir": 3380,
      "gṛhṇa": 3381,
      "bruvan": 3382,
      "atrā": 3383,
      "e̍": 3384,
      "etā": 3385,
      "gdha": 3386,
      "grya": 3387,
      "pyā": 3388,
      "thya": 3389,
      "ṇir": 3390,
      "yakṣ": 3391,
      "rab": 3392,
      "magha": 3393,
      "mait": 3394,
      "yāvan": 3395,
      "vā̍m": 3396,
      "viḥ": 3397,
      "rāś": 3398,
      "rājñā": 3399,
      "hi̍": 3400,
      "teṣām": 3401,
      "gatim": 3402,
      "dharaṃ": 3403,
      "dhra": 3404,
      "pāraṃ": 3405,
      "ṣṭir": 3406,
      "ruṇa": 3407,
      "sāri": 3408,
      "piṅga": 3409,
      "mitya": 3410,
      "mut": 3411,
      "bhāgā": 3412,
      "kumāra": 3413,
      "svara": 3414,
      "lokān": 3415,
      "śiraḥ": 3416,
      "vyāpi": 3417,
      "kramaḥ": 3418,
      "kṣepa": 3419,
      "de̱ve": 3420,
      "śubhaṃ": 3421,
      "di̱vo": 3422,
      "prasāda": 3423,
      "pitaraṃ": 3424,
      "krīḍa": 3425,
      "kruddha": 3426,
      "dhanur": 3427,
      "?)": 3428,
      "abh": 3429,
      "jyaṃ": 3430,
      "lū": 3431,
      "psi": 3432,
      "ḍho": 3433,
      "tavyaṃ": 3434,
      "vaśi": 3435,
      "vaṇi": 3436,
      "manta": 3437,
      "sakalā": 3438,
      "nityā": 3439,
      "dhve": 3440,
      "yeṣāṃ": 3441,
      "sukhī": 3442,
      "sāya": 3443,
      "muna": 3444,
      "kṣaya": 3445,
      "me̍": 3446,
      "kub": 3447,
      "bhūtāni": 3448,
      "not": 3449,
      "vīraṃ": 3450,
      "mṛtaṃ": 3451,
      "gṛhaṃ": 3452,
      "sūta": 3453,
      "sūtra": 3454,
      "caran": 3455,
      "dūra": 3456,
      "guruṃ": 3457,
      "yogaṃ": 3458,
      "dyum": 3459,
      "kuryād": 3460,
      "kartavyaṃ": 3461,
      "amī": 3462,
      "jṛ": 3463,
      "mbi": 3464,
      "vye": 3465,
      "ād": 3466,
      "vadhi": 3467,
      "marī": 3468,
      "patan": 3469,
      "vāji": 3470,
      "māne": 3471,
      "mānam": 3472,
      "dhair": 3473,
      "tula": 3474,
      "svarūpa": 3475,
      "tīrthe": 3476,
      "bhūyaḥ": 3477,
      "sarvataḥ": 3478,
      "tasyāḥ": 3479,
      "ṣu̱": 3480,
      "hastā": 3481,
      "samasta": 3482,
      "a̱smā": 3483,
      "kampa": 3484,
      "vidvān": 3485,
      "dher": 3486,
      "karaṇaṃ": 3487,
      "bodhisattva": 3488,
      "dhvaja": 3489,
      "siddhiṃ": 3490,
      "deveśi": 3491,
      "pāramitā": 3492,
      "prabhṛti": 3493,
      "aśa": 3494,
      "aneka": 3495,
      "hlā": 3496,
      "jū": 3497,
      "kvā": 3498,
      "ryam": 3499,
      "rdhva": 3500,
      "ṛṣī": 3501,
      "tataś": 3502,
      "narma": 3503,
      "hāsa": 3504,
      "viro": 3505,
      "rājo": 3506,
      "hitāḥ": 3507,
      "tāma": 3508,
      "śarma": 3509,
      "kāmaṃ": 3510,
      "suga": 3511,
      "mukhī": 3512,
      "muttamam": 3513,
      "citaṃ": 3514,
      "bad": 3515,
      "ba̱r": 3516,
      "kutaḥ": 3517,
      "mahābalā": 3518,
      "vīṃ": 3519,
      "somo": 3520,
      "dīnāṃ": 3521,
      "a̱r": 3522,
      "dvijā": 3523,
      "senā": 3524,
      "tenaiva": 3525,
      "nṛtya": 3526,
      "ghoraṃ": 3527,
      "varāro": 3528,
      "uttamam": 3529,
      "ṣyasi": 3530,
      "sphura": 3531,
      "ja̍sā": 3532,
      "cakṣuṣā": 3533,
      "krīḍā": 3534,
      "jihvā": 3535,
      "ara": 3536,
      "chu": 3537,
      "un": 3538,
      "rasaḥ": 3539,
      "raud": 3540,
      "rakṣo": 3541,
      "vatā": 3542,
      "mañju": 3543,
      "pado": 3544,
      "vā̍ṁ": 3545,
      "nirī": 3546,
      "jale": 3547,
      "sudhā": 3548,
      "rutvā": 3549,
      "sāmā": 3550,
      "devān": 3551,
      "vedi": 3552,
      "yuge": 3553,
      "yujyate": 3554,
      "kṛ̍": 3555,
      "bhūri": 3556,
      "tattvā": 3557,
      "yasī": 3558,
      "niryā": 3559,
      "cchayā": 3560,
      "ced": 3561,
      "pary": 3562,
      "kvacida": 3563,
      "manas": 3564,
      "coda": 3565,
      "indro": 3566,
      "devāya": 3567,
      "u̱ṣa": 3568,
      "puruṣaṃ": 3569,
      "prāptaṃ": 3570,
      "bahudhā": 3571,
      "dakṣiṇaṃ": 3572,
      "tapaḥ": 3573,
      "śaktyā": 3574,
      "buddhānāṃ": 3575,
      "bhārata": 3576,
      "aṅgu": 3577,
      "gro": 3578,
      "vyū": 3579,
      "ṣṇu": 3580,
      "yakṣā": 3581,
      "hasya": 3582,
      "mag": 3583,
      "yāca": 3584,
      "vidu": 3585,
      "nāḍ": 3586,
      "jajñe": 3587,
      "ruk": 3588,
      "rudhi": 3589,
      "ved": 3590,
      "diśi": 3591,
      "diśaḥ": 3592,
      "diṣṭaṃ": 3593,
      "yuddha": 3594,
      "loki": 3595,
      "vīryaṃ": 3596,
      "samāhitaḥ": 3597,
      "ṇḍarī": 3598,
      "hīnā": 3599,
      "nṛpaḥ": 3600,
      "dhyānaṃ": 3601,
      "bhīma": 3602,
      "muktaṃ": 3603,
      "kalpayet": 3604,
      "vi̱tā": 3605,
      "maṇḍalā": 3606,
      "bṛha̱": 3607,
      "mahi̱": 3608,
      "pramāṇaṃ": 3609,
      "kleśā": 3610,
      "cetasaḥ": 3611,
      "praṇamya": 3612,
      "ekam": 3613,
      "jjā": 3614,
      "śvāsa": 3615,
      "ṣṇī": 3616,
      "tamaḥ": 3617,
      "vaṁ": 3618,
      "vimala": 3619,
      "nimi": 3620,
      "praty": 3621,
      "prabhāva": 3622,
      "pā̱": 3623,
      "dānava": 3624,
      "dehaṃ": 3625,
      "sarvi": 3626,
      "baddhā": 3627,
      "kut": 3628,
      "samupa": 3629,
      "va̱yaṁ": 3630,
      "dūṣa": 3631,
      "prathamaṃ": 3632,
      "ra̱yi": 3633,
      "pārami": 3634,
      "dveṣa": 3635,
      "pṛthag": 3636,
      "śaila": 3637,
      "kusuma": 3638,
      "vairāg": 3639,
      "mahātejā": 3640,
      "sni": 3641,
      "stasya": 3642,
      "vyu": 3643,
      "ṅgh": 3644,
      "yaśca": 3645,
      "vastra": 3646,
      "hanta": 3647,
      "carma": 3648,
      "māp": 3649,
      "mādha": 3650,
      "gatir": 3651,
      "śaśā": 3652,
      "śayaḥ": 3653,
      "bhakṣa": 3654,
      "kāna": 3655,
      "pāna": 3656,
      "pāṇḍu": 3657,
      "saṃkhyā": 3658,
      "saṃghā": 3659,
      "yugā": 3660,
      "kṛṇ": 3661,
      "lokam": 3662,
      "sarvasya": 3663,
      "sarvaśaḥ": 3664,
      "vṛtā": 3665,
      "tasmān": 3666,
      "śiśu": 3667,
      "jitaṃ": 3668,
      "devatāḥ": 3669,
      "sthāya": 3670,
      "saumya": 3671,
      "anu̱": 3672,
      "kṣetre": 3673,
      "vacanam": 3674,
      "yū̱": 3675,
      "kālaḥ": 3676,
      "rākṣasā": 3677,
      "sadyaḥ": 3678,
      "cakṣur": 3679,
      "prakṛti": 3680,
      "svapne": 3681,
      "nirvāṇa": 3682,
      "mni": 3683,
      "phu": 3684,
      "̱to": 3685,
      "yajñā": 3686,
      "yatām": 3687,
      "pama": 3688,
      "hāya": 3689,
      "cam": 3690,
      "caḥ": 3691,
      "kanda": 3692,
      "kath": 3693,
      "kāmo": 3694,
      "pālā": 3695,
      "dito": 3696,
      "mukhyā": 3697,
      "dhiṣṭhi": 3698,
      "medhā": 3699,
      "netrā": 3700,
      "nur": 3701,
      "śāntā": 3702,
      "sarvapāpa": 3703,
      "śuddhi": 3704,
      "kṣip": 3705,
      "haste": 3706,
      "bhoja": 3707,
      "jīvan": 3708,
      "śīta": 3709,
      "kiṃcit": 3710,
      "mānasaḥ": 3711,
      "dvau": 3712,
      "dvayam": 3713,
      "pādau": 3714,
      "mahātmanā": 3715,
      "svapna": 3716,
      "nārada": 3717,
      "bhadraṃ": 3718,
      "kṣipraṃ": 3719,
      "granthi": 3720,
      "au": 3721,
      "ddhṛ": 3722,
      "eta": 3723,
      "ikā": 3724,
      "iyaṃ": 3725,
      "udya": 3726,
      "vyas": 3727,
      "̍bhir": 3728,
      "ṭṭa": 3729,
      "yasva": 3730,
      "rathaṃ": 3731,
      "vase": 3732,
      "paṭha": 3733,
      "yātma": 3734,
      "caṇḍa": 3735,
      "vidya": 3736,
      "gaṇḍī": 3737,
      "nivṛt": 3738,
      "pra̍": 3739,
      "prasīda": 3740,
      "jalā": 3741,
      "kāntā": 3742,
      "ṣṭī": 3743,
      "sāhas": 3744,
      "mitaṃ": 3745,
      "bhāḥ": 3746,
      "dhātā": 3747,
      "bale": 3748,
      "tyai": 3749,
      "tastha": 3750,
      "bhavantu": 3751,
      "ketu": 3752,
      "keṣu": 3753,
      "pari̱": 3754,
      "dyair": 3755,
      "pūrṇā": 3756,
      "nṛpā": 3757,
      "samudrā": 3758,
      "durlabha": 3759,
      "yāmy": 3760,
      "prāptā": 3761,
      "śeṣaṃ": 3762,
      "sattvān": 3763,
      "viṣṇur": 3764,
      "tarpa": 3765,
      "tīrthā": 3766,
      "ruddho": 3767,
      "yoginaḥ": 3768,
      "samanvitaḥ": 3769,
      "sva̱sti": 3770,
      "kalyāṇaṃ": 3771,
      "pitṝ": 3772,
      "jagmu": 3773,
      "rnams": 3774,
      "ala": 3775,
      "atī": 3776,
      "aparā": 3777,
      "yadī": 3778,
      "vata": 3779,
      "harī": 3780,
      "matī": 3781,
      "vika": 3782,
      "māṇi": 3783,
      "nibodha": 3784,
      "śamya": 3785,
      "yot": 3786,
      "rur": 3787,
      "miha": 3788,
      "dinā": 3789,
      "roda̍": 3790,
      "ci̱": 3791,
      "jānāti": 3792,
      "cān": 3793,
      "cāsya": 3794,
      "śāśva": 3795,
      "litaṃ": 3796,
      "jitaḥ": 3797,
      "mokṣā": 3798,
      "vyāḥ": 3799,
      "pṛthu": 3800,
      "vaṃśa": 3801,
      "madhyas": 3802,
      "padmā": 3803,
      "sattvānāṃ": 3804,
      "pratyakṣa": 3805,
      "antari": 3806,
      "kṛts": 3807,
      "jīvati": 3808,
      "karuṇa": 3809,
      "skan": 3810,
      "a̱sme": 3811,
      "ah": 3812,
      "dri": 3813,
      "gnir": 3814,
      "syāṃ": 3815,
      "uktaṃ": 3816,
      "ścāpi": 3817,
      "̱ḻ": 3818,
      "̱rā": 3819,
      "̱mā": 3820,
      "tanā": 3821,
      "vate": 3822,
      "hanti": 3823,
      "sakhi": 3824,
      "patra": 3825,
      "vitam": 3826,
      "vigh": 3827,
      "pravarta": 3828,
      "ṣṭyā": 3829,
      "bhāsva": 3830,
      "kṛcch": 3831,
      "sita": 3832,
      "varja": 3833,
      "ṣā̍": 3834,
      "jñāne": 3835,
      "yasmāt": 3836,
      "sthitiḥ": 3837,
      "bhuktvā": 3838,
      "kartum": 3839,
      "bhoti": 3840,
      "pūrvo": 3841,
      "stana": 3842,
      "sūda": 3843,
      "vantaṃ": 3844,
      "nṛṇām": 3845,
      "pri̱": 3846,
      "caranti": 3847,
      "bhṛśam": 3848,
      "ghoṣa": 3849,
      "ṭikā": 3850,
      "kriyate": 3851,
      "śivam": 3852,
      "bījā": 3853,
      "kūṭa": 3854,
      "daityā": 3855,
      "kaṇṭa": 3856,
      "śatrū": 3857,
      "agne̱": 3858,
      "gaura": 3859,
      "dvīpa": 3860,
      "oṣadhī": 3861,
      "aru": 3862,
      "ttā": 3863,
      "ugha": 3864,
      "ñjī": 3865,
      "ṣū": 3866,
      "rajo": 3867,
      "vair": 3868,
      "papāta": 3869,
      "vāja": 3870,
      "niś": 3871,
      "prayaccha": 3872,
      "layam": 3873,
      "susaṃ": 3874,
      "suto": 3875,
      "saṃta": 3876,
      "divaṃ": 3877,
      "tvama": 3878,
      "jāto": 3879,
      "sarvato": 3880,
      "mahāya": 3881,
      "durma": 3882,
      "prāg": 3883,
      "gur": 3884,
      "kima": 3885,
      "pariṇā": 3886,
      "kopa": 3887,
      "yanto": 3888,
      "yathā̍": 3889,
      "samāśri": 3890,
      "syān": 3891,
      "śoca": 3892,
      "graho": 3893,
      "ndrasya": 3894,
      "se̱": 3895,
      "līṃ": 3896,
      "mānasya": 3897,
      "sṛjya": 3898,
      "priyam": 3899,
      "durla": 3900,
      "buddhaṃ": 3901,
      "u̱k": 3902,
      "dhvam": 3903,
      "prāpte": 3904,
      "vāsanā": 3905,
      "śaktiḥ": 3906,
      "vadanti": 3907,
      "i̱ha": 3908,
      "vyavasthitaḥ": 3909,
      "praviśa": 3910,
      "bhairava": 3911,
      "iśvarya": 3912,
      "ktu": 3913,
      "vrā": 3914,
      "ānanda": 3915,
      "āyur": 3916,
      "ṅki": 3917,
      "vanā": 3918,
      "mayaḥ": 3919,
      "patta": 3920,
      "hārā": 3921,
      "vivā": 3922,
      "vikā": 3923,
      "vibhū": 3924,
      "rāgo": 3925,
      "tāsāṃ": 3926,
      "māma": 3927,
      "nādaṃ": 3928,
      "prajña": 3929,
      "traṁ": 3930,
      "saṃyuktaṃ": 3931,
      "mikā": 3932,
      "puṇḍarī": 3933,
      "muhuḥ": 3934,
      "sarja": 3935,
      "yutaṃ": 3936,
      "neti": 3937,
      "rīm": 3938,
      "lot": 3939,
      "varga": 3940,
      "vṛtam": 3941,
      "hotā̍": 3942,
      "śuṣe": 3943,
      "mṛgā": 3944,
      "samāna": 3945,
      "a̱sya": 3946,
      "nyatra": 3947,
      "dharmaḥ": 3948,
      "brahmaṇā": 3949,
      "svāda": 3950,
      "arhasi": 3951,
      "viṣam": 3952,
      "śṛṅga": 3953,
      "śṛṅgā": 3954,
      "juhu": 3955,
      "preta": 3956,
      "garbhaṃ": 3957,
      "dattā": 3958,
      "tasminn": 3959,
      "śarīraṃ": 3960,
      "yāmasi": 3961,
      "lokānāṃ": 3962,
      "skandha": 3963,
      "cāriṇaḥ": 3964,
      "rūpiṇī": 3965,
      "mūrdhni": 3966,
      "vistīr": 3967,
      "baddhvā": 3968,
      "roda̍sī": 3969,
      "ubhau": 3970,
      "āhu": 3971,
      "yaśas": 3972,
      "hate": 3973,
      "vāru": 3974,
      "kani": 3975,
      "gaha": 3976,
      "niro": 3977,
      "laiḥ": 3978,
      "bhadrā": 3979,
      "tul": 3980,
      "tura": 3981,
      "kāśe": 3982,
      "pāt": 3983,
      "pāde": 3984,
      "sukhi": 3985,
      "sugata": 3986,
      "pitur": 3987,
      "pu̍": 3988,
      "cira": 3989,
      "kutra": 3990,
      "svatan": 3991,
      "bhūto": 3992,
      "vīro": 3993,
      "duṣṭā": 3994,
      "dundu": 3995,
      "jñānam": 3996,
      "khyo": 3997,
      "kṣitaḥ": 3998,
      "hṛṣṭa": 3999,
      "ṇo̱": 4000,
      "stava": 4001,
      "jagaddhi": 4002,
      "jīr": 4003,
      "vrajet": 4004,
      "pīḍi": 4005,
      "smaran": 4006,
      "sarveṣu": 4007,
      "māṃsa": 4008,
      "catuḥ": 4009,
      "catura": 4010,
      "catuṣṭa": 4011,
      "yuktam": 4012,
      "dyāpi": 4013,
      "tiṣṭhate": 4014,
      "mukham": 4015,
      "rākṣasa": 4016,
      "guṇān": 4017,
      "rāghava": 4018,
      "naśyati": 4019,
      "mi̱tro": 4020,
      "viśeṣā": 4021,
      "śmaśā": 4022,
      "jagannātha": 4023,
      "kathyate": 4024,
      "āna": 4025,
      "̍ṣa": 4026,
      "̍thi": 4027,
      "vade": 4028,
      "pai": 4029,
      "yāṇi": 4030,
      "rāśi": 4031,
      "nim": 4032,
      "prame": 4033,
      "jahi": 4034,
      "bhayam": 4035,
      "pāram": 4036,
      "surāḥ": 4037,
      "ṣṭhī": 4038,
      "dān": 4039,
      "saṃvaram": 4040,
      "mumu": 4041,
      "muhur": 4042,
      "yuta": 4043,
      "kṣara": 4044,
      "lokaḥ": 4045,
      "sarvaloka": 4046,
      "hutā": 4047,
      "ṇḍo": 4048,
      "tadvi": 4049,
      "prati̍": 4050,
      "pratijñā": 4051,
      "kalpe": 4052,
      "pīta": 4053,
      "ma̱gha": 4054,
      "anyathā": 4055,
      "sahasrā": 4056,
      "kalpanā": 4057,
      "bimba": 4058,
      "ṣvapi": 4059,
      "varjitam": 4060,
      "dhruvam": 4061,
      "saṃyutam": 4062,
      "lauki": 4063,
      "a̱gniṁ": 4064,
      "kvacidapi": 4065,
      "che": 4066,
      "idā": 4067,
      "icchā": 4068,
      "lir": 4069,
      "ttvā": 4070,
      "āro": 4071,
      "āsādya": 4072,
      "̍sya": 4073,
      "yacca": 4074,
      "taśca": 4075,
      "vaiḥ": 4076,
      "vasan": 4077,
      "maye": 4078,
      "maṇḍi": 4079,
      "sane": 4080,
      "pakṣā": 4081,
      "yātrā": 4082,
      "vāhi": 4083,
      "vāgī": 4084,
      "kavi": 4085,
      "nāhaṃ": 4086,
      "gaṇe": 4087,
      "nivā": 4088,
      "śatā": 4089,
      "śacī": 4090,
      "jaghā": 4091,
      "jagrāha": 4092,
      "dād": 4093,
      "sādhya": 4094,
      "vetti": 4095,
      "dina": 4096,
      "topa": 4097,
      "bhiśca": 4098,
      "dhām": 4099,
      "kṣaṇaṃ": 4100,
      "kuṭi": 4101,
      "lola": 4102,
      "locana": 4103,
      "ttamā": 4104,
      "mantrī": 4105,
      "liṅgā": 4106,
      "mṛtā": 4107,
      "koṭa": 4108,
      "sthitvā": 4109,
      "bhuvane": 4110,
      "go̱": 4111,
      "namastu": 4112,
      "śoṇi": 4113,
      "dyaur": 4114,
      "bāṣ": 4115,
      "ṇḍaṃ": 4116,
      "viddhi": 4117,
      "śīrṣa": 4118,
      "sa̱pta": 4119,
      "ṣṭiṃ": 4120,
      "karomi": 4121,
      "manuṣyā": 4122,
      "kathayāmi": 4123,
      "pārśve": 4124,
      "paścād": 4125,
      "paṭu": 4126,
      "dadāti": 4127,
      "sthūla": 4128,
      "labhyate": 4129,
      "ba̱rhi": 4130,
      "etan": 4131,
      "sru": 4132,
      "āt": 4133,
      "āsthitaḥ": 4134,
      "ūcu": 4135,
      "̍ś": 4136,
      "ṛddhi": 4137,
      "yatu": 4138,
      "yadya": 4139,
      "tal": 4140,
      "mataṃ": 4141,
      "matāṃ": 4142,
      "paru": 4143,
      "gaṇāḥ": 4144,
      "prahara": 4145,
      "jano": 4146,
      "rupa": 4147,
      "dinī": 4148,
      "nod": 4149,
      "mantreṇa": 4150,
      "budhaḥ": 4151,
      "mohā": 4152,
      "nirvi": 4153,
      "sthitau": 4154,
      "dīkṣā": 4155,
      "hṛtam": 4156,
      "cittā": 4157,
      "ratnaṃ": 4158,
      "mahatā": 4159,
      "va̱ḥ": 4160,
      "rthī": 4161,
      "manasi": 4162,
      "viṣaṃ": 4163,
      "prāpnoti": 4164,
      "śṛṇo": 4165,
      "sūryā": 4166,
      "vināya": 4167,
      "rājānaṃ": 4168,
      "smād": 4169,
      "adhi̍": 4170,
      "pater": 4171,
      "vākyam": 4172,
      "puras": 4173,
      "vyavahā": 4174,
      "prathama": 4175,
      "rthāya": 4176,
      "lakṣmaṇa": 4177,
      "vapuḥ": 4178,
      "kailā": 4179,
      "saṃsāre": 4180,
      "kevalaṃ": 4181,
      "catvāri": 4182,
      "śārdū": 4183,
      "gambhīra": 4184,
      "sakalaṃ": 4185,
      "pṛthi̱vī": 4186,
      "varārohe": 4187,
      "gnī": 4188,
      "ime": 4189,
      "ikaṃ": 4190,
      "jj": 4191,
      "nyaset": 4192,
      "rha": 4193,
      "rcya": 4194,
      "āra": 4195,
      "ṛṣ": 4196,
      "yaiḥ": 4197,
      "tarā": 4198,
      "vast": 4199,
      "vanda": 4200,
      "savitā": 4201,
      "sakhī": 4202,
      "carī": 4203,
      "caivā": 4204,
      "vinī": 4205,
      "kapāla": 4206,
      "niśamya": 4207,
      "prabha": 4208,
      "ṣa̍": 4209,
      "ritam": 4210,
      "kālena": 4211,
      "sukhe": 4212,
      "ṣṭvā": 4213,
      "vega": 4214,
      "dite": 4215,
      "dikṣu": 4216,
      "puṭa": 4217,
      "sarpa": 4218,
      "citam": 4219,
      "kṣaṇāt": 4220,
      "lāla": 4221,
      "tyanta": 4222,
      "nta̱": 4223,
      "bhūd": 4224,
      "bhūte": 4225,
      "mahābhāga": 4226,
      "kin": 4227,
      "bhuva̍": 4228,
      "vyāpa": 4229,
      "vyākhyā": 4230,
      "krame": 4231,
      "peṇa": 4232,
      "ghaṇ": 4233,
      "bhogā": 4234,
      "dhīrasya": 4235,
      "sīt": 4236,
      "rājaṃ": 4237,
      "darśana": 4238,
      "viśvam": 4239,
      "yamānaṃ": 4240,
      "dhṛtvā": 4241,
      "śriyam": 4242,
      "pūrvavat": 4243,
      "athavā": 4244,
      "naumi": 4245,
      "bhavāḥ": 4246,
      "varuṇa": 4247,
      "bhāvāt": 4248,
      "buddhyā": 4249,
      "caritaṃ": 4250,
      "bhāṣata": 4251,
      "khaḍga": 4252,
      "istu": 4253,
      "phā": 4254,
      "ṇṭ": 4255,
      "raktā": 4256,
      "rajaḥ": 4257,
      "hataṃ": 4258,
      "nad": 4259,
      "saca": 4260,
      "paśa": 4261,
      "nidrā": 4262,
      "pradī": 4263,
      "layaḥ": 4264,
      "kāyo": 4265,
      "pātra": 4266,
      "pātre": 4267,
      "suṣu": 4268,
      "sā̍": 4269,
      "trayam": 4270,
      "diśya": 4271,
      "bhānu": 4272,
      "dhiḥ": 4273,
      "tyam": 4274,
      "tyarthaṃ": 4275,
      "mahābāhu": 4276,
      "khal": 4277,
      "rūpo": 4278,
      "kecit": 4279,
      "mantro": 4280,
      "mṛdu": 4281,
      "hastaṃ": 4282,
      "karṇi": 4283,
      "dhīmān": 4284,
      "duḥkhe": 4285,
      "yukte": 4286,
      "yuktvā": 4287,
      "ghrā": 4288,
      "viśvā̱": 4289,
      "indrā": 4290,
      "mūle": 4291,
      "dhṛta": 4292,
      "pūrvam": 4293,
      "dhūma": 4294,
      "vidhiḥ": 4295,
      "śabdo": 4296,
      "hitāya": 4297,
      "varuṇā": 4298,
      "ātmānam": 4299,
      "sāgara": 4300,
      "de̱vānā": 4301,
      "dadyāt": 4302,
      "pratiṣṭhāpya": 4303,
      "dhatte": 4304,
      "sarvabhūtānāṃ": 4305,
      "ucca": 4306,
      "āpa": 4307,
      "̍ni": 4308,
      "matta": 4309,
      "mayū": 4310,
      "sa̱m": 4311,
      "patī": 4312,
      "patrā": 4313,
      "hān": 4314,
      "tāraṃ": 4315,
      "niveśa": 4316,
      "pramu": 4317,
      "praviśya": 4318,
      "ritaḥ": 4319,
      "pāka": 4320,
      "supra": 4321,
      "saṃhṛ": 4322,
      "saṃgha": 4323,
      "saṃhāra": 4324,
      "kṣyā": 4325,
      "bhāska": 4326,
      "yutā": 4327,
      "tyaḥ": 4328,
      "tīha": 4329,
      "liṅgaṃ": 4330,
      "kṣiti": 4331,
      "kṣipta": 4332,
      "sattve": 4333,
      "kartṛ": 4334,
      "karṇya": 4335,
      "dvijāḥ": 4336,
      "pūrṇaṃ": 4337,
      "dhe̱": 4338,
      "dharmam": 4339,
      "sūtraṃ": 4340,
      "prāpnu": 4341,
      "ghoṣaṃ": 4342,
      "śivaṃ": 4343,
      "maheśvaraḥ": 4344,
      "śakyate": 4345,
      "ātmanā": 4346,
      "bhrānti": 4347,
      "kausa": 4348,
      "bravīd": 4349,
      "vaktraṃ": 4350,
      "ghṛta": 4351,
      "dharaṇī": 4352,
      "vṛṣa̱": 4353,
      "pauru": 4354,
      "adbhu": 4355,
      "bhadre": 4356,
      "āsīt": 4357,
      "puṃga": 4358,
      "vibhuḥ": 4359,
      "kāñcana": 4360,
      "adho": 4361,
      "vrī": 4362,
      "ū̱r": 4363,
      "yajñe": 4364,
      "raṁ": 4365,
      "vand": 4366,
      "matam": 4367,
      "palla": 4368,
      "vāsaṃ": 4369,
      "vibhāva": 4370,
      "tira": 4371,
      "kasyā": 4372,
      "kapo": 4373,
      "hitvā": 4374,
      "nāmi": 4375,
      "bhraṃ": 4376,
      "kāreṇa": 4377,
      "pāhi": 4378,
      "pāli": 4379,
      "pāṇe": 4380,
      "suvarṇa": 4381,
      "sākṣi": 4382,
      "saṃsthitā": 4383,
      "bhidhā": 4384,
      "bhā̱": 4385,
      "yuddhe": 4386,
      "kṛtāṃ": 4387,
      "kṣaye": 4388,
      "meghā": 4389,
      "jānī": 4390,
      "śākhā": 4391,
      "svadhā": 4392,
      "khara": 4393,
      "ddhar": 4394,
      "jitam": 4395,
      "samālokya": 4396,
      "yinī": 4397,
      "stuti": 4398,
      "pṛ̱": 4399,
      "grataḥ": 4400,
      "graham": 4401,
      "ṣitā": 4402,
      "ceṣṭi": 4403,
      "dhehi": 4404,
      "gira": 4405,
      "mārka": 4406,
      "ātmanaḥ": 4407,
      "maitre": 4408,
      "bhrātā": 4409,
      "svarṇa": 4410,
      "deveśa": 4411,
      "hṛdaye": 4412,
      "kuśala": 4413,
      "viśāra": 4414,
      "sarasvatī": 4415,
      "namastubhyaṃ": 4416,
      "dbhir": 4417,
      "ena": 4418,
      "krāma": 4419,
      "rta": 4420,
      "ugra": 4421,
      "ī̍": 4422,
      "̍ṣṭha": 4423,
      "ṃśca": 4424,
      "yaśa": 4425,
      "yaśo": 4426,
      "haviṣā": 4427,
      "vāt": 4428,
      "vāṁ": 4429,
      "vānara": 4430,
      "vibu": 4431,
      "kati": 4432,
      "kada": 4433,
      "kaśya": 4434,
      "rājya": 4435,
      "tābhyāṃ": 4436,
      "dari": 4437,
      "dayo": 4438,
      "śatam": 4439,
      "kāram": 4440,
      "dhūr": 4441,
      "suprabhā": 4442,
      "saṃjña": 4443,
      "saṃkhye": 4444,
      "pitara": 4445,
      "dhā̍": 4446,
      "tvān": 4447,
      "nupa": 4448,
      "lāni": 4449,
      "vīkṣya": 4450,
      "tasyāṃ": 4451,
      "cchu": 4452,
      "jine": 4453,
      "bhuṅ": 4454,
      "kṣipya": 4455,
      "hṛt": 4456,
      "pekṣa": 4457,
      "stadā": 4458,
      "stataḥ": 4459,
      "lambi": 4460,
      "dhī̱": 4461,
      "sītāṃ": 4462,
      "tante": 4463,
      "pīḍa": 4464,
      "līlā": 4465,
      "kṣetraṃ": 4466,
      "bodhiṃ": 4467,
      "yamānā": 4468,
      "lakṣaṇā": 4469,
      "dhūpa": 4470,
      "hanū": 4471,
      "hṛdaya": 4472,
      "druma": 4473,
      "ndriya": 4474,
      "kaścit": 4475,
      "kaścid": 4476,
      "kurvīta": 4477,
      "rāghavaḥ": 4478,
      "yogāt": 4479,
      "e̱vā": 4480,
      "prakīrtitaḥ": 4481,
      "stathaiva": 4482,
      "asma": 4483,
      "hri": 4484,
      "kruddho": 4485,
      "spha": 4486,
      "uru": 4487,
      "śvinā": 4488,
      "̱te": 4489,
      "̱tam": 4490,
      "raiḥ": 4491,
      "vaśa": 4492,
      "vasthā": 4493,
      "saci": 4494,
      "saptā": 4495,
      "yāś": 4496,
      "yāṇāṃ": 4497,
      "vāso": 4498,
      "vādya": 4499,
      "vidh": 4500,
      "vidā": 4501,
      "vistā": 4502,
      "tiṣṭhe": 4503,
      "ka̍": 4504,
      "tāś": 4505,
      "dadh": 4506,
      "māsa": 4507,
      "niṣa": 4508,
      "praśa": 4509,
      "pradhā": 4510,
      "laye": 4511,
      "bhavi": 4512,
      "kāt": 4513,
      "kārī": 4514,
      "pāśā": 4515,
      "ciki": 4516,
      "kṛtāḥ": 4517,
      "tvayy": 4518,
      "medha": 4519,
      "tīḥ": 4520,
      "gul": 4521,
      "soma̱": 4522,
      "samācaret": 4523,
      "gopā": 4524,
      "dīni": 4525,
      "samam": 4526,
      "śobhā": 4527,
      "dvidhā": 4528,
      "ṣitaḥ": 4529,
      "dheḥ": 4530,
      "vanto": 4531,
      "śīti": 4532,
      "vraje": 4533,
      "̱m̐": 4534,
      "varaṇa": 4535,
      "maharṣa": 4536,
      "sadā̍": 4537,
      "jena": 4538,
      "mana̍": 4539,
      "mātre": 4540,
      "pannaḥ": 4541,
      "carati": 4542,
      "arca": 4543,
      "arthā": 4544,
      "puruṣaḥ": 4545,
      "śritaḥ": 4546,
      "sūryo": 4547,
      "kṣīṇa": 4548,
      "vidhau": 4549,
      "duḥkham": 4550,
      "sādhanam": 4551,
      "siddhir": 4552,
      "kauśa": 4553,
      "viṣṇuḥ": 4554,
      "mithyā": 4555,
      "kadācana": 4556,
      "nāśanam": 4557,
      "cintayet": 4558,
      "pūjāṃ": 4559,
      "vyāghra": 4560,
      "adhyā": 4561,
      "cyā": 4562,
      "ive": 4563,
      "āśca": 4564,
      "īśvara": 4565,
      "ṛ̍": 4566,
      "raca": 4567,
      "tayoḥ": 4568,
      "hai": 4569,
      "mabhi": 4570,
      "mali": 4571,
      "mahaṃ": 4572,
      "matir": 4573,
      "saj": 4574,
      "patat": 4575,
      "vica": 4576,
      "kaṁ": 4577,
      "dala": 4578,
      "daye": 4579,
      "mālya": 4580,
      "niga": 4581,
      "pravar": 4582,
      "kāmān": 4583,
      "syate": 4584,
      "syanti": 4585,
      "yojana": 4586,
      "toṣa": 4587,
      "bhāgya": 4588,
      "yudha": 4589,
      "cārī": 4590,
      "bhūḥ": 4591,
      "nī̍": 4592,
      "śitā": 4593,
      "cchaṃ": 4594,
      "yamo": 4595,
      "jitendri": 4596,
      "trāhi": 4597,
      "tmajā": 4598,
      "yitā": 4599,
      "khyāṃ": 4600,
      "kṣipet": 4601,
      "syāsya": 4602,
      "ṇeṣu": 4603,
      "samar": 4604,
      "ryamā": 4605,
      "vido": 4606,
      "ceṣṭā": 4607,
      "jīvā": 4608,
      "sīd": 4609,
      "bhaven": 4610,
      "rūpaḥ": 4611,
      "kvacid": 4612,
      "a̍sya": 4613,
      "darśanā": 4614,
      "smṛtvā": 4615,
      "niḥsṛ": 4616,
      "dānavā": 4617,
      "----": 4618,
      "cetasā": 4619,
      "surāsura": 4620,
      "kalyāṇa": 4621,
      "nārāyaṇa": 4622,
      "bahiḥ": 4623,
      "māyayā": 4624,
      "kurvanti": 4625,
      "bhāṣitam": 4626,
      "rājendra": 4627,
      "rātrau": 4628,
      "narmadā": 4629,
      "ṅghri": 4630,
      "anṛ": 4631,
      "jju": 4632,
      "ṣmā": 4633,
      "yaiva": 4634,
      "yatī": 4635,
      "vadhū": 4636,
      "hāni": 4637,
      "dade": 4638,
      "māsā": 4639,
      "jayati": 4640,
      "dhanyā": 4641,
      "saṃga": 4642,
      "saṃvatsa": 4643,
      "pitaṃ": 4644,
      "mud": 4645,
      "dhikā": 4646,
      "meṣa": 4647,
      "metat": 4648,
      "cāpa": 4649,
      "loha": 4650,
      "vī̍": 4651,
      "duhi": 4652,
      "gāyat": 4653,
      "tattvam": 4654,
      "kil": 4655,
      "mandi": 4656,
      "mokṣo": 4657,
      "syāḥ": 4658,
      "śoṣa": 4659,
      "a̱yaṁ": 4660,
      "pūru": 4661,
      "dvijaḥ": 4662,
      "hīna": 4663,
      "hīnaṃ": 4664,
      "patitaṃ": 4665,
      "dhīro": 4666,
      "śrayaḥ": 4667,
      "svāṃ": 4668,
      "lokasya": 4669,
      "̍ṁsi": 4670,
      "darśanāt": 4671,
      "mūlaṃ": 4672,
      "vṛttaṃ": 4673,
      "guṇaiḥ": 4674,
      "vi̱d": 4675,
      "kṛṣṇaṃ": 4676,
      "garbho": 4677,
      "saratāṃ": 4678,
      "harati": 4679,
      "śabdaḥ": 4680,
      "rakṣatu": 4681,
      "bhrātṛ": 4682,
      "dharmātmā": 4683,
      "sahasraśaḥ": 4684,
      "vasudhā": 4685,
      "jyotir": 4686,
      "śāntaṃ": 4687,
      "gaurī": 4688,
      "aprame": 4689,
      "guroḥ": 4690,
      "nimittaṃ": 4691,
      "śīghraṃ": 4692,
      "siddhya": 4693,
      "ahi": 4694,
      "amṛta": 4695,
      "ito": 4696,
      "pyaṃ": 4697,
      "rṣi": 4698,
      "stān": 4699,
      "upari": 4700,
      "ās": 4701,
      "ākhyā": 4702,
      "ślā": 4703,
      "śle": 4704,
      "̍tā": 4705,
      "ṃśu": 4706,
      "ṣve": 4707,
      "tare": 4708,
      "tadi": 4709,
      "ta̱ṁ": 4710,
      "mayam": 4711,
      "saga": 4712,
      "sa̍ḥ": 4713,
      "vāmahe": 4714,
      "cand": 4715,
      "māga": 4716,
      "teṣā": 4717,
      "śaśa": 4718,
      "lag": 4719,
      "jaṅ": 4720,
      "tumar": 4721,
      "kāmaḥ": 4722,
      "pādaṃ": 4723,
      "pārva": 4724,
      "yod": 4725,
      "saṃca": 4726,
      "saṃbuddha": 4727,
      "pitaḥ": 4728,
      "pula": 4729,
      "rohi": 4730,
      "kṛd": 4731,
      "si̍": 4732,
      "cānye": 4733,
      "śāni": 4734,
      "śāst": 4735,
      "śāstrā": 4736,
      "ntas": 4737,
      "gād": 4738,
      "ttare": 4739,
      "bhujā": 4740,
      "samākhyā": 4741,
      "triṣu": 4742,
      "tmane": 4743,
      "tmakam": 4744,
      "hīṃ": 4745,
      "paśū": 4746,
      "dhīrā": 4747,
      "parṇa": 4748,
      "tanū": 4749,
      "va̱n": 4750,
      "va̱yam": 4751,
      "indro̍": 4752,
      "panno": 4753,
      "guṇair": 4754,
      "grāme": 4755,
      "kṛṣṇo": 4756,
      "lokeśa": 4757,
      "garbhe": 4758,
      "yūyaṃ": 4759,
      "bṛ̱ha": 4760,
      "pṛthivyā": 4761,
      "samantāt": 4762,
      "striyaḥ": 4763,
      "bhūmiṃ": 4764,
      "spṛśa": 4765,
      "dvitīyā": 4766,
      "vāsinaḥ": 4767,
      "dadyād": 4768,
      "dā̱śuṣe": 4769,
      "prayatnena": 4770,
      "cūḍā": 4771,
      "mārkaṇḍe": 4772,
      "ajñā": 4773,
      "ajñāna": 4774,
      "chṛ": 4775,
      "enam": 4776,
      "ite": 4777,
      "iṣi": 4778,
      "mye": 4779,
      "pte": 4780,
      "ṇyam": 4781,
      "vatāṃ": 4782,
      "malā": 4783,
      "sapadi": 4784,
      "vādī": 4785,
      "vimṛ": 4786,
      "vidhu": 4787,
      "vipre": 4788,
      "vijñānaṃ": 4789,
      "vidāṃ": 4790,
      "kaśca": 4791,
      "nār": 4792,
      "nāthā": 4793,
      "prathi": 4794,
      "pratāpa": 4795,
      "dhanam": 4796,
      "kākut": 4797,
      "suvrate": 4798,
      "sārtha": 4799,
      "pituḥ": 4800,
      "muṣ": 4801,
      "roga": 4802,
      "bhās": 4803,
      "kṛtiḥ": 4804,
      "kṣaṇe": 4805,
      "śāra": 4806,
      "sarvadharmā": 4807,
      "mahādeva": 4808,
      "homa": 4809,
      "ṣān": 4810,
      "gāmi": 4811,
      "śira": 4812,
      "śinī": 4813,
      "tattve": 4814,
      "bhavataḥ": 4815,
      "ttaraṃ": 4816,
      "ttaram": 4817,
      "mṛ̱": 4818,
      "voca": 4819,
      "tmano": 4820,
      "gotra": 4821,
      "kṣitam": 4822,
      "syām": 4823,
      "madhyā": 4824,
      "vidyāṃ": 4825,
      "bhedo": 4826,
      "śīṃ": 4827,
      "parāṃ": 4828,
      "śrayā": 4829,
      "brahmaṇo": 4830,
      "jananī": 4831,
      "pathe": 4832,
      "agho": 4833,
      "dharmeṇa": 4834,
      "yasya̍": 4835,
      "anv": 4836,
      "dhvani": 4837,
      "janmā": 4838,
      "vajrayogi": 4839,
      "gurur": 4840,
      "yogataḥ": 4841,
      "datto": 4842,
      "gniṃ": 4843,
      "śreṣṭhaṃ": 4844,
      "stotraṃ": 4845,
      "rasāya": 4846,
      "munīndra": 4847,
      "niyataṃ": 4848,
      "vīryavān": 4849,
      "śrāddha": 4850,
      "gocaram": 4851,
      "chrutvā": 4852,
      "sākṣāt": 4853,
      "draṣṭuṃ": 4854,
      "nimitta": 4855,
      "amā": 4856,
      "aṅgā": 4857,
      "gram": 4858,
      "̍ṇā": 4859,
      "vani": 4860,
      "vakta": 4861,
      "hato": 4862,
      "haraṃ": 4863,
      "hatyā": 4864,
      "matvā": 4865,
      "mart": 4866,
      "padaḥ": 4867,
      "viha": 4868,
      "rāmam": 4869,
      "tebhyo": 4870,
      "śakta": 4871,
      "jalaṃ": 4872,
      "bhag": 4873,
      "dhani": 4874,
      "tulaṃ": 4875,
      "kāś": 4876,
      "kāṣṭha": 4877,
      "syanda": 4878,
      "ṣṭiḥ": 4879,
      "dāri": 4880,
      "dāne": 4881,
      "deka": 4882,
      "veṣṭi": 4883,
      "saṃvṛ": 4884,
      "pito": 4885,
      "pibe": 4886,
      "reṇā": 4887,
      "muṣṭi": 4888,
      "dhiṃ": 4889,
      "tvaṣṭā": 4890,
      "mevā": 4891,
      "balī": 4892,
      "hetoḥ": 4893,
      "bhūti": 4894,
      "gā̱": 4895,
      "ccho": 4896,
      "rambha": 4897,
      "mantha": 4898,
      "dṛśya": 4899,
      "vor": 4900,
      "jitvā": 4901,
      "nirmi": 4902,
      "bhukti": 4903,
      "bhuvaḥ": 4904,
      "devam": 4905,
      "yiṣyati": 4906,
      "hṛta": 4907,
      "a̱mṛ": 4908,
      "dyau": 4909,
      "ṣita": 4910,
      "cchati": 4911,
      "vantu": 4912,
      "dhīr": 4913,
      "śraddha": 4914,
      "pīḍā": 4915,
      "va̱d": 4916,
      "ya̱ḥ": 4917,
      "śriyā": 4918,
      "kṣīra": 4919,
      "pratyaya": 4920,
      "sādhakaḥ": 4921,
      "naumyahaṃ": 4922,
      "prīto": 4923,
      "snāna": 4924,
      "trīṇi": 4925,
      "kriyāsuḥ": 4926,
      "vihāya": 4927,
      "bharaṇabhūṣi": 4928,
      "durlabham": 4929,
      "';": 4930,
      "cur": 4931,
      "eṣāṃ": 4932,
      "icchāmi": 4933,
      "kūr": 4934,
      "syur": 4935,
      "ḍh": 4936,
      "ṅkuśa": 4937,
      "yajño": 4938,
      "vari": 4939,
      "vaiva": 4940,
      "sataḥ": 4941,
      "vāc": 4942,
      "vāli": 4943,
      "caki": 4944,
      "kaṭ": 4945,
      "mārī": 4946,
      "gaṇḍa": 4947,
      "tumi": 4948,
      "dhyaṃ": 4949,
      "dhva̱": 4950,
      "syaṃ": 4951,
      "pādo": 4952,
      "saṃsa": 4953,
      "kṣyate": 4954,
      "puṭe": 4955,
      "yukti": 4956,
      "kulo": 4957,
      "ndreṇa": 4958,
      "gāya": 4959,
      "bhavato": 4960,
      "bhavaty": 4961,
      "śvarā": 4962,
      "devair": 4963,
      "śet": 4964,
      "dīnā": 4965,
      "pṛṣṭhe": 4966,
      "pūj": 4967,
      "sevā": 4968,
      "citte": 4969,
      "rājasya": 4970,
      "vratam": 4971,
      "tava̍": 4972,
      "upa̱": 4973,
      "māṃsaṃ": 4974,
      "ḍaṃ": 4975,
      "punas": 4976,
      "ñjaliḥ": 4977,
      "niḥśeṣa": 4978,
      "de̱vo": 4979,
      "tiṣṭhatāṃ": 4980,
      "yogaḥ": 4981,
      "manuṣ": 4982,
      "sārathi": 4983,
      "tasyāpi": 4984,
      "bhaviṣyasi": 4985,
      "gacchanti": 4986,
      "vyavasthitāḥ": 4987,
      "krodhā": 4988,
      "i̍va": 4989,
      "nūnaṃ": 4990,
      "gṛhṇī": 4991,
      "dvitīyaṃ": 4992,
      "tatrāpi": 4993,
      "mātaraṃ": 4994,
      "vijñāya": 4995,
      "varṣāṇi": 4996,
      "tīkṣṇa": 4997,
      "kruddhaḥ": 4998,
      "(?)": 4999,
      "asu": 5000,
      "adi̍": 5001,
      "gnau": 5002,
      "jjvala": 5003,
      "psu": 5004,
      "tthi": 5005,
      "āca": 5006,
      "śmi": 5007,
      "̍ti": 5008,
      "̍mā": 5009,
      "̱h": 5010,
      "̱ṣā": 5011,
      "ḍo": 5012,
      "ṅg": 5013,
      "yamu": 5014,
      "tanya": 5015,
      "vahan": 5016,
      "mava": 5017,
      "nahi": 5018,
      "natvā": 5019,
      "sakṛt": 5020,
      "papra": 5021,
      "payaḥ": 5022,
      "yānaṃ": 5023,
      "vāme": 5024,
      "virāja": 5025,
      "rāḍ": 5026,
      "tār": 5027,
      "darāt": 5028,
      "niveda": 5029,
      "śastra": 5030,
      "pradhāna": 5031,
      "bhyam": 5032,
      "bhai": 5033,
      "riṇī": 5034,
      "yog": 5035,
      "sāraṃ": 5036,
      "vedo": 5037,
      "dik": 5038,
      "ci̍d": 5039,
      "dhānam": 5040,
      "kṣatra": 5041,
      "nedaṃ": 5042,
      "lāpa": 5043,
      "bhūtānāṃ": 5044,
      "sarvakāma": 5045,
      "mahāmune": 5046,
      "prādur": 5047,
      "prāṇān": 5048,
      "tasyo": 5049,
      "khala": 5050,
      "bhavate": 5051,
      "kecid": 5052,
      "śvare": 5053,
      "jñāta": 5054,
      "mandā": 5055,
      "dṛśo": 5056,
      "budh": 5057,
      "yathāvidhi": 5058,
      "yathākramam": 5059,
      "tadvad": 5060,
      "triḥ": 5061,
      "kramā": 5062,
      "samaḥ": 5063,
      "pṛth": 5064,
      "petaṃ": 5065,
      "pūrve": 5066,
      "madhyamā": 5067,
      "vratā": 5068,
      "karaṇā": 5069,
      "poṣa": 5070,
      "manaso": 5071,
      "indo": 5072,
      "muktvā": 5073,
      "śūdra": 5074,
      "mūḍhā": 5075,
      "bhṛgu": 5076,
      "viṣayā": 5077,
      "ghorā": 5078,
      "preṣa": 5079,
      "cchāyā": 5080,
      "manora": 5081,
      "uttara": 5082,
      "ratham": 5083,
      "rathaḥ": 5084,
      "stotra": 5085,
      "nirañja": 5086,
      "bandhaḥ": 5087,
      "gandhi": 5088,
      "chin": 5089,
      "paryanta": 5090,
      "śveta": 5091,
      "pravṛtti": 5092,
      "japet": 5093,
      "daśabalavara": 5094,
      "prayatnataḥ": 5095,
      "kaikeyī": 5096,
      "parityajya": 5097,
      "aprati": 5098,
      "asmai": 5099,
      "gdhā": 5100,
      "imu": 5101,
      "myāṃ": 5102,
      "pyu": 5103,
      "uc": 5104,
      "uktā": 5105,
      "āste": 5106,
      "̍ma": 5107,
      "ya̍m": 5108,
      "ratā": 5109,
      "vali": 5110,
      "haraḥ": 5111,
      "hantā": 5112,
      "nala": 5113,
      "naṣṭa": 5114,
      "yādi": 5115,
      "hāṃ": 5116,
      "vikhyā": 5117,
      "rājño": 5118,
      "māṇa": 5119,
      "nāsā": 5120,
      "nānya": 5121,
      "ninda": 5122,
      "pradāya": 5123,
      "prabhaḥ": 5124,
      "bhas": 5125,
      "kās": 5126,
      "kālī": 5127,
      "dhyāṃ": 5128,
      "pātāla": 5129,
      "ruḥ": 5130,
      "sāha": 5131,
      "deśā": 5132,
      "thavā": 5133,
      "saṃkalpa": 5134,
      "ditvā": 5135,
      "pudga": 5136,
      "yu̍": 5137,
      "dhi̍": 5138,
      "tvameva": 5139,
      "cātra": 5140,
      "cārya": 5141,
      "tī̱": 5142,
      "tīvra": 5143,
      "ntau": 5144,
      "bhūmī": 5145,
      "sarvabhūta": 5146,
      "vṛddhā": 5147,
      "prāpa": 5148,
      "tastu": 5149,
      "gāṃ": 5150,
      "śikhi": 5151,
      "śvari": 5152,
      "nirvikalpa": 5153,
      "sthira": 5154,
      "bhuvaṃ": 5155,
      "samākhyātaṃ": 5156,
      "trita": 5157,
      "tribhuvana": 5158,
      "parasya": 5159,
      "samū": 5160,
      "ṣi̍": 5161,
      "bāhya": 5162,
      "gṛ̱": 5163,
      "nṛpo": 5164,
      "a̍sya̱": 5165,
      "śrīr": 5166,
      "rthya": 5167,
      "caraṇā": 5168,
      "ardha": 5169,
      "bhṛt": 5170,
      "bhṛśaṃ": 5171,
      "puṣpaṃ": 5172,
      "maṇḍalaṃ": 5173,
      "hūṃ": 5174,
      "tathaivā": 5175,
      "guṇāḥ": 5176,
      "siṃhā": 5177,
      "nāyaka": 5178,
      "chanda": 5179,
      "mauli": 5180,
      "evāham": 5181,
      "nayana": 5182,
      "tattvataḥ": 5183,
      "yajñaṃ": 5184,
      "sāgare": 5185,
      "jānanti": 5186,
      "samīkṣya": 5187,
      "paṭhe": 5188,
      "śuciḥ": 5189,
      "dehinām": 5190,
      "kaṇṭhe": 5191,
      "a̱smāka": 5192,
      "sāmānya": 5193,
      "jaghāna": 5194,
      "bdha": 5195,
      "khu": 5196,
      "nyathā": 5197,
      "ndaṃ": 5198,
      "ptam": 5199,
      "spati": 5200,
      "vyena": 5201,
      "śvi": 5202,
      "̍sya̱": 5203,
      "ḍham": 5204,
      "ṣvā": 5205,
      "vayo": 5206,
      "vasva": 5207,
      "hataḥ": 5208,
      "havya": 5209,
      "navā": 5210,
      "na̱ḥ": 5211,
      "pa̱r": 5212,
      "yāhi": 5213,
      "vāta": 5214,
      "catas": 5215,
      "vilo": 5216,
      "vihva": 5217,
      "vidhīyate": 5218,
      "rādi": 5219,
      "rāmeṇa": 5220,
      "mānī": 5221,
      "niyama": 5222,
      "prau": 5223,
      "prasara": 5224,
      "prabodha": 5225,
      "lalā": 5226,
      "bhy": 5227,
      "jau": 5228,
      "kālam": 5229,
      "dhy": 5230,
      "syasi": 5231,
      "yogo": 5232,
      "sugatā": 5233,
      "traye": 5234,
      "dibhir": 5235,
      "toya": 5236,
      "sarpi": 5237,
      "yuddhaṃ": 5238,
      "kṣayaṃ": 5239,
      "kṣaṇena": 5240,
      "mekaṃ": 5241,
      "mevaṃ": 5242,
      "jāte": 5243,
      "jāga": 5244,
      "svabhāvā": 5245,
      "ntaram": 5246,
      "noda": 5247,
      "prācī": 5248,
      "śuśrū": 5249,
      "kirī": 5250,
      "ttarā": 5251,
      "keci": 5252,
      "likhi": 5253,
      "dṛśaṃ": 5254,
      "yatnataḥ": 5255,
      "dīpta": 5256,
      "bhonti": 5257,
      "dyaiḥ": 5258,
      "dhenu": 5259,
      "dhīra": 5260,
      "ṣṭāṃ": 5261,
      "sandhyā": 5262,
      "samudā": 5263,
      "śruta": 5264,
      "pītvā": 5265,
      "śaṃsa": 5266,
      "kṣetrā": 5267,
      "ma̱hī": 5268,
      "viśrā": 5269,
      "indro̱": 5270,
      "dṛṣṭo": 5271,
      "mayāya": 5272,
      "viṣaye": 5273,
      "bhyarcya": 5274,
      "sūrya̍": 5275,
      "prokto": 5276,
      "martyā": 5277,
      "harir": 5278,
      "prajāpatiḥ": 5279,
      "vidhānena": 5280,
      "vidhaḥ": 5281,
      "tadanu": 5282,
      "siddhiḥ": 5283,
      "śreya": 5284,
      "rākṣase": 5285,
      "purastā": 5286,
      "sadyo": 5287,
      "viṣṇuṃ": 5288,
      "siddhaye": 5289,
      "śarīre": 5290,
      "buddhiḥ": 5291,
      "bhūmir": 5292,
      "ṅgula": 5293,
      "rājye": 5294,
      "vakṣye": 5295,
      "rṇava": 5296,
      "adri": 5297,
      "yoniṃ": 5298,
      "locanaḥ": 5299,
      "dagdha": 5300,
      "....": 5301,
      "rakṣāṃ": 5302,
      "śūnyatā": 5303,
      "kṛpayā": 5304,
      "mārgeṇa": 5305,
      "krūra": 5306,
      "labhet": 5307,
      "yojanānāṃ": 5308,
      "suprabhātaṃ": 5309,
      "abha": 5310,
      "acchā": 5311,
      "dūr": 5312,
      "enaṃ": 5313,
      "mri": 5314,
      "psa": 5315,
      "stena": 5316,
      "ubha": 5317,
      "ñco": 5318,
      "yaśaḥ": 5319,
      "raghu": 5320,
      "tadar": 5321,
      "hava": 5322,
      "hasan": 5323,
      "mato": 5324,
      "majja": 5325,
      "napi": 5326,
      "hārī": 5327,
      "viśodha": 5328,
      "tāpi": 5329,
      "daśe": 5330,
      "māhe": 5331,
      "nāka": 5332,
      "nādhi": 5333,
      "pravā": 5334,
      "jara": 5335,
      "ṣaṣṭi": 5336,
      "kāmi": 5337,
      "deyaṃ": 5338,
      "tham": 5339,
      "tha̱": 5340,
      "veśma": 5341,
      "saṃbhāra": 5342,
      "mitraṃ": 5343,
      "kṣva": 5344,
      "kṣyaṃ": 5345,
      "diṣṭa": 5346,
      "bhiṣi": 5347,
      "dhānya": 5348,
      "dhir": 5349,
      "dhiṣṭhā": 5350,
      "tvada": 5351,
      "badh": 5352,
      "siddhe": 5353,
      "kuli": 5354,
      "bhūya": 5355,
      "mahākāla": 5356,
      "ṣāya": 5357,
      "taso": 5358,
      "śirasi": 5359,
      "khaṃ": 5360,
      "rūḍhā": 5361,
      "jino": 5362,
      "kośa": 5363,
      "yantaḥ": 5364,
      "tasyaiva": 5365,
      "trir": 5366,
      "tri̱": 5367,
      "tridhā": 5368,
      "stutvā": 5369,
      "kravyā": 5370,
      "a̱dya": 5371,
      "bhedena": 5372,
      "cittaḥ": 5373,
      "ginī": 5374,
      "brahmaṇaḥ": 5375,
      "śrutaṃ": 5376,
      "tiṣṭhanti": 5377,
      "smākaṃ": 5378,
      "uddhṛ": 5379,
      "i̱mā": 5380,
      "hantuṃ": 5381,
      "maithi": 5382,
      "rākṣasī": 5383,
      "trīṃ": 5384,
      "janmani": 5385,
      "gamanaṃ": 5386,
      "bhartṛ": 5387,
      "dhruvaṃ": 5388,
      "muktir": 5389,
      "gṛhṇāti": 5390,
      "āsīd": 5391,
      "vipula": 5392,
      "kuṇḍala": 5393,
      "parasparam": 5394,
      "jyeṣṭha": 5395,
      "ccārya": 5396,
      "cūrṇa": 5397,
      "adhva̱": 5398,
      "i̍ndra̱": 5399,
      "śākyasiṃ": 5400,
      "ra̱yiṁ": 5401,
      "adi": 5402,
      "alam": 5403,
      "oda": 5404,
      "rvā": 5405,
      "stad": 5406,
      "ts": 5407,
      "tryā": 5408,
      "uka": 5409,
      "udī": 5410,
      "ñji": 5411,
      "āgne": 5412,
      "̍s": 5413,
      "̍ṇi": 5414,
      "yaj": 5415,
      "yaja̍": 5416,
      "rataḥ": 5417,
      "rair": 5418,
      "tadeva": 5419,
      "vato": 5420,
      "valī": 5421,
      "mame": 5422,
      "mahyam": 5423,
      "nata": 5424,
      "napā": 5425,
      "sañ": 5426,
      "satāṃ": 5427,
      "paṇa": 5428,
      "vātha": 5429,
      "vivi": 5430,
      "viṣu": 5431,
      "viveśa": 5432,
      "vicakṣa": 5433,
      "tāḍa": 5434,
      "daśī": 5435,
      "dadhātu": 5436,
      "niva": 5437,
      "pravara": 5438,
      "praśama": 5439,
      "jaṅga": 5440,
      "ṣa̱": 5441,
      "dharam": 5442,
      "rikā": 5443,
      "kā̱": 5444,
      "yeyaṃ": 5445,
      "ṣṭhitā": 5446,
      "saṃbhā": 5447,
      "diśā": 5448,
      "dikam": 5449,
      "cito": 5450,
      "ciram": 5451,
      "kṛdhi": 5452,
      "jāyata": 5453,
      "baddho": 5454,
      "cāro": 5455,
      "cānya": 5456,
      "cāpy": 5457,
      "bhūyā": 5458,
      "vardhi": 5459,
      "vṛthā": 5460,
      "śur": 5461,
      "ścatur": 5462,
      "ke̱": 5463,
      "keta": 5464,
      "jñānena": 5465,
      "yasyāḥ": 5466,
      "yantra": 5467,
      "nirvikal": 5468,
      "bhur": 5469,
      "tmakaḥ": 5470,
      "hasti": 5471,
      "dīna": 5472,
      "hṛtya": 5473,
      "a̱sma": 5474,
      "ṣito": 5475,
      "bodho": 5476,
      "gṛṇa": 5477,
      "gṛham": 5478,
      "śrayam": 5479,
      "tava̱": 5480,
      "janaiḥ": 5481,
      "priyaḥ": 5482,
      "dvayā": 5483,
      "devānām": 5484,
      "darśane": 5485,
      "indra̍m": 5486,
      "utpā": 5487,
      "jñeyo": 5488,
      "prekṣya": 5489,
      "tathatā": 5490,
      "prabhātam": 5491,
      "caturdaśa": 5492,
      "cchet": 5493,
      "snānaṃ": 5494,
      "paramo": 5495,
      "bhūmiḥ": 5496,
      "gaṇaiḥ": 5497,
      "mṛtyuṃ": 5498,
      "tejas": 5499,
      "śivāya": 5500,
      "jīvitaṃ": 5501,
      "haret": 5502,
      "agniṃ": 5503,
      "kathitā": 5504,
      "barhi": 5505,
      "yū̱yam": 5506,
      "tasthau": 5507,
      "ūcuḥ": 5508,
      "amo": 5509,
      "agha": 5510,
      "imi": 5511,
      "kyi": 5512,
      "plava": 5513,
      "uddha": 5514,
      "āsan": 5515,
      "ṇū": 5516,
      "ṇyāṃ": 5517,
      "rave": 5518,
      "tap": 5519,
      "tast": 5520,
      "vadha": 5521,
      "vaṭa": 5522,
      "maṇe": 5523,
      "nali": 5524,
      "narāḥ": 5525,
      "sahi": 5526,
      "sahe": 5527,
      "sava̍": 5528,
      "caika": 5529,
      "vimāna": 5530,
      "vighna": 5531,
      "vicitrā": 5532,
      "tiṣṭhā": 5533,
      "kaku": 5534,
      "rāhu": 5535,
      "tāsu": 5536,
      "tāvan": 5537,
      "mārā": 5538,
      "mātu": 5539,
      "tejaḥ": 5540,
      "gatau": 5541,
      "śaye": 5542,
      "pravra": 5543,
      "kāyaṃ": 5544,
      "sutāḥ": 5545,
      "su̱m": 5546,
      "sudāru": 5547,
      "dāha": 5548,
      "ruhya": 5549,
      "deśaṃ": 5550,
      "saṃsthitaḥ": 5551,
      "saṃsthitam": 5552,
      "saṃjñi": 5553,
      "pumān": 5554,
      "ci̍": 5555,
      "bhāsi": 5556,
      "bhāgaṃ": 5557,
      "dhāṃ": 5558,
      "kṣa̱": 5559,
      "jāgra": 5560,
      "nute": 5561,
      "cā̱": 5562,
      "kulī": 5563,
      "lābhā": 5564,
      "śāstā": 5565,
      "svaya": 5566,
      "lokāḥ": 5567,
      "sty": 5568,
      "vṛto": 5569,
      "vṛṇī": 5570,
      "gātra": 5571,
      "śul": 5572,
      "śive": 5573,
      "śivo": 5574,
      "bhavanaṃ": 5575,
      "hutvā": 5576,
      "ramo": 5577,
      "mṛt": 5578,
      "trāsa": 5579,
      "tyādi": 5580,
      "vyādha": 5581,
      "sevi": 5582,
      "draṣṭa": 5583,
      "hīyate": 5584,
      "kāraṇā": 5585,
      "jī̱": 5586,
      "doṣo": 5587,
      "śraya": 5588,
      "parva̍": 5589,
      "smita": 5590,
      "prāpti": 5591,
      "indra̱ṁ": 5592,
      "ghāti": 5593,
      "putram": 5594,
      "kṣobha": 5595,
      "rūpāṇi": 5596,
      "śuddhaṃ": 5597,
      "nandana": 5598,
      "devena": 5599,
      "saṅgo": 5600,
      "ghṛ̱": 5601,
      "buddhe": 5602,
      "nandi": 5603,
      "satyam": 5604,
      "mokṣaṃ": 5605,
      "pitaro": 5606,
      "patati": 5607,
      "putrān": 5608,
      "āditya": 5609,
      "krānti": 5610,
      "mānu̍": 5611,
      "śāsanam": 5612,
      "saṃskāra": 5613,
      "locanā": 5614,
      "bhinnā": 5615,
      "amṛtaṃ": 5616,
      "āpnoti": 5617,
      "vikramaḥ": 5618,
      "śāmyati": 5619,
      "nakṣatra": 5620,
      "avāpnuyāt": 5621,
      "kanyāṃ": 5622,
      "vaktrāya": 5623,
      "pitāmahaḥ": 5624,
      "pāramitāṃ": 5625,
      "al": 5626,
      "abhyā": 5627,
      "aiśvar": 5628,
      "hni": 5629,
      "stat": 5630,
      "svān": 5631,
      "ārā": 5632,
      "ādya": 5633,
      "āgataḥ": 5634,
      "ī̱": 5635,
      "ḍhaḥ": 5636,
      "yayuḥ": 5637,
      "tayor": 5638,
      "mabravīt": 5639,
      "sato": 5640,
      "saiva": 5641,
      "satī": 5642,
      "satvaṃ": 5643,
      "sa̍m": 5644,
      "sahitaṃ": 5645,
      "sattamāḥ": 5646,
      "vād": 5647,
      "vā̱ṁ": 5648,
      "vitta": 5649,
      "vibhāga": 5650,
      "nāyā": 5651,
      "ganta": 5652,
      "śana": 5653,
      "śatāni": 5654,
      "śanaiḥ": 5655,
      "praṇī": 5656,
      "prapad": 5657,
      "prayoja": 5658,
      "prapūjayet": 5659,
      "kāyā": 5660,
      "kāyaḥ": 5661,
      "pāpi": 5662,
      "pātraṃ": 5663,
      "pāṇiḥ": 5664,
      "ru̍": 5665,
      "dehas": 5666,
      "veṣṭa": 5667,
      "pitrā": 5668,
      "kṣvā": 5669,
      "thāḥ": 5670,
      "dir": 5671,
      "muṇḍa": 5672,
      "bhittvā": 5673,
      "dhāre": 5674,
      "kṣate": 5675,
      "kṣase": 5676,
      "tamī": 5677,
      "sarvair": 5678,
      "streṇa": 5679,
      "mahāprā": 5680,
      "varṣaṃ": 5681,
      "vīraḥ": 5682,
      "du̍": 5683,
      "tatsarvaṃ": 5684,
      "khar": 5685,
      "kilā": 5686,
      "mantre": 5687,
      "mantrya": 5688,
      "dṛśā": 5689,
      "ṇḍū": 5690,
      "tmakaṃ": 5691,
      "yinaḥ": 5692,
      "kranda": 5693,
      "kṣi̱": 5694,
      "kṣitā": 5695,
      "śo̱": 5696,
      "hṛṣṭā": 5697,
      "jñayā": 5698,
      "kiṃcana": 5699,
      "varadā": 5700,
      "damba": 5701,
      "ma̱hā": 5702,
      "padmaṃ": 5703,
      "cor": 5704,
      "kṣur": 5705,
      "mūṣā": 5706,
      "arṇa": 5707,
      "kīrṇa": 5708,
      "śriyaḥ": 5709,
      "matto": 5710,
      "garbhā": 5711,
      "yūtha": 5712,
      "adhi̱": 5713,
      "vaktuṃ": 5714,
      "mahimā": 5715,
      "nairāt": 5716,
      "jambū": 5717,
      "pratha̱": 5718,
      "pa̱vi": 5719,
      "cittasya": 5720,
      "dyutiḥ": 5721,
      "traidhātu": 5722,
      "viśālā": 5723,
      "kiñcid": 5724,
      "icchati": 5725,
      "parāyaṇaḥ": 5726,
      "ya̱jñam": 5727,
      "dhārmi": 5728,
      "māhātmyaṃ": 5729,
      "indrā̍ya": 5730,
      "ghaṇṭā": 5731,
      "aya": 5732,
      "ave": 5733,
      "abhra": 5734,
      "ktāḥ": 5735,
      "ktena": 5736,
      "pti": 5737,
      "pyati": 5738,
      "tyāṃ": 5739,
      "ukta": 5740,
      "vyate": 5741,
      "̍so": 5742,
      "ṅkāra": 5743,
      "ṛta": 5744,
      "ṭvā": 5745,
      "tak": 5746,
      "tapta": 5747,
      "haṁ": 5748,
      "havir": 5749,
      "mayy": 5750,
      "hār": 5751,
      "vibha": 5752,
      "vidaḥ": 5753,
      "mākṣi": 5754,
      "teti": 5755,
      "gatas": 5756,
      "nipā": 5757,
      "nivarta": 5758,
      "prava": 5759,
      "pramo": 5760,
      "prakhyā": 5761,
      "kāśya": 5762,
      "pādhi": 5763,
      "pā̍ta": 5764,
      "dāma": 5765,
      "deśo": 5766,
      "saṃbhava": 5767,
      "saṃpat": 5768,
      "pi̍": 5769,
      "diśam": 5770,
      "cic": 5771,
      "kṛtas": 5772,
      "kṛtiṃ": 5773,
      "meṣu": 5774,
      "jān": 5775,
      "jā̍": 5776,
      "nu̱": 5777,
      "śāstraṃ": 5778,
      "svapi": 5779,
      "tyakta": 5780,
      "sarvaiḥ": 5781,
      "dura": 5782,
      "nīyaṃ": 5783,
      "jñānama": 5784,
      "likā": 5785,
      "dṛk": 5786,
      "bubhu": 5787,
      "rthasya": 5788,
      "vairi": 5789,
      "vyakta": 5790,
      "śete": 5791,
      "śekha": 5792,
      "tmaja": 5793,
      "vyāsa": 5794,
      "goma̍": 5795,
      "gocare": 5796,
      "samaye": 5797,
      "samare": 5798,
      "hṛtā": 5799,
      "a̱pā": 5800,
      "kalma": 5801,
      "ṣi̱": 5802,
      "bāhyā": 5803,
      "dhīmataḥ": 5804,
      "jagataḥ": 5805,
      "phalo": 5806,
      "̍m̐": 5807,
      "nṛ̱": 5808,
      "karaṇe": 5809,
      "mānavaḥ": 5810,
      "dharmi": 5811,
      "dharmān": 5812,
      "sa̱ḥ": 5813,
      "buddhasya": 5814,
      "narakaṃ": 5815,
      "mārgā": 5816,
      "kṛṣṇaḥ": 5817,
      "dhṛti": 5818,
      "hariṃ": 5819,
      "śambho": 5820,
      "sphā": 5821,
      "spho": 5822,
      "manuṣya": 5823,
      "rāvaṇo": 5824,
      "bodhau": 5825,
      "bhāvābhāva": 5826,
      "vatīm": 5827,
      "dyuti": 5828,
      "sadaiva": 5829,
      "randh": 5830,
      "tyeva": 5831,
      "strīṇāṃ": 5832,
      "madhyagataṃ": 5833,
      "mṛtyur": 5834,
      "lakṣmaṇaḥ": 5835,
      "dang": 5836,
      "kamalā": 5837,
      "prakīrtitāḥ": 5838,
      "hiṃsā": 5839,
      "spanda": 5840,
      "yātudhā": 5841,
      "viśiṣṭa": 5842,
      "saumitre": 5843,
      "pratyeka": 5844,
      "mahābalāḥ": 5845,
      "jagaddhite": 5846,
      "śārdūla": 5847,
      "vajrayogini": 5848,
      "(⟨": 5849,
      "abhūt": 5850,
      "dyām": 5851,
      "gyur": 5852,
      "kre": 5853,
      "thī": 5854,
      "āśu": 5855,
      "āyāti": 5856,
      "āhur": 5857,
      "īśvaraḥ": 5858,
      "̍taḥ": 5859,
      "̱re": 5860,
      "ḍu": 5861,
      "ṛ̱tā": 5862,
      "ratiḥ": 5863,
      "tavān": 5864,
      "vaśe": 5865,
      "haviṣ": 5866,
      "pas": 5867,
      "hāḥ": 5868,
      "vāṇi": 5869,
      "vihita": 5870,
      "vivardha": 5871,
      "vikrama": 5872,
      "rāṭ": 5873,
      "gacchā": 5874,
      "nin": 5875,
      "nityo": 5876,
      "śarā": 5877,
      "bhasya": 5878,
      "ṇaṁ": 5879,
      "pāṭa": 5880,
      "pādam": 5881,
      "yoda": 5882,
      "supar": 5883,
      "sārva": 5884,
      "sādhāra": 5885,
      "saṃsṛ": 5886,
      "mimaṃ": 5887,
      "kṣū": 5888,
      "dikaṃ": 5889,
      "musa": 5890,
      "kṣau": 5891,
      "jātaḥ": 5892,
      "sindha": 5893,
      "nujñā": 5894,
      "nugraha": 5895,
      "śāl": 5896,
      "tīre": 5897,
      "ntaṁ": 5898,
      "bhūtāḥ": 5899,
      "bhūtasya": 5900,
      "vartī": 5901,
      "vīḥ": 5902,
      "manyu": 5903,
      "jitya": 5904,
      "leṣu": 5905,
      "sthitim": 5906,
      "yitum": 5907,
      "khyaḥ": 5908,
      "krau": 5909,
      "ṅgaḥ": 5910,
      "pṛ̍thi": 5911,
      "ghaṭā": 5912,
      "karṇā": 5913,
      "bāh": 5914,
      "girā": 5915,
      "janasya": 5916,
      "sahasreṇa": 5917,
      "ghāṃ": 5918,
      "lokeśvara": 5919,
      "pūrvaśaḥ": 5920,
      "tathai": 5921,
      "ātmani": 5922,
      "siddhaṃ": 5923,
      "brāhmaṇo": 5924,
      "deśanā": 5925,
      "kāntaṃ": 5926,
      "mbara": 5927,
      "̍ta̱ṁ": 5928,
      "tanuḥ": 5929,
      "prakṛtyā": 5930,
      "ṛ̱tasya̱": 5931,
      "dvitīya": 5932,
      "viśeṣeṇa": 5933,
      "phalāni": 5934,
      "chāyā": 5935,
      "pra̱jā": 5936,
      "bhūṣaṇam": 5937,
      "vipulaṃ": 5938,
      "viṣṇor": 5939,
      "rocate": 5940,
      "paścime": 5941,
      "kṣipram": 5942,
      "rāṣṭraṃ": 5943,
      "kṛṇotu": 5944,
      "astv": 5945,
      "sugatasya": 5946,
      "sva̱stibhi̱ḥ": 5947,
      "jagmur": 5948,
      "am": 5949,
      "arā": 5950,
      "atas": 5951,
      "ape": 5952,
      "apaś": 5953,
      "aṇu": 5954,
      "hyate": 5955,
      "iri": 5956,
      "inaṃ": 5957,
      "nyat": 5958,
      "oja̍sā": 5959,
      "rja": 5960,
      "ttu": 5961,
      "tthaṃ": 5962,
      "zhi": 5963,
      "āpi": 5964,
      "āśā": 5965,
      "śyāmā": 5966,
      "yatas": 5967,
      "va̱r": 5968,
      "haro": 5969,
      "maryā": 5970,
      "naika": 5971,
      "saraḥ": 5972,
      "vāsā": 5973,
      "vā̱m": 5974,
      "caṇḍī": 5975,
      "vigata": 5976,
      "vibhīṣa": 5977,
      "kayā": 5978,
      "māha": 5979,
      "ga̱": 5980,
      "niyo": 5981,
      "śarva": 5982,
      "pradakṣi": 5983,
      "pradyum": 5984,
      "jaḍa": 5985,
      "kāka": 5986,
      "kāśca": 5987,
      "dhri": 5988,
      "dhyo": 5989,
      "pādu": 5990,
      "sutāṃ": 5991,
      "sudhīḥ": 5992,
      "sāvi": 5993,
      "der": 5994,
      "vedha": 5995,
      "vedaṃ": 5996,
      "pikā": 5997,
      "mi̍": 5998,
      "citaḥ": 5999,
      "dhān": 6000,
      "yudhi": 6001,
      "kṛtri": 6002,
      "kṣayam": 6003,
      "bara": 6004,
      "neha": 6005,
      "cānu": 6006,
      "hetuḥ": 6007,
      "mahābhāgā": 6008,
      "varṇo": 6009,
      "vīm": 6010,
      "gāvo": 6011,
      "guṇe": 6012,
      "śuddhe": 6013,
      "evai": 6014,
      "śvarāḥ": 6015,
      "vaira": 6016,
      "yathānyā": 6017,
      "deva̱": 6018,
      "triratna": 6019,
      "paramāṃ": 6020,
      "samatā": 6021,
      "hṛtaṃ": 6022,
      "ṣitaṃ": 6023,
      "dravyaṃ": 6024,
      "tena̍": 6025,
      "vann": 6026,
      "vantaḥ": 6027,
      "darpa": 6028,
      "sthāpya": 6029,
      "śīlā": 6030,
      "paryu": 6031,
      "śrutam": 6032,
      "śrīḥ": 6033,
      "padme": 6034,
      "mūlā": 6035,
      "dyāvā": 6036,
      "śaraiḥ": 6037,
      "jñānasya": 6038,
      "matsya": 6039,
      "provāca": 6040,
      "madhusūda": 6041,
      "bharataṃ": 6042,
      "gninā": 6043,
      "ātmano": 6044,
      "bandhi": 6045,
      "śarīram": 6046,
      "nānyathā": 6047,
      "padārtha": 6048,
      "ti̱g": 6049,
      "kariṣyāmi": 6050,
      "nū̱": 6051,
      "dīrghā": 6052,
      "pu̱rū": 6053,
      "yu̱vaṁ": 6054,
      "pṛthivīṃ": 6055,
      "vapuṣā": 6056,
      "hareḥ": 6057,
      "kusumā": 6058,
      "kruddhā": 6059,
      "śobhate": 6060,
      "bhavadbhakti": 6061,
      "śravaṇa": 6062,
      "prasannā": 6063,
      "vimalā": 6064,
      "bahūn": 6065,
      "a̱gnim": 6066,
      "sapatnān": 6067,
      "candana": 6068,
      "paṅkaja": 6069,
      "sanātanaḥ": 6070,
      "a̍gne̱": 6071,
      "maitrī": 6072,
      "jṛmbha": 6073,
      "nāḍī": 6074,
      "bṛha̱spati": 6075,
      "mahāyaśāḥ": 6076,
      "catuṣṭayam": 6077,
      "kausalyā": 6078,
      "aṅgi": 6079,
      "chan": 6080,
      "iṣyate": 6081,
      "lgu": 6082,
      "mra": 6083,
      "mbhi": 6084,
      "pnoti": 6085,
      "tpāda": 6086,
      "tpatti": 6087,
      "śye": 6088,
      "̍bhiḥ": 6089,
      "ṃṣi": 6090,
      "ṇṭha": 6091,
      "rata": 6092,
      "ta̍ḥ": 6093,
      "taṇḍu": 6094,
      "harā": 6095,
      "matiṃ": 6096,
      "nabhi": 6097,
      "saś": 6098,
      "saho": 6099,
      "patā": 6100,
      "pareṇa": 6101,
      "pavana": 6102,
      "yāc": 6103,
      "vāje": 6104,
      "visar": 6105,
      "vipro": 6106,
      "kasmin": 6107,
      "danti": 6108,
      "dait": 6109,
      "māla": 6110,
      "māsi": 6111,
      "mānena": 6112,
      "gamat": 6113,
      "gaṇān": 6114,
      "nila": 6115,
      "nivāra": 6116,
      "śayyā": 6117,
      "praca": 6118,
      "prala": 6119,
      "pratam": 6120,
      "prace": 6121,
      "bhrāja": 6122,
      "bhavitā": 6123,
      "tulā": 6124,
      "kāśā": 6125,
      "kāmena": 6126,
      "dhvaj": 6127,
      "pārtha": 6128,
      "pāṇḍa": 6129,
      "suro": 6130,
      "sākṣī": 6131,
      "pitam": 6132,
      "puram": 6133,
      "purīṃ": 6134,
      "mudga": 6135,
      "sarvo": 6136,
      "ṇāma": 6137,
      "yuddhā": 6138,
      "kṛtī": 6139,
      "mer": 6140,
      "babhau": 6141,
      "siddho": 6142,
      "cārā": 6143,
      "lābha": 6144,
      "heti": 6145,
      "bhūtaḥ": 6146,
      "mahāna": 6147,
      "mahāmbho": 6148,
      "nor": 6149,
      "vṛndā": 6150,
      "guṇaḥ": 6151,
      "śiṣya": 6152,
      "dṛg": 6153,
      "pariṣ": 6154,
      "nirbha": 6155,
      "tadvat": 6156,
      "tyāgo": 6157,
      "vyāpya": 6158,
      "dīn": 6159,
      "śokā": 6160,
      "bhok": 6161,
      "ṣṭhaḥ": 6162,
      "jīrṇa": 6163,
      "tṛṇa": 6164,
      "ṣṭāni": 6165,
      "pī̱taye̍": 6166,
      "nyāḥ": 6167,
      "agniḥ": 6168,
      "ma̱n": 6169,
      "ma̱ho": 6170,
      "dvaye": 6171,
      "yāmya": 6172,
      "arhati": 6173,
      "vṛttir": 6174,
      "gīta": 6175,
      "narake": 6176,
      "kṛṣṇe": 6177,
      "jñeyaḥ": 6178,
      "juṣa": 6179,
      "de̱vān": 6180,
      "dūraṃ": 6181,
      "karot": 6182,
      "śakyaṃ": 6183,
      "̱taya̍ḥ": 6184,
      "bharadvā": 6185,
      "sattvāḥ": 6186,
      "yauvana": 6187,
      "rākṣasāḥ": 6188,
      "sto̱": 6189,
      "krośa": 6190,
      "varu̍ṇa": 6191,
      "ghṛtena": 6192,
      "śaṅki": 6193,
      "śānto": 6194,
      "rthena": 6195,
      "prabhum": 6196,
      "pataye": 6197,
      "̍taṁ": 6198,
      "madhyataḥ": 6199,
      "bhairavā": 6200,
      "cchin": 6201,
      "śāsane": 6202,
      "kṣetrapā": 6203,
      "jīvitam": 6204,
      "bhuvanaṃ": 6205,
      "nirmalā": 6206,
      "jināna": 6207,
      "śāntiṃ": 6208,
      "japen": 6209,
      "sadṛśaṃ": 6210,
      "viṣṇoḥ": 6211,
      "kiñcit": 6212,
      "guror": 6213,
      "daśyāṃ": 6214,
      "niścitya": 6215,
      "soma̍sya": 6216,
      "akṣi": 6217,
      "ava̱": 6218,
      "ambu": 6219,
      "hrā": 6220,
      "ktāni": 6221,
      "ryo": 6222,
      "āvṛ": 6223,
      "ādau": 6224,
      "ālokya": 6225,
      "āsthāya": 6226,
      "̍saḥ": 6227,
      "yatta": 6228,
      "rabha": 6229,
      "vakṣa": 6230,
      "vatta": 6231,
      "hau": 6232,
      "harya": 6233,
      "hasaḥ": 6234,
      "nayo": 6235,
      "nakhā": 6236,
      "yāta": 6237,
      "vātā": 6238,
      "vājā": 6239,
      "vāyur": 6240,
      "vāyuḥ": 6241,
      "viga": 6242,
      "viparya": 6243,
      "tithi": 6244,
      "kanya": 6245,
      "rājñ": 6246,
      "dayi": 6247,
      "dadhe": 6248,
      "nāv": 6249,
      "teno": 6250,
      "gajā": 6251,
      "prama": 6252,
      "prakāra": 6253,
      "praharṣa": 6254,
      "syaiva": 6255,
      "suraḥ": 6256,
      "ruha": 6257,
      "saṃprati": 6258,
      "saṃdhyā": 6259,
      "re̍": 6260,
      "reca": 6261,
      "putre": 6262,
      "mukhya": 6263,
      "citi": 6264,
      "dhāraṃ": 6265,
      "dhika": 6266,
      "metad": 6267,
      "ba̱": 6268,
      "ne̱": 6269,
      "cābhi": 6270,
      "kuñ": 6271,
      "kumu": 6272,
      "kulaḥ": 6273,
      "svam": 6274,
      "svanaḥ": 6275,
      "ntari": 6276,
      "bhūtam": 6277,
      "prātaḥ": 6278,
      "śi̱": 6279,
      "jñāya": 6280,
      "manya": 6281,
      "mantaḥ": 6282,
      "mṛṣā": 6283,
      "jigī": 6284,
      "mopa": 6285,
      "samāpannaṃ": 6286,
      "govinda": 6287,
      "syāma": 6288,
      "hase": 6289,
      "samaprabham": 6290,
      "grahī": 6291,
      "vaṃśe": 6292,
      "kāraṇāt": 6293,
      "cedaṃ": 6294,
      "tāmra": 6295,
      "bhedaṃ": 6296,
      "parā̍": 6297,
      "ratnama": 6298,
      "tantu": 6299,
      "pīyū": 6300,
      "smarā": 6301,
      "nyāsaṃ": 6302,
      "karmasu": 6303,
      "karmaṇām": 6304,
      "māṃsā": 6305,
      "pattir": 6306,
      "yuktāḥ": 6307,
      "mananta": 6308,
      "sa̱jo": 6309,
      "copa": 6310,
      "buddhaḥ": 6311,
      "kṣudra": 6312,
      "mūtra": 6313,
      "mūḍho": 6314,
      "khilam": 6315,
      "bhyaś": 6316,
      "mārgaṃ": 6317,
      "śriyaṃ": 6318,
      "niṣkala": 6319,
      "sthair": 6320,
      "prajāyate": 6321,
      "yamasya": 6322,
      "vidyādhara": 6323,
      "tasyās": 6324,
      "rṣabha": 6325,
      "pṛthivyāṃ": 6326,
      "bandhā": 6327,
      "ghṛtaṃ": 6328,
      "pūjayitvā": 6329,
      "śaṅkara": 6330,
      "di̱vi": 6331,
      "parvata": 6332,
      "mithu": 6333,
      "vāṃs": 6334,
      "kṛṣṇasya": 6335,
      "vasanti": 6336,
      "putrāḥ": 6337,
      "ādityā": 6338,
      "skanda": 6339,
      "mānuṣa": 6340,
      "kartavya": 6341,
      "asmān": 6342,
      "parameśvara": 6343,
      "e̱ṣa": 6344,
      "ṣṭena": 6345,
      "tvadbhakti": 6346,
      "kevalam": 6347,
      "vrajati": 6348,
      "śrūyate": 6349,
      "viśuddhā": 6350,
      "vivarjitam": 6351,
      "ū̱ti": 6352,
      "sādhyaṃ": 6353,
      "varu̍ṇo": 6354,
      "kāruṇya": 6355,
      "piśāca": 6356,
      "bha̱drā": 6357,
      "manīṣi": 6358,
      "parikīrtitam": 6359,
      "dbhuta": 6360,
      "āruhya": 6361,
      "kubji": 6362,
      "hutāśa": 6363,
      "sphaṭi": 6364,
      "papraccha": 6365,
      "pṛthvī": 6366,
      "-'": 6367,
      "aṁ": 6368,
      "adā": 6369,
      "anī": 6370,
      "asthi": 6371,
      "asura": 6372,
      "dbhiḥ": 6373,
      "eke": 6374,
      "etāṃ": 6375,
      "imā": 6376,
      "kla": 6377,
      "nyāṃ": 6378,
      "srā": 6379,
      "sraḥ": 6380,
      "upo": 6381,
      "ugrā": 6382,
      "unma": 6383,
      "ū̍": 6384,
      "̍ṣ": 6385,
      "̍naḥ": 6386,
      "̍ṇya": 6387,
      "rabhya": 6388,
      "vaso": 6389,
      "vañca": 6390,
      "mavāp": 6391,
      "nati": 6392,
      "sattamaḥ": 6393,
      "paur": 6394,
      "yāte": 6395,
      "vānu": 6396,
      "viḍa": 6397,
      "virūpā": 6398,
      "rāgaḥ": 6399,
      "rājñaḥ": 6400,
      "dasya": 6401,
      "nārthaṃ": 6402,
      "gamāḥ": 6403,
      "praś": 6404,
      "prabodhi": 6405,
      "prapañca": 6406,
      "prakṛta": 6407,
      "pramukhā": 6408,
      "lasya": 6409,
      "bhrān": 6410,
      "janya": 6411,
      "ṇave": 6412,
      "ṣat": 6413,
      "dhane": 6414,
      "tus": 6415,
      "dhmā": 6416,
      "yetta": 6417,
      "pā̍": 6418,
      "pāpe": 6419,
      "sāv": 6420,
      "sādhyā": 6421,
      "veṣu": 6422,
      "saṃkhya": 6423,
      "miś": 6424,
      "mitro": 6425,
      "thāṃ": 6426,
      "reṇu": 6427,
      "re̍ṇa": 6428,
      "divam": 6429,
      "putreṇa": 6430,
      "dhāne": 6431,
      "kṛtyaṃ": 6432,
      "tvadī": 6433,
      "kṣaṇi": 6434,
      "med": 6435,
      "neya": 6436,
      "lobha": 6437,
      "lokī": 6438,
      "mahādevi": 6439,
      "vīci": 6440,
      "vṛśca": 6441,
      "duri": 6442,
      "prāsā": 6443,
      "nītaṃ": 6444,
      "gup": 6445,
      "parivāri": 6446,
      "jinaṃ": 6447,
      "rthama": 6448,
      "vyayaḥ": 6449,
      "yathāsukham": 6450,
      "tadī": 6451,
      "tyāga": 6452,
      "kramaṃ": 6453,
      "ghaṭi": 6454,
      "pūrṇe": 6455,
      "bāho": 6456,
      "drava": 6457,
      "ceṣṭa": 6458,
      "darbha": 6459,
      "jagada": 6460,
      "jagatāṃ": 6461,
      "santo": 6462,
      "sandhi": 6463,
      "bodhisattvo": 6464,
      "mātro": 6465,
      "anva": 6466,
      "ante": 6467,
      "panne": 6468,
      "kīrtya": 6469,
      "naraka": 6470,
      "vartata": 6471,
      "vācaṃ": 6472,
      "utthi": 6473,
      "juho": 6474,
      "śritā": 6475,
      "niṣka": 6476,
      "tiṣṭhan": 6477,
      "śakrā": 6478,
      "bhūtale": 6479,
      "vidhivat": 6480,
      "bhyo̱": 6481,
      "bījam": 6482,
      "svarge": 6483,
      "svargaṃ": 6484,
      "prakāśi": 6485,
      "praviveśa": 6486,
      "ukto": 6487,
      "spṛhā": 6488,
      "labdhvā": 6489,
      "gaṇair": 6490,
      "vasati": 6491,
      "tvatprasā": 6492,
      "krāntā": 6493,
      "cariṃ": 6494,
      "anyatra": 6495,
      "ṛ̱tasya̍": 6496,
      "dvīpe": 6497,
      "raudra": 6498,
      "viśeṣo": 6499,
      "narādhipa": 6500,
      "cyuta": 6501,
      "pūjitā": 6502,
      "dyota": 6503,
      "tṛtīya": 6504,
      "a̱gniḥ": 6505,
      "varcasā": 6506,
      "gocaraḥ": 6507,
      "śobhitam": 6508,
      "yathaiva": 6509,
      "maṅgalaṃ": 6510,
      "ityevaṃ": 6511,
      "bodhisattvāḥ": 6512,
      "sakhā̍": 6513,
      "sāttvi": 6514,
      "dvijottama": 6515,
      "ayodhyā": 6516,
      "marīci": 6517,
      "ñjīta": 6518,
      "idānīṃ": 6519,
      "pṛ̍thi̱": 6520,
      "abhyu": 6521,
      "bs": 6522,
      "ddhya": 6523,
      "ekaḥ": 6524,
      "hyu": 6525,
      "ju̱": 6526,
      "oja": 6527,
      "sri": 6528,
      "ude": 6529,
      "ārya": 6530,
      "̍bhi̱r": 6531,
      "ṣyaṃ": 6532,
      "ṭya": 6533,
      "yamāna": 6534,
      "yaje": 6535,
      "rañja": 6536,
      "taro": 6537,
      "tavai": 6538,
      "havāmahe": 6539,
      "naśca": 6540,
      "vāci": 6541,
      "viri": 6542,
      "vijña": 6543,
      "vibhra": 6544,
      "kandha": 6545,
      "rāmā": 6546,
      "rāme": 6547,
      "rātre": 6548,
      "nāmāni": 6549,
      "teṣa": 6550,
      "gavāṃ": 6551,
      "nikā": 6552,
      "niyojayet": 6553,
      "śate": 6554,
      "śakya": 6555,
      "prakalpayet": 6556,
      "jahā": 6557,
      "jayaḥ": 6558,
      "jahāra": 6559,
      "riḥ": 6560,
      "tubhya": 6561,
      "tubhyam": 6562,
      "kāpi": 6563,
      "kāṇāṃ": 6564,
      "kāṣṭhā": 6565,
      "veṇu": 6566,
      "traḥ": 6567,
      "saṃsthi": 6568,
      "saṃbhṛ": 6569,
      "saṃbhavaḥ": 6570,
      "saṃbhavam": 6571,
      "pur": 6572,
      "puṅga": 6573,
      "mumoca": 6574,
      "bhiṣa": 6575,
      "cih": 6576,
      "bhāvān": 6577,
      "bhāgī": 6578,
      "yuj": 6579,
      "kṛtān": 6580,
      "dhiyaḥ": 6581,
      "tvan": 6582,
      "kṣaraṃ": 6583,
      "jāra": 6584,
      "jāyante": 6585,
      "cā̍": 6586,
      "cāsi": 6587,
      "kuca": 6588,
      "kuñja": 6589,
      "śānte": 6590,
      "varma": 6591,
      "vartante": 6592,
      "vī̱ra": 6593,
      "prāś": 6594,
      "nīyā": 6595,
      "khaga": 6596,
      "kinī": 6597,
      "yamī": 6598,
      "rūpī": 6599,
      "keṇa": 6600,
      "jñātaṃ": 6601,
      "dṛśa": 6602,
      "lekhā": 6603,
      "yatnena": 6604,
      "tmanām": 6605,
      "kṣitau": 6606,
      "grahaṃ": 6607,
      "pede": 6608,
      "bhogān": 6609,
      "bālo": 6610,
      "cchasi": 6611,
      "stau": 6612,
      "dheṣu": 6613,
      "dhīmatā": 6614,
      "kṣāḥ": 6615,
      "parā̱": 6616,
      "vrataḥ": 6617,
      "daśagrī": 6618,
      "santā": 6619,
      "pattra": 6620,
      "ma̱he": 6621,
      "padmo": 6622,
      "kalpaṃ": 6623,
      "śūra": 6624,
      "arthi": 6625,
      "kīrṇaṃ": 6626,
      "ghore": 6627,
      "bibhar": 6628,
      "kriyāṃ": 6629,
      "marṣa": 6630,
      "lakṣyate": 6631,
      "dakṣiṇāṃ": 6632,
      "putrau": 6633,
      "putrasya": 6634,
      "gurum": 6635,
      "guruṇā": 6636,
      "śamba": 6637,
      "sphī": 6638,
      "śaktiṃ": 6639,
      "vidhāya": 6640,
      "vadan": 6641,
      "hantu": 6642,
      "bhrānta": 6643,
      "apa̍": 6644,
      "apa̱": 6645,
      "purataḥ": 6646,
      "phalapra": 6647,
      "deveśaṃ": 6648,
      "ta̱n": 6649,
      "nāny": 6650,
      "bhāvād": 6651,
      "vasuṃ": 6652,
      "dṛśyante": 6653,
      "uktas": 6654,
      "parvatā": 6655,
      "kaści": 6656,
      "kariṣyati": 6657,
      "rdham": 6658,
      "āgatam": 6659,
      "apāṃ": 6660,
      "sainyaṃ": 6661,
      "vṛttau": 6662,
      "bhūṣaṇa": 6663,
      "dhanuḥ": 6664,
      "aṣṭau": 6665,
      "prasanna": 6666,
      "sundarī": 6667,
      "avyayam": 6668,
      "viśuddhi": 6669,
      "maharddhi": 6670,
      "budhaiḥ": 6671,
      "bahavo": 6672,
      "satvānāṃ": 6673,
      "hlāda": 6674,
      "bhuṅkte": 6675,
      "kilbi": 6676,
      "śraddhayā": 6677,
      "aci": 6678,
      "apo": 6679,
      "adhva": 6680,
      "adyāpi": 6681,
      "dvaṃ": 6682,
      "etān": 6683,
      "ld": 6684,
      "or": 6685,
      "syu": 6686,
      "snu": 6687,
      "umā": 6688,
      "ucch": 6689,
      "ānu": 6690,
      "āse": 6691,
      "āyuḥ": 6692,
      "ūha": 6693,
      "ṛg": 6694,
      "yana": 6695,
      "rajju": 6696,
      "tavyā": 6697,
      "ta̱ḥ": 6698,
      "tais": 6699,
      "vac": 6700,
      "madī": 6701,
      "natā": 6702,
      "sanam": 6703,
      "sasarja": 6704,
      "pakva": 6705,
      "caru": 6706,
      "vigrahaḥ": 6707,
      "tikā": 6708,
      "kaṭī": 6709,
      "dati": 6710,
      "darī": 6711,
      "māse": 6712,
      "nādā": 6713,
      "nāmu": 6714,
      "prata": 6715,
      "prakaṭa": 6716,
      "jajñi": 6717,
      "bhayāt": 6718,
      "dhayā": 6719,
      "yeṣa": 6720,
      "dāsī": 6721,
      "sāpi": 6722,
      "velā": 6723,
      "vedaḥ": 6724,
      "vegena": 6725,
      "pitāḥ": 6726,
      "mivā": 6727,
      "mitre": 6728,
      "mudra": 6729,
      "bhilā": 6730,
      "bhāṣe": 6731,
      "yugaṃ": 6732,
      "bata": 6733,
      "sinī": 6734,
      "nuḥ": 6735,
      "ku̱": 6736,
      "ndre": 6737,
      "ndram": 6738,
      "varṣi": 6739,
      "prāṇo": 6740,
      "ṣāt": 6741,
      "guhyā": 6742,
      "mantaṃ": 6743,
      "likhe": 6744,
      "lekha": 6745,
      "yasmād": 6746,
      "komala": 6747,
      "trāya": 6748,
      "nirṇa": 6749,
      "vyathi": 6750,
      "yathā̱": 6751,
      "samāga": 6752,
      "dīptā": 6753,
      "bāhū": 6754,
      "dravi": 6755,
      "bodhā": 6756,
      "stato": 6757,
      "vidū": 6758,
      "patitā": 6759,
      "jīmū": 6760,
      "gire": 6761,
      "dor": 6762,
      "tantra": 6763,
      "līlayā": 6764,
      "mahatī": 6765,
      "dho̍": 6766,
      "kṣeṇa": 6767,
      "mānanda": 6768,
      "bhagavatī": 6769,
      "śrīlokanātha": 6770,
      "rtti": 6771,
      "muktāḥ": 6772,
      "dṛṣṭyā": 6773,
      "devāsura": 6774,
      "kṣut": 6775,
      "dvātriṃśa": 6776,
      "punaś": 6777,
      "punara": 6778,
      "śūlaṃ": 6779,
      "śūdrā": 6780,
      "gīyate": 6781,
      "abhiṣe": 6782,
      "śritāḥ": 6783,
      "prema": 6784,
      "ṅgāni": 6785,
      "maheśvara": 6786,
      "pūrvakam": 6787,
      "yāntaṃ": 6788,
      "mūrchi": 6789,
      "rāvaṇa": 6790,
      "śatair": 6791,
      "kāryam": 6792,
      "sādhana": 6793,
      "sādhanaṃ": 6794,
      "uttarā": 6795,
      "kauśi": 6796,
      "strai": 6797,
      "gamyate": 6798,
      "dharmārtha": 6799,
      "bandhū": 6800,
      "saṅkalpa": 6801,
      "varuṇo": 6802,
      "̱dram": 6803,
      "sphuran": 6804,
      "cakravarti": 6805,
      "buddhvā": 6806,
      "spṛha": 6807,
      "ṅguli": 6808,
      "soma̍ḥ": 6809,
      "bhūṣitam": 6810,
      "pitaraḥ": 6811,
      "samuddhṛ": 6812,
      "kuśalaṃ": 6813,
      "bhairavaṃ": 6814,
      "sāgaraḥ": 6815,
      "gṛhīta": 6816,
      "pu̱rā": 6817,
      "śāsanaṃ": 6818,
      "oṣa̍": 6819,
      "mātaram": 6820,
      "laṅkāṃ": 6821,
      "paśyann": 6822,
      "sainya": 6823,
      "vasya̍": 6824,
      "tṛtīyaṃ": 6825,
      "śrūyatāṃ": 6826,
      "dharmeṣu": 6827,
      "bṛhaspatir": 6828,
      "aṃhasaḥ": 6829,
      "svāmin": 6830,
      "sphuṭam": 6831,
      "piśācā": 6832,
      "sneha": 6833,
      "bhārga": 6834,
      "bhāryāṃ": 6835,
      "paṅkti": 6836,
      "dadṛśe": 6837,
      "daṃṣṭrā": 6838,
      "jitendriyaḥ": 6839,
      "añja": 6840,
      "aśeṣā": 6841,
      "dyū": 6842,
      "ehi": 6843,
      "gir": 6844,
      "imam": 6845,
      "lpā": 6846,
      "āva": 6847,
      "śyate": 6848,
      "śvo": 6849,
      "̍ve": 6850,
      "ḍhyā": 6851,
      "ḻa": 6852,
      "ṣyan": 6853,
      "raṇam": 6854,
      "talam": 6855,
      "valoka": 6856,
      "mani": 6857,
      "sa̍ṁ": 6858,
      "caram": 6859,
      "visṛ": 6860,
      "vihara": 6861,
      "viparī": 6862,
      "rātraṃ": 6863,
      "himā": 6864,
      "mātram": 6865,
      "nārā": 6866,
      "gantā": 6867,
      "nirodha": 6868,
      "prayo": 6869,
      "prabala": 6870,
      "prastā": 6871,
      "bhrāma": 6872,
      "jap": 6873,
      "ṇair": 6874,
      "ṣaṣṭ": 6875,
      "tumu": 6876,
      "kāmya": 6877,
      "yeda": 6878,
      "pāṇau": 6879,
      "yoṣi": 6880,
      "sutaṃ": 6881,
      "sutam": 6882,
      "sumana": 6883,
      "sugandhi": 6884,
      "ṣṭhu": 6885,
      "dāva": 6886,
      "dānam": 6887,
      "sād": 6888,
      "sādhi": 6889,
      "vegā": 6890,
      "vedya": 6891,
      "saṃya": 6892,
      "saṃsthitāḥ": 6893,
      "pip": 6894,
      "kṣyāmi": 6895,
      "diṣṭā": 6896,
      "mucya": 6897,
      "cikīr": 6898,
      "bhāvitā": 6899,
      "tvāda": 6900,
      "kṛnta": 6901,
      "kṛṣṭa": 6902,
      "tvac": 6903,
      "tvara": 6904,
      "netre": 6905,
      "nukam": 6906,
      "lād": 6907,
      "lābhe": 6908,
      "svato": 6909,
      "lopa": 6910,
      "tīrya": 6911,
      "ntari̍": 6912,
      "sarvaḥ": 6913,
      "mahāśayaḥ": 6914,
      "vīru": 6915,
      "vṛta": 6916,
      "vṛṣā": 6917,
      "prāṅ": 6918,
      "prāṇe": 6919,
      "gāndha": 6920,
      "yamya": 6921,
      "manto": 6922,
      "linī": 6923,
      "mṛ̍": 6924,
      "parivā": 6925,
      "tāṃś": 6926,
      "bhuvo": 6927,
      "bhujo": 6928,
      "samādhāya": 6929,
      "parayā": 6930,
      "gold": 6931,
      "a̱po": 6932,
      "petāṃ": 6933,
      "ghar": 6934,
      "bhog": 6935,
      "bā̱": 6936,
      "bhet": 6937,
      "sthāḥ": 6938,
      "jīve": 6939,
      "parārtha": 6940,
      "tavaiva": 6941,
      "kiṃci": 6942,
      "karaiḥ": 6943,
      "mahato": 6944,
      "caturtha": 6945,
      "patyaṃ": 6946,
      "mānasaṃ": 6947,
      "a̍stu": 6948,
      "arju": 6949,
      "puru̱": 6950,
      "vṛttiḥ": 6951,
      "dhvajaḥ": 6952,
      "prāptaḥ": 6953,
      "indra̍ḥ": 6954,
      "abhiṣi": 6955,
      "tāni̍": 6956,
      "ekaika": 6957,
      "sūrye": 6958,
      "manoja": 6959,
      "manoratha": 6960,
      "madhura": 6961,
      "rāvaṇaḥ": 6962,
      "vidhir": 6963,
      "kārmu": 6964,
      "dhāraṇī": 6965,
      "prītyā": 6966,
      "brahmāṇaṃ": 6967,
      "kūla": 6968,
      "saṅge": 6969,
      "mahīyate": 6970,
      "nandā": 6971,
      "nandaṃ": 6972,
      "uktaḥ": 6973,
      "grahaṇaṃ": 6974,
      "i̍va̱": 6975,
      "kadācit": 6976,
      "surāṇāṃ": 6977,
      "vardhate": 6978,
      "agne̍": 6979,
      "bāhur": 6980,
      "bāhuṃ": 6981,
      "vāhanaḥ": 6982,
      "parameśvaraḥ": 6983,
      "vapur": 6984,
      "bhyāsa": 6985,
      "gagana": 6986,
      "payasā": 6987,
      "jyeṣṭhā": 6988,
      "gṛhāṇa": 6989,
      "ṛṣayo": 6990,
      "jarāsaṃ": 6991,
      "vibhūṣitam": 6992,
      "mālinī": 6993,
      "gamiṣyāmi": 6994,
      "vismaya": 6995,
      "gandharvā": 6996,
      "vyāpti": 6997,
      "sanātanam": 6998,
      "sa̱hasra̍": 6999,
      "phulla": 7000,
      "kṛtsnaṃ": 7001,
      "lotpala": 7002,
      "ṛṣiḥ": 7003,
      "ślāgh": 7004,
      "dā̱śuṣe̍": 7005,
      "yathānyāyaṃ": 7006,
      "dyāvāpṛthivī": 7007,
      "apari": 7008,
      "adhaḥ": 7009,
      "etu": 7010,
      "graḥ": 7011,
      "gniḥ": 7012,
      "ima": 7013,
      "iru": 7014,
      "iṣu": 7015,
      "iṣṭa": 7016,
      "inda": 7017,
      "kye": 7018,
      "nv": 7019,
      "rmi": 7020,
      "spate": 7021,
      "ul": 7022,
      "vur": 7023,
      "āpaḥ": 7024,
      "̍yā": 7025,
      "̍tam": 7026,
      "̍nām": 7027,
      "̍te̱": 7028,
      "ṝṇāṃ": 7029,
      "ṣy": 7030,
      "taram": 7031,
      "vayaḥ": 7032,
      "vayo̍": 7033,
      "masya": 7034,
      "madi": 7035,
      "mahya": 7036,
      "naye": 7037,
      "saiḥ": 7038,
      "sado": 7039,
      "sahitā": 7040,
      "yātā": 7041,
      "yānāṃ": 7042,
      "vāja̍sā": 7043,
      "vite": 7044,
      "vismi": 7045,
      "kad": 7046,
      "kaiva": 7047,
      "dakṣā": 7048,
      "daivā": 7049,
      "māyāṃ": 7050,
      "mānāḥ": 7051,
      "tebhyaḥ": 7052,
      "gatasya": 7053,
      "niśam": 7054,
      "nindā": 7055,
      "śani": 7056,
      "śatra": 7057,
      "lajjā": 7058,
      "jayan": 7059,
      "japan": 7060,
      "ṇa̍m": 7061,
      "rir": 7062,
      "tuṣṭā": 7063,
      "kāmam": 7064,
      "yos": 7065,
      "sur": 7066,
      "ruṇā": 7067,
      "tra̱": 7068,
      "saṃhā": 7069,
      "divaḥ": 7070,
      "romā": 7071,
      "bhāsaṃ": 7072,
      "dhātrī": 7073,
      "dhāvati": 7074,
      "kṣaṇaḥ": 7075,
      "jālaṃ": 7076,
      "nusāri": 7077,
      "ivam": 7078,
      "kuṭu": 7079,
      "svaccha": 7080,
      "tīv": 7081,
      "sarvabuddha": 7082,
      "du̱": 7083,
      "guhyaṃ": 7084,
      "śukra": 7085,
      "khaḥ": 7086,
      "kimu": 7087,
      "śvarīṃ": 7088,
      "jñāṃ": 7089,
      "ṇi̍": 7090,
      "mantam": 7091,
      "paripā": 7092,
      "paripūrṇa": 7093,
      "vyañja": 7094,
      "yatre": 7095,
      "trilokī": 7096,
      "vyāpī": 7097,
      "sattā": 7098,
      "nyaveda": 7099,
      "bhede": 7100,
      "sūtaṃ": 7101,
      "vantam": 7102,
      "jagato": 7103,
      "śīlaṃ": 7104,
      "doṣaḥ": 7105,
      "śrame": 7106,
      "brahmavādi": 7107,
      "paryantaṃ": 7108,
      "sarveṣā": 7109,
      "karmaṇo": 7110,
      "svāmī": 7111,
      "caturā": 7112,
      "caturaś": 7113,
      "sminn": 7114,
      "priyāṃ": 7115,
      "indraḥ": 7116,
      "mukhena": 7117,
      "bhṛtāṃ": 7118,
      "vṛttam": 7119,
      "jo̱": 7120,
      "śaraṇam": 7121,
      "indra̍ṁ": 7122,
      "jantu": 7123,
      "prem": 7124,
      "sūryaḥ": 7125,
      "rājā̍": 7126,
      "lakṣya": 7127,
      "ityeva": 7128,
      "ityuktvā": 7129,
      "kalau": 7130,
      "śambhu": 7131,
      "madhunā": 7132,
      "śatadhā": 7133,
      "bharataḥ": 7134,
      "sattvārtha": 7135,
      "vidham": 7136,
      "sādhayet": 7137,
      "i̱daṁ": 7138,
      "bṛṃ": 7139,
      "uttare": 7140,
      "śreyo": 7141,
      "śreṣṭho": 7142,
      "ratha̱ṁ": 7143,
      "stoma": 7144,
      "bhavāya": 7145,
      "deveṣu": 7146,
      "aśvi": 7147,
      "aśvā̍": 7148,
      "cakrame": 7149,
      "buddhiṃ": 7150,
      "rudro": 7151,
      "soma̍m": 7152,
      "patanti": 7153,
      "tataste": 7154,
      "cakṣuḥ": 7155,
      "anādi": 7156,
      "yogād": 7157,
      "śaile": 7158,
      "nantaram": 7159,
      "harer": 7160,
      "hartā": 7161,
      "nirvṛtaḥ": 7162,
      "nirvṛtim": 7163,
      "bhadram": 7164,
      "vinyas": 7165,
      "dadāmi": 7166,
      "svabhāvataḥ": 7167,
      "tṛtīyā": 7168,
      "pañcāśa": 7169,
      "vaśāt": 7170,
      "vallī": 7171,
      "cūrṇaṃ": 7172,
      "dvijottamāḥ": 7173,
      "janārdanaḥ": 7174,
      "sakṛd": 7175,
      "snigdha": 7176,
      "ma̱ghavā̍": 7177,
      "chṛṇu": 7178,
      "vasuṃdharā": 7179,
      "asat": 7180,
      "akṣo": 7181,
      "amitā": 7182,
      "aṅge": 7183,
      "acinti": 7184,
      "bind": 7185,
      "cho": 7186,
      "etāni": 7187,
      "etac": 7188,
      "ghi": 7189,
      "iṣā": 7190,
      "sveda": 7191,
      "syeva": 7192,
      "tpala": 7193,
      "ubhaya": 7194,
      "śli": 7195,
      "ślakṣ": 7196,
      "̍to̱": 7197,
      "ḍya": 7198,
      "ṅkha": 7199,
      "ṛju": 7200,
      "yajñi": 7201,
      "ratāḥ": 7202,
      "tayaḥ": 7203,
      "varāya": 7204,
      "masta": 7205,
      "sakta": 7206,
      "sahito": 7207,
      "pak": 7208,
      "paca": 7209,
      "pacā": 7210,
      "pavī": 7211,
      "yāvaj": 7212,
      "vāto": 7213,
      "carṣa": 7214,
      "vidhū": 7215,
      "vimukti": 7216,
      "vijāna": 7217,
      "vikaṭa": 7218,
      "viditvā": 7219,
      "tiś": 7220,
      "karāḥ": 7221,
      "kaṅka": 7222,
      "kaṭu": 7223,
      "kadamba": 7224,
      "tāśca": 7225,
      "dad": 7226,
      "daitye": 7227,
      "mānāṃ": 7228,
      "mātur": 7229,
      "mādāya": 7230,
      "māsādya": 7231,
      "teṣv": 7232,
      "prasu": 7233,
      "prayoga": 7234,
      "prayāti": 7235,
      "praveśa": 7236,
      "prayayau": 7237,
      "ṣad": 7238,
      "kāśaḥ": 7239,
      "dhyanti": 7240,
      "yedaṃ": 7241,
      "pādaḥ": 7242,
      "yora": 7243,
      "dānena": 7244,
      "sātya": 7245,
      "sāmān": 7246,
      "deśaḥ": 7247,
      "vetā": 7248,
      "saṃśra": 7249,
      "saṃpūjya": 7250,
      "toyaṃ": 7251,
      "munir": 7252,
      "yuvā": 7253,
      "yutam": 7254,
      "yudhiṣṭhi": 7255,
      "kṛtau": 7256,
      "dhim": 7257,
      "dhiyā": 7258,
      "sitaṃ": 7259,
      "siñca": 7260,
      "cāva": 7261,
      "cāna": 7262,
      "cāla": 7263,
      "cāṣṭa": 7264,
      "kuṭ": 7265,
      "svastha": 7266,
      "tīrt": 7267,
      "ndū": 7268,
      "sarvadeva": 7269,
      "mahāta": 7270,
      "mahāmuniḥ": 7271,
      "mahāmate": 7272,
      "vartya": 7273,
      "prāyo": 7274,
      "nīlā": 7275,
      "gurū": 7276,
      "guṇi": 7277,
      "śuka": 7278,
      "śitaḥ": 7279,
      "rū̱": 7280,
      "dṛśaḥ": 7281,
      "paripūra": 7282,
      "jite": 7283,
      "jito": 7284,
      "buda": 7285,
      "rthataḥ": 7286,
      "yasmā": 7287,
      "kolā": 7288,
      "yantā": 7289,
      "trāpi": 7290,
      "vaidi": 7291,
      "sthitasya": 7292,
      "vyasa": 7293,
      "samāḥ": 7294,
      "samākhyātā": 7295,
      "tridaśa": 7296,
      "samastaṃ": 7297,
      "pṛś": 7298,
      "prati̱": 7299,
      "pratiṣe": 7300,
      "pratipāda": 7301,
      "dvi̱": 7302,
      "bāli": 7303,
      "dravyā": 7304,
      "gṛ̍": 7305,
      "sūtrā": 7306,
      "jīvo": 7307,
      "ratnam": 7308,
      "vra̱": 7309,
      "śrutiḥ": 7310,
      "varavarṇi": 7311,
      "dho̱": 7312,
      "lokapālā": 7313,
      "bhagavaṃ": 7314,
      "yasya̱": 7315,
      "durgā": 7316,
      "buddhayaḥ": 7317,
      "dyāvā̍": 7318,
      "bhṛtya": 7319,
      "viśvasya": 7320,
      "viṣayaṃ": 7321,
      "vṛttān": 7322,
      "grāhya": 7323,
      "bil": 7324,
      "tiṣṭhaty": 7325,
      "ma̍n": 7326,
      "rāvaṇaṃ": 7327,
      "śatakra": 7328,
      "vadanaṃ": 7329,
      "praṇamita": 7330,
      "prītir": 7331,
      "nityaśaḥ": 7332,
      "bandhaṃ": 7333,
      "upāya": 7334,
      "prathamo": 7335,
      "vyomni": 7336,
      "jyotiḥ": 7337,
      "gantuṃ": 7338,
      "labdhā": 7339,
      "rudraṃ": 7340,
      "vṛṣa̍": 7341,
      "kaścin": 7342,
      "agner": 7343,
      "cintayā": 7344,
      "rājyam": 7345,
      "vāhana": 7346,
      "jātaveda": 7347,
      "daṇḍaṃ": 7348,
      "nirvṛti": 7349,
      "laṅgha": 7350,
      "vinyaset": 7351,
      "smaraṇād": 7352,
      "śrāddhaṃ": 7353,
      "śatrugh": 7354,
      "nairṛ": 7355,
      "nāstīti": 7356,
      "bha̍ra": 7357,
      "asmākaṃ": 7358,
      "saṃsthāpya": 7359,
      "bhyupa": 7360,
      "icchasi": 7361,
      "vuḥ": 7362,
      "śīghram": 7363,
      "maharṣi": 7364,
      "vāñcha": 7365,
      "garuḍa": 7366,
      "narendra": 7367,
      "kaccit": 7368,
      "yugmaṃ": 7369,
      "vyatire": 7370,
      "śaśāṅka": 7371,
      "tīrthāni": 7372,
      "durlabhaṃ": 7373,
      "pattau": 7374,
      "kinnara": 7375,
      "pratāpavān": 7376,
      "vicakṣaṇaḥ": 7377,
      "mahāmbhodhau": 7378,
      "apūrva": 7379,
      "amba": 7380,
      "amara": 7381,
      "alpa": 7382,
      "bdhā": 7383,
      "dre": 7384,
      "ddhu": 7385,
      "hrīṃ": 7386,
      "ikṣvā": 7387,
      "phe": 7388,
      "rṣ": 7389,
      "ubhe": 7390,
      "ācār": 7391,
      "̍ti̱": 7392,
      "raṇo": 7393,
      "tade": 7394,
      "tacca": 7395,
      "vaḍa": 7396,
      "hani": 7397,
      "hanu": 7398,
      "mado": 7399,
      "nato": 7400,
      "namu": 7401,
      "nabho": 7402,
      "pasya": 7403,
      "hāsya": 7404,
      "vāni": 7405,
      "vāhaṃ": 7406,
      "vāṇī": 7407,
      "vālu": 7408,
      "carāḥ": 7409,
      "viśo": 7410,
      "vigrahā": 7411,
      "ti̍": 7412,
      "tādi": 7413,
      "māṇaṃ": 7414,
      "teva": 7415,
      "nibandha": 7416,
      "śava̍": 7417,
      "pradarśa": 7418,
      "prajayā": 7419,
      "japā": 7420,
      "bhaye": 7421,
      "bhayo": 7422,
      "bhayād": 7423,
      "ṣati": 7424,
      "rim": 7425,
      "tuṣā": 7426,
      "tuṣṭo": 7427,
      "tulyā": 7428,
      "kāye": 7429,
      "kādi": 7430,
      "kāyāṃ": 7431,
      "kāśo": 7432,
      "kāminī": 7433,
      "pādi": 7434,
      "pāṇir": 7435,
      "sudur": 7436,
      "sāyaṃ": 7437,
      "vet": 7438,
      "veś": 7439,
      "veta": 7440,
      "saṃha": 7441,
      "saṃprā": 7442,
      "saṃbhavā": 7443,
      "saṃgṛhya": 7444,
      "rekhā": 7445,
      "muhu": 7446,
      "sargā": 7447,
      "rot": 7448,
      "bhān": 7449,
      "bhāso": 7450,
      "bhāgo": 7451,
      "bhārya": 7452,
      "kṛtir": 7453,
      "kṣati": 7454,
      "mekha": 7455,
      "kunda": 7456,
      "kuṭī": 7457,
      "kube": 7458,
      "hemā": 7459,
      "śānaṃ": 7460,
      "svatī": 7461,
      "sva̍r": 7462,
      "svarūpaṃ": 7463,
      "svabhāvaṃ": 7464,
      "loma": 7465,
      "tyarthaḥ": 7466,
      "bhūn": 7467,
      "bhūteṣu": 7468,
      "sarvamā": 7469,
      "stv": 7470,
      "mahābāho": 7471,
      "ūrdh": 7472,
      "duru": 7473,
      "prāk": 7474,
      "prāya": 7475,
      "prāñja": 7476,
      "śuḥ": 7477,
      "śikṣā": 7478,
      "ttame": 7479,
      "śvaḥ": 7480,
      "jñāḥ": 7481,
      "mṛto": 7482,
      "dṛḍhaṃ": 7483,
      "ṣṭaka": 7484,
      "jit": 7485,
      "jighāṃ": 7486,
      "somā̍": 7487,
      "samādāya": 7488,
      "tyāya": 7489,
      "yin": 7490,
      "namasyāmi": 7491,
      "dīpya": 7492,
      "samaya": 7493,
      "pūjyā": 7494,
      "rya̱mā": 7495,
      "seyaṃ": 7496,
      "nyapi": 7497,
      "ṇīḥ": 7498,
      "draṣṭā": 7499,
      "madhe": 7500,
      "ktir": 7501,
      "cetaḥ": 7502,
      "dharmadhā": 7503,
      "phaṇi": 7504,
      "parāṅ": 7505,
      "parākramaḥ": 7506,
      "brahmaṇe": 7507,
      "va̍ṁ": 7508,
      "kṣema": 7509,
      "nyāsa": 7510,
      "agh": 7511,
      "agnau": 7512,
      "va̱t": 7513,
      "saha̍": 7514,
      "sahaḥ": 7515,
      "yuktasya": 7516,
      "yuktyā": 7517,
      "sṛje": 7518,
      "anū": 7519,
      "dṛṣṭir": 7520,
      "u̱ṣā": 7521,
      "arva̍": 7522,
      "drāva": 7523,
      "puruṣe": 7524,
      "vṛttā": 7525,
      "kīrtir": 7526,
      "prāpyate": 7527,
      "śṛṅge": 7528,
      "vāca̍m": 7529,
      "vi̱dat": 7530,
      "harim": 7531,
      "sthala": 7532,
      "ya̍n": 7533,
      "dānavaḥ": 7534,
      "vā̱ji": 7535,
      "rakṣasāṃ": 7536,
      "purāṇaṃ": 7537,
      "bhrātara": 7538,
      "bhaktir": 7539,
      "bravīmi": 7540,
      "vaktum": 7541,
      "mahi̍": 7542,
      "mahiṣī": 7543,
      "ratha̍ṁ": 7544,
      "vyavasthitā": 7545,
      "tasmāda": 7546,
      "tarka": 7547,
      "rāṃsi": 7548,
      "mahīpatiḥ": 7549,
      "pūjayed": 7550,
      "vasu̍": 7551,
      "grahaṇa": 7552,
      "labdhaṃ": 7553,
      "somasya": 7554,
      "varjitaḥ": 7555,
      "khyasaṃvaram": 7556,
      "yoginī": 7557,
      "tvattaḥ": 7558,
      "cintayan": 7559,
      "srava": 7560,
      "ṣaṭkaṃ": 7561,
      "muktaye": 7562,
      "rūpiṇam": 7563,
      "mi̱trā": 7564,
      "kathito": 7565,
      "niścayaḥ": 7566,
      "niścayī": 7567,
      "bhuvanāni": 7568,
      "bhinnaṃ": 7569,
      "lakṣmīr": 7570,
      "pārthivaḥ": 7571,
      "vijayā": 7572,
      "vasiṣṭha": 7573,
      "sṛjat": 7574,
      "catvāro": 7575,
      "asyāḥ": 7576,
      "stambha": 7577,
      "apsara": 7578,
      "rāgādi": 7579,
      "tataśca": 7580,
      "kāruṇi": 7581,
      "gacchet": 7582,
      "pratyuvāca": 7583,
      "tatheti": 7584,
      "lāvaṇya": 7585,
      "īśāna": 7586,
      "bhaktānāṃ": 7587,
      "rudhiraṃ": 7588,
      "puṇḍarīkā": 7589,
      "sattveṣu": 7590,
      "maitreya": 7591,
      "mārkaṇḍeya": 7592,
      "mriyate": 7593,
      "akāra": 7594,
      "ajī": 7595,
      "anava": 7596,
      "abhavat": 7597,
      "adṛṣṭa": 7598,
      "bdhi": 7599,
      "etaṃ": 7600,
      "ghya": 7601,
      "itaḥ": 7602,
      "imām": 7603,
      "kyaṃ": 7604,
      "kvāpi": 7605,
      "lyam": 7606,
      "ry": 7607,
      "rpa": 7608,
      "rju": 7609,
      "syuḥ": 7610,
      "ñcī": 7611,
      "āgaccha": 7612,
      "̍vaḥ": 7613,
      "̱v": 7614,
      "ṭiti": 7615,
      "ya̱ṁ": 7616,
      "raṇaṃ": 7617,
      "tavo": 7618,
      "taccha": 7619,
      "tacch": 7620,
      "vatu": 7621,
      "vataḥ": 7622,
      "vahati": 7623,
      "vaha̍": 7624,
      "maj": 7625,
      "marā": 7626,
      "maṇiḥ": 7627,
      "satām": 7628,
      "saṅgā": 7629,
      "sajja": 7630,
      "yāśca": 7631,
      "hād": 7632,
      "vāka": 7633,
      "vāsaḥ": 7634,
      "vām̐": 7635,
      "caya": 7636,
      "caraḥ": 7637,
      "cakri": 7638,
      "vitaḥ": 7639,
      "vivar": 7640,
      "vinaḥ": 7641,
      "vimo": 7642,
      "vilokya": 7643,
      "kaut": 7644,
      "kathya": 7645,
      "mālī": 7646,
      "nāc": 7647,
      "nivṛtti": 7648,
      "śaku": 7649,
      "pradaṃ": 7650,
      "praco": 7651,
      "prasiddha": 7652,
      "pralaya": 7653,
      "laj": 7654,
      "lap": 7655,
      "jayo": 7656,
      "riva": 7657,
      "tu̍": 7658,
      "kād": 7659,
      "yec": 7660,
      "pāc": 7661,
      "yonir": 7662,
      "ṣṭhas": 7663,
      "dātā": 7664,
      "dānta": 7665,
      "saṃcara": 7666,
      "saṃgrāme": 7667,
      "pitro": 7668,
      "muh": 7669,
      "roci": 7670,
      "bhāṇḍa": 7671,
      "dhārī": 7672,
      "dhig": 7673,
      "kṣatraṃ": 7674,
      "jātāḥ": 7675,
      "jā̱ta": 7676,
      "bah": 7677,
      "nemi": 7678,
      "neṣv": 7679,
      "num": 7680,
      "cāraṃ": 7681,
      "kuṅku": 7682,
      "svarūpeṇa": 7683,
      "tyapi": 7684,
      "varṣe": 7685,
      "varco": 7686,
      "vṛṣṭi": 7687,
      "dupa": 7688,
      "prāti": 7689,
      "nīr": 7690,
      "nī̱": 7691,
      "śud": 7692,
      "evama": 7693,
      "keli": 7694,
      "kenāpi": 7695,
      "śva̱": 7696,
      "jñāti": 7697,
      "liptā": 7698,
      "mṛtam": 7699,
      "mṛḍa": 7700,
      "pariṇa": 7701,
      "yasyāṃ": 7702,
      "yastvaṃ": 7703,
      "nirṛ": 7704,
      "nirva": 7705,
      "nirvāsa": 7706,
      "vyayam": 7707,
      "bhujaṃ": 7708,
      "vyāpta": 7709,
      "a̱haṁ": 7710,
      "sambhavaḥ": 7711,
      "pekṣā": 7712,
      "kalpya": 7713,
      "ṇo̍": 7714,
      "pūrya": 7715,
      "hīno": 7716,
      "ktiḥ": 7717,
      "kāraiḥ": 7718,
      "vidru": 7719,
      "cen": 7720,
      "jagatī": 7721,
      "viṣkam": 7722,
      "geṇa": 7723,
      "parām": 7724,
      "parān": 7725,
      "saubhāg": 7726,
      "ratnāni": 7727,
      "śrad": 7728,
      "rājate": 7729,
      "daśaratha": 7730,
      "nṛṇāṃ": 7731,
      "karau": 7732,
      "śrutva": 7733,
      "pī̱": 7734,
      "smaret": 7735,
      "dhyāyan": 7736,
      "anuttamam": 7737,
      "līḍha": 7738,
      "mahati": 7739,
      "nāmataḥ": 7740,
      "nyāni": 7741,
      "svādhyā": 7742,
      "janakā": 7743,
      "a̍dhva̱": 7744,
      "mīla": 7745,
      "sarvāṃ": 7746,
      "bodhicaryā": 7747,
      "durgati": 7748,
      "ya̱jñi": 7749,
      "śūli": 7750,
      "viṣayaḥ": 7751,
      "indra̱ḥ": 7752,
      "utthā": 7753,
      "bahubhir": 7754,
      "ñjanam": 7755,
      "mathu": 7756,
      "vināśāya": 7757,
      "dūre": 7758,
      "anantā": 7759,
      "mantraḥ": 7760,
      "kṣīṇā": 7761,
      "kṣīraṃ": 7762,
      "ma̍gha": 7763,
      "vidhiṃ": 7764,
      "dānavāḥ": 7765,
      "i̱me": 7766,
      "tadaiva": 7767,
      "bṛ̱": 7768,
      "purāṇa": 7769,
      "antare": 7770,
      "kuruṣva": 7771,
      "rākṣasaḥ": 7772,
      "rākṣasān": 7773,
      "dharmāḥ": 7774,
      "yīṃ": 7775,
      "pramāṇā": 7776,
      "brāhmaṇe": 7777,
      "brāhmaṇasya": 7778,
      "prathamā": 7779,
      "mahīṃ": 7780,
      "hṛdayam": 7781,
      "cakrā": 7782,
      "cakrur": 7783,
      "pātaka": 7784,
      "di̱ve": 7785,
      "ha̱vyā": 7786,
      "balāt": 7787,
      "mahātmanām": 7788,
      "madhyagam": 7789,
      "grīvā": 7790,
      "anāgata": 7791,
      "satata": 7792,
      "mānuṣā": 7793,
      "dhruva": 7794,
      "caritā": 7795,
      "maraṇaṃ": 7796,
      "paśyasi": 7797,
      "gṛhṇā": 7798,
      "viśan": 7799,
      "munīśvara": 7800,
      "hira̍ṇya": 7801,
      "vāsinī": 7802,
      "viśāla": 7803,
      "saṃyuge": 7804,
      "nirvāṇaṃ": 7805,
      "āyuṣ": 7806,
      "śobhanam": 7807,
      "lakṣmīḥ": 7808,
      "bhagavate": 7809,
      "prakīrtitā": 7810,
      "prakīrtitam": 7811,
      "mudrāṃ": 7812,
      "japed": 7813,
      "cintāmaṇi": 7814,
      "tṛpti": 7815,
      "vijñeyā": 7816,
      "vivarjitaḥ": 7817,
      "divauka": 7818,
      "koṭyaḥ": 7819,
      "dvandva": 7820,
      "nvitaḥ": 7821,
      "vairāgya": 7822,
      "sākṣād": 7823,
      "indra̍sya": 7824,
      "krāntaṃ": 7825,
      "pātāle": 7826,
      "pāpāni": 7827,
      "ṣaḍakṣa": 7828,
      "trailokye": 7829,
      "viruddha": 7830,
      "vaidehyā": 7831,
      "vaidehīṃ": 7832,
      "jhaṭiti": 7833,
      "vyāpinī": 7834,
      "jṛmbhi": 7835,
      "vidyayā": 7836,
      "dundubhi": 7837,
      "prāpnuvanti": 7838,
      "maharṣayaḥ": 7839,
      "dyauḥ": 7840,
      "rakṣāṃsi": 7841,
      "hava̍m": 7842,
      "a̱smabhya": 7843,
      "vi̱dathe": 7844,
      "kautūha": 7845,
      "aiva": 7846,
      "ahu": 7847,
      "aṇi": 7848,
      "anāma": 7849,
      "asṛ": 7850,
      "amū": 7851,
      "ccāra": 7852,
      "eve": 7853,
      "etam": 7854,
      "etena": 7855,
      "ktyā": 7856,
      "lyāṃ": 7857,
      "nyi": 7858,
      "pyas": 7859,
      "svena": 7860,
      "āryā": 7861,
      "śyāma": 7862,
      "ūru": 7863,
      "ū̱taye̍": 7864,
      "̱na": 7865,
      "ḍe": 7866,
      "ḍī": 7867,
      "ḍhyaṃ": 7868,
      "ṛtu": 7869,
      "ṣṇo": 7870,
      "rajā": 7871,
      "vañ": 7872,
      "vadhā": 7873,
      "vaśam": 7874,
      "haviḥ": 7875,
      "marma": 7876,
      "panti": 7877,
      "yāga": 7878,
      "yāsi": 7879,
      "hāro": 7880,
      "vāvṛ": 7881,
      "cama": 7882,
      "vidaṃ": 7883,
      "viloka": 7884,
      "vinaśyati": 7885,
      "kasmā": 7886,
      "kasaṃvara": 7887,
      "daka": 7888,
      "dare": 7889,
      "māro": 7890,
      "mādhu": 7891,
      "māsān": 7892,
      "nā̍m": 7893,
      "nāsty": 7894,
      "gal": 7895,
      "gaṇaṃ": 7896,
      "gatān": 7897,
      "gabhī": 7898,
      "gacchāmi": 7899,
      "nime": 7900,
      "śava": 7901,
      "śaiḥ": 7902,
      "prada": 7903,
      "pradhānaṃ": 7904,
      "prayojayet": 7905,
      "bhya̱": 7906,
      "jaiḥ": 7907,
      "bhart": 7908,
      "ṇayā": 7909,
      "ṇamā": 7910,
      "tuṣṭa": 7911,
      "kānte": 7912,
      "pānaṃ": 7913,
      "pādya": 7914,
      "yonau": 7915,
      "sute": 7916,
      "suma̱": 7917,
      "surān": 7918,
      "ṣṭu̱": 7919,
      "ruddha": 7920,
      "dehaḥ": 7921,
      "trayaḥ": 7922,
      "saṃcintya": 7923,
      "pinā": 7924,
      "reta": 7925,
      "diḥ": 7926,
      "diśaṃ": 7927,
      "bhisaṃ": 7928,
      "yuva": 7929,
      "yuyu": 7930,
      "kṛtasya": 7931,
      "dhikaṃ": 7932,
      "kṣayaḥ": 7933,
      "kṣamaḥ": 7934,
      "jāyā": 7935,
      "badhyate": 7936,
      "netraṃ": 7937,
      "cāti": 7938,
      "lāṅga": 7939,
      "hetur": 7940,
      "śāna": 7941,
      "svarūpe": 7942,
      "bhūyas": 7943,
      "mahāra": 7944,
      "mahāmatiḥ": 7945,
      "varte": 7946,
      "vīṇā": 7947,
      "prātar": 7948,
      "tastathā": 7949,
      "nīti": 7950,
      "nīlotpala": 7951,
      "tattvena": 7952,
      "ttamaṃ": 7953,
      "keśi": 7954,
      "śvaśu": 7955,
      "manyate": 7956,
      "parito": 7957,
      "paripū": 7958,
      "pariśuddha": 7959,
      "ṣṭakaṃ": 7960,
      "jinaḥ": 7961,
      "jinasya": 7962,
      "trātā": 7963,
      "nirvyā": 7964,
      "sthitas": 7965,
      "sthitān": 7966,
      "vyaya": 7967,
      "bhuñja": 7968,
      "yatnād": 7969,
      "samāsataḥ": 7970,
      "yiṣ": 7971,
      "stutaḥ": 7972,
      "dīyate": 7973,
      "dīnām": 7974,
      "pṛta": 7975,
      "hṛdā": 7976,
      "a̱bhī": 7977,
      "a̱ntari̍": 7978,
      "petur": 7979,
      "bodhya": 7980,
      "tām̐": 7981,
      "vatsā": 7982,
      "jñas": 7983,
      "śramaṃ": 7984,
      "vratāḥ": 7985,
      "sanna": 7986,
      "karaṇī": 7987,
      "samucca": 7988,
      "varada": 7989,
      "sarveṣām": 7990,
      "vajri": 7991,
      "sadān": 7992,
      "sadāśivaḥ": 7993,
      "bhāvasya": 7994,
      "bhītā": 7995,
      "viśrān": 7996,
      "anyat": 7997,
      "dṛṣṭiḥ": 7998,
      "dvābhyāṃ": 7999,
      "ṣo̱": 8000,
      "viśva̍": 8001,
      "viṣayo": 8002,
      "vṛttyā": 8003,
      "grāmaṃ": 8004,
      "yamāṇa": 8005,
      "surabhi": 8006,
      "ekaikaṃ": 8007,
      "putras": 8008,
      "sara̍": 8009,
      "maheśāni": 8010,
      "rāmas": 8011,
      "śambhave": 8012,
      "śakto": 8013,
      "kāryo": 8014,
      "siddhim": 8015,
      "vākyena": 8016,
      "cīra": 8017,
      "bhrātrā": 8018,
      "bhrātaraṃ": 8019,
      "viṣṇunā": 8020,
      "siddhagandharva": 8021,
      "brāhmaṇān": 8022,
      "tīrthi": 8023,
      "chatra": 8024,
      "ta̍nā": 8025,
      "istathā": 8026,
      "dyu̱": 8027,
      "ha̱viṣā": 8028,
      "ndriyāṇi": 8029,
      "śāntaḥ": 8030,
      "sada̍": 8031,
      "candrama": 8032,
      "kadācid": 8033,
      "yogināṃ": 8034,
      "kuśalā": 8035,
      "padeśena": 8036,
      "viniśca": 8037,
      "sukhāva": 8038,
      "sukhāvatīm": 8039,
      "anyad": 8040,
      "kāriṇaḥ": 8041,
      "nāradaḥ": 8042,
      "parameṣṭhi": 8043,
      "tūṣ": 8044,
      "samanvitāḥ": 8045,
      "samādhiṃ": 8046,
      "siṃhasya": 8047,
      "maruto": 8048,
      "niyatā": 8049,
      "bhuvanā": 8050,
      "matimān": 8051,
      "bhavantam": 8052,
      "rajanī": 8053,
      "pārthiva": 8054,
      "bhagavati": 8055,
      "bhagavatā": 8056,
      "kramo": 8057,
      "gagane": 8058,
      "gaganaṃ": 8059,
      "sundari": 8060,
      "paraspara": 8061,
      "bṛhaspatiḥ": 8062,
      "śaṅkhacakra": 8063,
      "puruṣottamaḥ": 8064,
      "ya̱jñaṁ": 8065,
      "vicāraṇā": 8066,
      "ariṃ": 8067,
      "padyata": 8068,
      "viśrutaḥ": 8069,
      "prāyaścit": 8070,
      "pīṭhe": 8071,
      "psitam": 8072,
      "vaṇig": 8073,
      "śatrūn": 8074,
      "puraskṛtya": 8075,
      "bṛ̱had": 8076,
      "kaṭhi": 8077,
      "maithilī": 8078,
      "dhvajo": 8079,
      "rājñī": 8080,
      "at": 8081,
      "ada": 8082,
      "arthaṃ": 8083,
      "avidyā": 8084,
      "akhila": 8085,
      "draṃ": 8086,
      "iya": 8087,
      "irā": 8088,
      "imāḥ": 8089,
      "kḷ": 8090,
      "ndi": 8091,
      "pyo": 8092,
      "smān": 8093,
      "ubhā": 8094,
      "śyaṃ": 8095,
      "̱g": 8096,
      "̱ṇ": 8097,
      "̱nn": 8098,
      "ṅdhi": 8099,
      "yaju": 8100,
      "yajet": 8101,
      "ra̱ṁ": 8102,
      "raṇya": 8103,
      "had": 8104,
      "matāḥ": 8105,
      "mastu": 8106,
      "pakṣ": 8107,
      "patad": 8108,
      "vādā": 8109,
      "vāraṃ": 8110,
      "vādaḥ": 8111,
      "calā": 8112,
      "caraṃ": 8113,
      "viṃ": 8114,
      "vine": 8115,
      "vihāra": 8116,
      "viśat": 8117,
      "vicintya": 8118,
      "titha": 8119,
      "kata": 8120,
      "kaṣā": 8121,
      "kapar": 8122,
      "kaṭe": 8123,
      "dapi": 8124,
      "dale": 8125,
      "dakṣo": 8126,
      "māsaṃ": 8127,
      "māṇā": 8128,
      "mā̱tā": 8129,
      "nāsya": 8130,
      "nārtha": 8131,
      "nālaṃ": 8132,
      "gabha": 8133,
      "garī": 8134,
      "gaṅga": 8135,
      "nipu": 8136,
      "nitam": 8137,
      "nirāma": 8138,
      "nivāsa": 8139,
      "nipāta": 8140,
      "nimag": 8141,
      "prasṛ": 8142,
      "prabuddha": 8143,
      "praśānta": 8144,
      "pravarti": 8145,
      "janta": 8146,
      "jagha": 8147,
      "rite": 8148,
      "tuṅga": 8149,
      "tulyaṃ": 8150,
      "kāṇḍa": 8151,
      "syase": 8152,
      "pāṣā": 8153,
      "suvrata": 8154,
      "sukho": 8155,
      "ṣṭya": 8156,
      "run": 8157,
      "ruvāca": 8158,
      "saṃpūr": 8159,
      "pipā": 8160,
      "mihā": 8161,
      "cirā": 8162,
      "cike": 8163,
      "bhājāṃ": 8164,
      "dhi̱": 8165,
      "dhipāḥ": 8166,
      "cātmānaṃ": 8167,
      "het": 8168,
      "śā̍": 8169,
      "śāpa": 8170,
      "śālā": 8171,
      "lohitā": 8172,
      "bhūtāṃ": 8173,
      "mahāvīryā": 8174,
      "nopā": 8175,
      "noty": 8176,
      "vṛnda": 8177,
      "vṛści": 8178,
      "dug": 8179,
      "ṣād": 8180,
      "tasū": 8181,
      "irvā": 8182,
      "śikṣi": 8183,
      "śibi": 8184,
      "kham": 8185,
      "bhavasi": 8186,
      "keyū": 8187,
      "manva": 8188,
      "liṅgi": 8189,
      "dṛḍhā": 8190,
      "pariccha": 8191,
      "budhya": 8192,
      "vaineya": 8193,
      "vya̍": 8194,
      "vyabhi": 8195,
      "vyaktaṃ": 8196,
      "triṃ": 8197,
      "tridaśā": 8198,
      "tmaka": 8199,
      "vyāt": 8200,
      "kṣipe": 8201,
      "a̱dyā": 8202,
      "a̱bhy": 8203,
      "ghaḥ": 8204,
      "karṇe": 8205,
      "dviguṇaṃ": 8206,
      "bāhye": 8207,
      "nyad": 8208,
      "bodhāya": 8209,
      "lamb": 8210,
      "patito": 8211,
      "dhīraḥ": 8212,
      "kṣāṇi": 8213,
      "sītayā": 8214,
      "parāt": 8215,
      "saum": 8216,
      "brahmahatyā": 8217,
      "janakaṃ": 8218,
      "a̍si": 8219,
      "bhīta": 8220,
      "ghūr": 8221,
      "sṛ̱": 8222,
      "sa̱tya": 8223,
      "pañcamī": 8224,
      "pañcaviṃśa": 8225,
      "durga": 8226,
      "dvāri": 8227,
      "dvāraṃ": 8228,
      "bhṛṅga": 8229,
      "treṣu": 8230,
      "kīrṇā": 8231,
      "prāptāḥ": 8232,
      "khilā": 8233,
      "śaraṇe": 8234,
      "indrasya": 8235,
      "ghoṣo": 8236,
      "vi̱ś": 8237,
      "vi̱śvā": 8238,
      "utthāya": 8239,
      "suraiḥ": 8240,
      "bim": 8241,
      "śritya": 8242,
      "sūryasya": 8243,
      "kriyatāṃ": 8244,
      "lakṣaṃ": 8245,
      "lakṣaṇaḥ": 8246,
      "niṣkramya": 8247,
      "avasthā": 8248,
      "dakṣiṇena": 8249,
      "kālasya": 8250,
      "sphūr": 8251,
      "prajāṃ": 8252,
      "prajānāṃ": 8253,
      "datte": 8254,
      "śataiḥ": 8255,
      "bharata": 8256,
      "vidhāna": 8257,
      "kāmasya": 8258,
      "kāryaḥ": 8259,
      "dhāraṇā": 8260,
      "rakṣanti": 8261,
      "antara": 8262,
      "bhaktiḥ": 8263,
      "purato": 8264,
      "mahim": 8265,
      "tasmiṃ": 8266,
      "nandanaḥ": 8267,
      "nāyakaḥ": 8268,
      "tamasā": 8269,
      "jagatpate": 8270,
      "tarja": 8271,
      "mahīm": 8272,
      "pūjanaṃ": 8273,
      "sphurati": 8274,
      "hṛdayā": 8275,
      "dṛśyaṃ": 8276,
      "striṃśa": 8277,
      "prasādaṃ": 8278,
      "kadāci": 8279,
      "nāśaya": 8280,
      "vardha̍": 8281,
      "yajñasya": 8282,
      "varṣasahasrāṇi": 8283,
      "mahoda": 8284,
      "karāla": 8285,
      "vṛ̱dhe": 8286,
      "vāriṇā": 8287,
      "kāriṇī": 8288,
      "śailā": 8289,
      "kartavyā": 8290,
      "nantaraṃ": 8291,
      "parameśvaram": 8292,
      "śubhāśubha": 8293,
      "adyaiva": 8294,
      "de̱vām̐": 8295,
      "bhajanti": 8296,
      "mālāṃ": 8297,
      "bhāṣate": 8298,
      "sūkṣmā": 8299,
      "nirmala": 8300,
      "pūjita": 8301,
      "pūjitaḥ": 8302,
      "kapiḥ": 8303,
      "kapila": 8304,
      "keśavaḥ": 8305,
      "tṛtīye": 8306,
      "pāṇiṃ": 8307,
      "nadīm": 8308,
      "jinātmajaḥ": 8309,
      "...": 8310,
      "vipulā": 8311,
      "nagare": 8312,
      "dhanyo": 8313,
      "asmākam": 8314,
      "kathāṃ": 8315,
      "vijñeyaṃ": 8316,
      "śaucaṃ": 8317,
      "mitrāvaruṇā": 8318,
      "maṅgala": 8319,
      "ghnanti": 8320,
      "dbhavaṃ": 8321,
      "lokanātham": 8322,
      "mahātejāḥ": 8323,
      "̱nāṁ": 8324,
      "jāmbū": 8325,
      "kurvann": 8326,
      "vināśanam": 8327,
      "draṣṭum": 8328,
      "dbhutam": 8329,
      "kliṣṭa": 8330,
      "pratiṣṭhitāḥ": 8331,
      "yuṣmā": 8332,
      "graheṇa": 8333,
      "tiryag": 8334,
      "rukmi": 8335,
      "lokite": 8336,
      "ra̱yim": 8337,
      "pitṝṇāṃ": 8338,
      "madhyasthaṃ": 8339,
      "āścaryaṃ": 8340,
      "pibet": 8341,
      "yatredaṃ": 8342,
      "anti": 8343,
      "avyā": 8344,
      "asū": 8345,
      "abhī": 8346,
      "asad": 8347,
      "asu̍": 8348,
      "adhunā": 8349,
      "akhilaṃ": 8350,
      "eṣo": 8351,
      "etasminn": 8352,
      "gnā": 8353,
      "of": 8354,
      "tpan": 8355,
      "ñcu": 8356,
      "āyā": 8357,
      "śco": 8358,
      "̍ta̱": 8359,
      "ḍhe": 8360,
      "ṅke": 8361,
      "ṛtvi": 8362,
      "ṣṇi": 8363,
      "yadṛ": 8364,
      "rate": 8365,
      "rathi": 8366,
      "raja̍": 8367,
      "rahitaṃ": 8368,
      "tacc": 8369,
      "tapaś": 8370,
      "vadh": 8371,
      "mal": 8372,
      "mari": 8373,
      "mathā": 8374,
      "makara": 8375,
      "mada̍": 8376,
      "made̍": 8377,
      "nat": 8378,
      "na̱m": 8379,
      "sakā": 8380,
      "patyā": 8381,
      "vānāṃ": 8382,
      "vācya": 8383,
      "viti": 8384,
      "vici": 8385,
      "vikṣe": 8386,
      "tiro": 8387,
      "kaśi": 8388,
      "kareṇa": 8389,
      "rājī": 8390,
      "tāḍi": 8391,
      "māṇo": 8392,
      "māṇaḥ": 8393,
      "nāha": 8394,
      "nāna": 8395,
      "nāśo": 8396,
      "nādya": 8397,
      "nāham": 8398,
      "nita": 8399,
      "nibhā": 8400,
      "nirū": 8401,
      "niyata": 8402,
      "nihitā": 8403,
      "nibhaṃ": 8404,
      "nidhāna": 8405,
      "śatro": 8406,
      "pramat": 8407,
      "lakaṃ": 8408,
      "ṣaṣṭha": 8409,
      "dhare": 8410,
      "dha̍ḥ": 8411,
      "dharāḥ": 8412,
      "ritāḥ": 8413,
      "pālaḥ": 8414,
      "yojya": 8415,
      "sumitrā": 8416,
      "dām": 8417,
      "vede": 8418,
      "saṃvit": 8419,
      "saṃkāśaṃ": 8420,
      "revaṃ": 8421,
      "mu̱": 8422,
      "bhikṣa": 8423,
      "roma": 8424,
      "ciccheda": 8425,
      "bhāk": 8426,
      "bhāṣā": 8427,
      "bhājanam": 8428,
      "dhāni": 8429,
      "dhātau": 8430,
      "tvamā": 8431,
      "kṣan": 8432,
      "medi": 8433,
      "jātam": 8434,
      "cāpya": 8435,
      "kura": 8436,
      "hetor": 8437,
      "śāyi": 8438,
      "sva̱r": 8439,
      "svacchan": 8440,
      "tyartha": 8441,
      "nta̱m": 8442,
      "bhūyi": 8443,
      "ndrāḥ": 8444,
      "sarvavit": 8445,
      "sarvajñaḥ": 8446,
      "mahāyāna": 8447,
      "ūrdhve": 8448,
      "vṛṣo": 8449,
      "prāmā": 8450,
      "tastasya": 8451,
      "nīva": 8452,
      "guṇam": 8453,
      "guḍa": 8454,
      "guṇena": 8455,
      "manvanta": 8456,
      "jigh": 8457,
      "somaṃ": 8458,
      "tadvī": 8459,
      "bhuḥ": 8460,
      "samāsena": 8461,
      "samāsādya": 8462,
      "samāhitāḥ": 8463,
      "tyām": 8464,
      "tyāha": 8465,
      "yino": 8466,
      "khyam": 8467,
      "syāya": 8468,
      "ṅgam": 8469,
      "hastam": 8470,
      "samabhyarcya": 8471,
      "śoko": 8472,
      "pratibhā": 8473,
      "pratipadyate": 8474,
      "hṛtaḥ": 8475,
      "hṛṣī": 8476,
      "pūṣā": 8477,
      "gharma": 8478,
      "bhoḥ": 8479,
      "bhojanam": 8480,
      "kalī": 8481,
      "kalpo": 8482,
      "dvipa": 8483,
      "drakṣ": 8484,
      "hīti": 8485,
      "paśye": 8486,
      "vidyo": 8487,
      "jīvaṃ": 8488,
      "geṣu": 8489,
      "parāḥ": 8490,
      "tatraivā": 8491,
      "tatrasthaḥ": 8492,
      "saubhāgya": 8493,
      "dolā": 8494,
      "śrayet": 8495,
      "brahma̍": 8496,
      "ṣṭān": 8497,
      "sann": 8498,
      "santaḥ": 8499,
      "nṛśaṃ": 8500,
      "ptavān": 8501,
      "mahate": 8502,
      "karmaṇaḥ": 8503,
      "svābhāvi": 8504,
      "māṃs": 8505,
      "caturo": 8506,
      "agnī": 8507,
      "sahasva": 8508,
      "ṣe̱": 8509,
      "yuktena": 8510,
      "dharṣa": 8511,
      "sṛṣṭa": 8512,
      "sṛṣṭā": 8513,
      "bodhicittam": 8514,
      "pañcamaṃ": 8515,
      "sahasram": 8516,
      "sahasrākṣa": 8517,
      "buddhatvaṃ": 8518,
      "dvāre": 8519,
      "śūrā": 8520,
      "śūnyaṃ": 8521,
      "bhṛto": 8522,
      "viṣama": 8523,
      "vṛtte": 8524,
      "khin": 8525,
      "jo̍": 8526,
      "yamāne": 8527,
      "ghoṣā": 8528,
      "nāthaḥ": 8529,
      "nāthasya": 8530,
      "bhya̍ḥ": 8531,
      "steṣu": 8532,
      "steṣāṃ": 8533,
      "mārta": 8534,
      "jante": 8535,
      "kṛṣya": 8536,
      "jñeya": 8537,
      "dhṛtā": 8538,
      "mattā": 8539,
      "vināśi": 8540,
      "śivasya": 8541,
      "dūrād": 8542,
      "vedanā": 8543,
      "prajāpati": 8544,
      "mantram": 8545,
      "gandhapuṣpā": 8546,
      "mūrdhā": 8547,
      "mūrtiṃ": 8548,
      "vidhānataḥ": 8549,
      "vadati": 8550,
      "sādhako": 8551,
      "śabdaṃ": 8552,
      "siddhipradā": 8553,
      "bṛhat": 8554,
      "bhyo̍": 8555,
      "dhāraṇa": 8556,
      "dhārayet": 8557,
      "ḍāki": 8558,
      "sphurat": 8559,
      "śaṅkā": 8560,
      "di̱vaḥ": 8561,
      "ndriyā": 8562,
      "parvate": 8563,
      "āsanaṃ": 8564,
      "mokṣaḥ": 8565,
      "varjitā": 8566,
      "mṛtyum": 8567,
      "ṣṭhena": 8568,
      "pradāpayet": 8569,
      "gṛhīto": 8570,
      "tanum": 8571,
      "tanur": 8572,
      "rāghavam": 8573,
      "rāghavasya": 8574,
      "śrotum": 8575,
      "kartavyam": 8576,
      "samīpa": 8577,
      "viśanti": 8578,
      "prabhoḥ": 8579,
      "samādhim": 8580,
      "ramate": 8581,
      "jagāda": 8582,
      "jagāmā": 8583,
      "nārāyaṇā": 8584,
      "muneḥ": 8585,
      "hyete": 8586,
      "saṃsārā": 8587,
      "janitā": 8588,
      "bhagavato": 8589,
      "raviḥ": 8590,
      "prāptau": 8591,
      "baliṃ": 8592,
      "mantrāṇāṃ": 8593,
      "kurvate": 8594,
      "vivarjitāḥ": 8595,
      "vadāmi": 8596,
      "vṛddhir": 8597,
      "vividhāni": 8598,
      "suhṛt": 8599,
      "vidyut": 8600,
      "vṛ̍ṇī": 8601,
      "tthāya": 8602,
      "ripuḥ": 8603,
      "vindati": 8604,
      "nvitāḥ": 8605,
      "amuṃ": 8606,
      "prāṇāyā": 8607,
      "vilāsa": 8608,
      "kalpitaṃ": 8609,
      "anyonya": 8610,
      "atyanta": 8611,
      "pṛthi̱vyā": 8612,
      "mukuṭa": 8613,
      "bheṣajam": 8614,
      "saṃvidā": 8615,
      "paṅke": 8616,
      "janārdanam": 8617,
      "gāmbhī": 8618,
      "prāyaścittaṃ": 8619,
      "pratyekaṃ": 8620,
      "mucyante": 8621,
      "pava̍māna": 8622,
      "maithu": 8623,
      "anekadhā": 8624,
      "ddhṛtya": 8625,
      "prayacchati": 8626,
      "bāṣpa": 8627,
      "kadalī": 8628,
      "sārathiḥ": 8629,
      "acchā̍": 8630,
      "mṛtyor": 8631,
      "nairātmya": 8632,
      "sphoṭa": 8633,
      "likhet": 8634,
      "asta": 8635,
      "adhī": 8636,
      "ambho": 8637,
      "cyāṃ": 8638,
      "ghas": 8639,
      "greṇa": 8640,
      "itī": 8641,
      "ntv": 8642,
      "psaro": 8643,
      "svo": 8644,
      "smy": 8645,
      "uja": 8646,
      "uddhā": 8647,
      "unna": 8648,
      "ñcha": 8649,
      "āgatā": 8650,
      "āgan": 8651,
      "āhuḥ": 8652,
      "āśvāsa": 8653,
      "āsvāda": 8654,
      "śūr": 8655,
      "śce": 8656,
      "̍to": 8657,
      "ṅkāro": 8658,
      "ṇṇa": 8659,
      "ṇeva": 8660,
      "rak": 8661,
      "rato": 8662,
      "ravaḥ": 8663,
      "taṭa": 8664,
      "taṭe": 8665,
      "vanāni": 8666,
      "nayaḥ": 8667,
      "naki": 8668,
      "sarā": 8669,
      "savya": 8670,
      "saktā": 8671,
      "saṅka": 8672,
      "savi̱tā": 8673,
      "payas": 8674,
      "yābhi": 8675,
      "vāhā": 8676,
      "vāmā": 8677,
      "vāja̍": 8678,
      "cañca": 8679,
      "candraṃ": 8680,
      "vipa": 8681,
      "vivṛ": 8682,
      "vilī": 8683,
      "vidhvaṃ": 8684,
      "vimoca": 8685,
      "vilambi": 8686,
      "tiri": 8687,
      "tisro": 8688,
      "kanī": 8689,
      "kasyāpi": 8690,
      "rātrā": 8691,
      "rātrī": 8692,
      "tāre": 8693,
      "danā": 8694,
      "damaḥ": 8695,
      "nāśi": 8696,
      "nāśca": 8697,
      "nā̱m": 8698,
      "nāthāya": 8699,
      "gatya": 8700,
      "gaje": 8701,
      "gaur": 8702,
      "nivi": 8703,
      "niṣṭhā": 8704,
      "nivartate": 8705,
      "śay": 8706,
      "śatena": 8707,
      "śanai": 8708,
      "praya": 8709,
      "pradakṣiṇaṃ": 8710,
      "las": 8711,
      "labhya": 8712,
      "lalita": 8713,
      "bhayāva": 8714,
      "bhajāmi": 8715,
      "ṇa̍ḥ": 8716,
      "dhava": 8717,
      "dhatta": 8718,
      "kāśi": 8719,
      "yetya": 8720,
      "subhaga": 8721,
      "sukṛtaṃ": 8722,
      "dāyā": 8723,
      "dānīṃ": 8724,
      "sādho": 8725,
      "trastā": 8726,
      "saṃvarta": 8727,
      "saṃspṛ": 8728,
      "pibā": 8729,
      "didaṃ": 8730,
      "purū": 8731,
      "putri": 8732,
      "pusta": 8733,
      "mutra": 8734,
      "roṣa": 8735,
      "ci̱t": 8736,
      "bhāvya": 8737,
      "yum": 8738,
      "yupa": 8739,
      "kṛmi": 8740,
      "kṛśā": 8741,
      "dhik": 8742,
      "tvadā": 8743,
      "mene": 8744,
      "jānāmi": 8745,
      "baṃ": 8746,
      "sidhyati": 8747,
      "sindū": 8748,
      "nulepa": 8749,
      "nupūrvaśaḥ": 8750,
      "cāṃ": 8751,
      "cāmara": 8752,
      "heta": 8753,
      "heru": 8754,
      "svarā": 8755,
      "svasta": 8756,
      "lobhā": 8757,
      "tyajet": 8758,
      "bhūyāt": 8759,
      "sarvasattvā": 8760,
      "stve": 8761,
      "mahādevo": 8762,
      "varṇaḥ": 8763,
      "vṛṣā̱": 8764,
      "duhā": 8765,
      "prāṇaṃ": 8766,
      "prākāra": 8767,
      "tastvaṃ": 8768,
      "śu̍": 8769,
      "śiṣṭa": 8770,
      "tatpra": 8771,
      "khaṭvā": 8772,
      "kintu": 8773,
      "kiraṇā": 8774,
      "rūḍha": 8775,
      "huta": 8776,
      "ṣuḥ": 8777,
      "ramya": 8778,
      "parivarta": 8779,
      "tāṃs": 8780,
      "yang": 8781,
      "yantām": 8782,
      "mohi": 8783,
      "mogha": 8784,
      "sthitir": 8785,
      "yathāvad": 8786,
      "bhuk": 8787,
      "bhu̱": 8788,
      "devaiḥ": 8789,
      "devadevasya": 8790,
      "trividhaṃ": 8791,
      "paraśu": 8792,
      "gopī": 8793,
      "saty": 8794,
      "satyena": 8795,
      "hastena": 8796,
      "samanu": 8797,
      "sampra": 8798,
      "sambhavā": 8799,
      "bhojanaṃ": 8800,
      "kalu": 8801,
      "brahme": 8802,
      "pūrveṇa": 8803,
      "bāṇā": 8804,
      "madhū": 8805,
      "ṭaṅka": 8806,
      "dharmasya": 8807,
      "kṣān": 8808,
      "jagatām": 8809,
      "ṣṭham": 8810,
      "citto": 8811,
      "girī": 8812,
      "sīte": 8813,
      "gendra": 8814,
      "ryāḥ": 8815,
      "kīṃ": 8816,
      "vrati": 8817,
      "daśa̱": 8818,
      "karair": 8819,
      "samudya": 8820,
      "samuccārya": 8821,
      "śrutā": 8822,
      "stiṣṭha": 8823,
      "kvaci": 8824,
      "svādu": 8825,
      "māny": 8826,
      "va̱te": 8827,
      "a̍śvinā": 8828,
      "śrīman": 8829,
      "bhīmā": 8830,
      "dhuḥ": 8831,
      "sarvāṅga": 8832,
      "sarvāṃs": 8833,
      "ghyaṃ": 8834,
      "priyata": 8835,
      "manasa": 8836,
      "padminī": 8837,
      "pañcadhā": 8838,
      "dṛṣṭe": 8839,
      "punaru": 8840,
      "punareva": 8841,
      "ya̱jñe": 8842,
      "u̱bhe": 8843,
      "arci": 8844,
      "mārgo": 8845,
      "kṛṣṇam": 8846,
      "vacana": 8847,
      "ju̍": 8848,
      "śritaṃ": 8849,
      "namālā": 8850,
      "su̱te": 8851,
      "su̱tam": 8852,
      "matho": 8853,
      "proktaḥ": 8854,
      "pādapa": 8855,
      "dakṣiṇo": 8856,
      "dakṣiṇām": 8857,
      "bhramaḥ": 8858,
      "bhramati": 8859,
      "ya̍nn": 8860,
      "smābhir": 8861,
      "gandhaṃ": 8862,
      "madhuraṃ": 8863,
      "śakro": 8864,
      "stāt": 8865,
      "vidhivad": 8866,
      "kārye": 8867,
      "śubhadaṃ": 8868,
      "prabhāsa": 8869,
      "prabhāte": 8870,
      "uttaraṃ": 8871,
      "gatānāṃ": 8872,
      "kautu": 8873,
      "kaumārī": 8874,
      "vaktre": 8875,
      "dharmāṇāṃ": 8876,
      "tasmiṃs": 8877,
      "kīrtitā": 8878,
      "trīn": 8879,
      "ra̱ṇya": 8880,
      "śaṅku": 8881,
      "caitanya": 8882,
      "striyo": 8883,
      "di̱tyā": 8884,
      "careyaṃ": 8885,
      "careyam": 8886,
      "cetanā": 8887,
      "prasādena": 8888,
      "labdho": 8889,
      "rudre": 8890,
      "prabhur": 8891,
      "chinna": 8892,
      "gamane": 8893,
      "tvattas": 8894,
      "vitāna": 8895,
      "lakṣmaṇaṃ": 8896,
      "jānati": 8897,
      "vatsalaḥ": 8898,
      "kasmāt": 8899,
      "krīḍ": 8900,
      "samīpe": 8901,
      "jīvite": 8902,
      "rūpiṇīm": 8903,
      "danto": 8904,
      "rudrasya": 8905,
      "oṣadhe": 8906,
      "pravṛtte": 8907,
      "pravṛttir": 8908,
      "nārāyaṇaṃ": 8909,
      "śucir": 8910,
      "samutthi": 8911,
      "bhajate": 8912,
      "prasahya": 8913,
      "sūkṣmaṃ": 8914,
      "tanayā": 8915,
      "tanayo": 8916,
      "śuklā": 8917,
      "nadīṃ": 8918,
      "vrajanti": 8919,
      "vītarāgo": 8920,
      "amṛtā": 8921,
      "kiñci": 8922,
      "saṃsthānaṃ": 8923,
      "bhāveṣu": 8924,
      "divase": 8925,
      "śreṣṭhaḥ": 8926,
      "ityādi": 8927,
      "mātṛkā": 8928,
      "apsu": 8929,
      "hiraṇyakaśi": 8930,
      "bhartāraṃ": 8931,
      "parikīrtitaḥ": 8932,
      "mūḍhasya": 8933,
      "ajāyata": 8934,
      "bhiṣeca": 8935,
      "śṛṇvan": 8936,
      "yakṣmaṃ": 8937,
      "ṛṣīn": 8938,
      "śarma̍": 8939,
      "mañjughoṣaṃ": 8940,
      "vairāgyaṃ": 8941,
      "pitṝn": 8942,
      "māṇikya": 8943,
      "madhyasthā": 8944,
      "kimarthaṃ": 8945,
      "durlabhā": 8946,
      "mumukṣur": 8947,
      "ba̱rhir": 8948,
      "mahābāhur": 8949,
      "duḥkhena": 8950,
      "mayūra": 8951,
      "bhāskara": 8952,
      "yajñopavī": 8953,
      "śo̱ci": 8954,
      "paurṇamā": 8955,
      "dyāvā̍pṛthi̱vī": 8956,
      "śaṅkhacakragadā": 8957,
      "ab": 8958,
      "ayu": 8959,
      "astra": 8960,
      "avira": 8961,
      "ada̍": 8962,
      "artham": 8963,
      "abravīd": 8964,
      "dyāḥ": 8965,
      "ekāṃ": 8966,
      "hna": 8967,
      "om": 8968,
      "skha": 8969,
      "tman": 8970,
      "upati": 8971,
      "wit": 8972,
      "ārādha": 8973,
      "ī̍ṁ": 8974,
      "̍tī": 8975,
      "̱ṇā": 8976,
      "̱no": 8977,
      "̱ke": 8978,
      "ṅkaṃ": 8979,
      "ṇyaḥ": 8980,
      "yanaṃ": 8981,
      "yakṣe": 8982,
      "tari": 8983,
      "talaṃ": 8984,
      "hatam": 8985,
      "malaṃ": 8986,
      "maṇir": 8987,
      "naman": 8988,
      "satā": 8989,
      "saram": 8990,
      "sacarā": 8991,
      "pana": 8992,
      "palaṃ": 8993,
      "yātaṃ": 8994,
      "yāne": 8995,
      "hā̱": 8996,
      "vānta": 8997,
      "vādaṃ": 8998,
      "carya": 8999,
      "candro": 9000,
      "vibhave": 9001,
      "vidur": 9002,
      "vipakṣa": 9003,
      "vistṛ": 9004,
      "daiḥ": 9005,
      "dadhī": 9006,
      "da̍r": 9007,
      "dantā": 9008,
      "mādh": 9009,
      "mānya": 9010,
      "gaṇi": 9011,
      "gatyā": 9012,
      "gamana": 9013,
      "niṣṭa": 9014,
      "nidhanaṃ": 9015,
      "nisarga": 9016,
      "niṣaṇ": 9017,
      "śast": 9018,
      "śayāḥ": 9019,
      "śa̱tā": 9020,
      "śanair": 9021,
      "praṇe": 9022,
      "praśaṃ": 9023,
      "pradadau": 9024,
      "jal": 9025,
      "bhasmā": 9026,
      "ripū": 9027,
      "tuṣ": 9028,
      "dhyante": 9029,
      "yete": 9030,
      "syatha": 9031,
      "pāpī": 9032,
      "yodha": 9033,
      "sumahā": 9034,
      "ṣṭhita": 9035,
      "dāpayet": 9036,
      "ruda": 9037,
      "sāva": 9038,
      "sāro": 9039,
      "deśān": 9040,
      "deśena": 9041,
      "vekṣya": 9042,
      "trayī": 9043,
      "divyāṃ": 9044,
      "puḥ": 9045,
      "puṭā": 9046,
      "sarū": 9047,
      "bhi̱": 9048,
      "ror": 9049,
      "cireṇa": 9050,
      "bhā̍": 9051,
      "bhāvyaṃ": 9052,
      "dhāmnā": 9053,
      "yutaḥ": 9054,
      "kṛtāni": 9055,
      "dhita": 9056,
      "meka": 9057,
      "sitaḥ": 9058,
      "cāsti": 9059,
      "kuvala": 9060,
      "kupyati": 9061,
      "sval": 9062,
      "svataḥ": 9063,
      "svaraṃ": 9064,
      "svabhāvo": 9065,
      "tīra": 9066,
      "tītaṃ": 9067,
      "ndrāya": 9068,
      "sarvadharma": 9069,
      "sarvabhūtā": 9070,
      "sthyaṃ": 9071,
      "mahātmānaṃ": 9072,
      "vartta": 9073,
      "vṛtaṃ": 9074,
      "guda": 9075,
      "guṇāṃ": 9076,
      "śuddho": 9077,
      "bhavatī": 9078,
      "bhavantaṃ": 9079,
      "ttamām": 9080,
      "rūḍhaṃ": 9081,
      "huti": 9082,
      "jñānād": 9083,
      "ramye": 9084,
      "lip": 9085,
      "mṛgo": 9086,
      "dṛśī": 9087,
      "ṣṭakā": 9088,
      "jijñā": 9089,
      "sopa": 9090,
      "mo̱": 9091,
      "vaiśva": 9092,
      "nirmitā": 9093,
      "sthitāṃ": 9094,
      "yathākāmaṃ": 9095,
      "bhuvā": 9096,
      "bhukta": 9097,
      "samāyuktaṃ": 9098,
      "samāgatāḥ": 9099,
      "tripura": 9100,
      "tmako": 9101,
      "yiṣye": 9102,
      "paramānanda": 9103,
      "kramād": 9104,
      "samaprabhā": 9105,
      "pṛṣṭa": 9106,
      "pṛṣṭhā": 9107,
      "a̱ntar": 9108,
      "petā": 9109,
      "bhogi": 9110,
      "bhoktā": 9111,
      "bāl": 9112,
      "draṁ": 9113,
      "stan": 9114,
      "ñcana": 9115,
      "gṛhas": 9116,
      "gṛhyā": 9117,
      "vidvāṃ": 9118,
      "sū̱ra": 9119,
      "darśī": 9120,
      "jagadeka": 9121,
      "vatsara": 9122,
      "sthāvara": 9123,
      "jīvaḥ": 9124,
      "ktamā": 9125,
      "doṣe": 9126,
      "śrayāḥ": 9127,
      "brahmaṇas": 9128,
      "parjan": 9129,
      "tantryā": 9130,
      "śru̱": 9131,
      "va̍r": 9132,
      "caivaṃ": 9133,
      "nyāya": 9134,
      "mānau": 9135,
      "bhīti": 9136,
      "bhīṣma": 9137,
      "ghnaṃ": 9138,
      "priyām": 9139,
      "manasaḥ": 9140,
      "mana̍sā": 9141,
      "mukte": 9142,
      "muktasya": 9143,
      "devās": 9144,
      "carate": 9145,
      "tretā": 9146,
      "gītā": 9147,
      "gī̱r": 9148,
      "smṛtya": 9149,
      "vi̱dvā": 9150,
      "utpāda": 9151,
      "puṣpāṇi": 9152,
      "pretya": 9153,
      "balaḥ": 9154,
      "sūryaṃ": 9155,
      "lokeśvaro": 9156,
      "su̱taḥ": 9157,
      "su̱vīrya": 9158,
      "matsa̱": 9159,
      "kriyaḥ": 9160,
      "pādayoḥ": 9161,
      "devīr": 9162,
      "mahendra": 9163,
      "ya̍ja": 9164,
      "sphāra": 9165,
      "śaktya": 9166,
      "bharato": 9167,
      "hūya": 9168,
      "i̱tthā": 9169,
      "uttama": 9170,
      "praṇato": 9171,
      "cintyaṃ": 9172,
      "vākye": 9173,
      "antarā": 9174,
      "prītaḥ": 9175,
      "nāyakam": 9176,
      "vyavasthā": 9177,
      "vyavahāra": 9178,
      "kūṭe": 9179,
      "jambha": 9180,
      "ra̱śmi": 9181,
      "pūjanam": 9182,
      "cakram": 9183,
      "caitan": 9184,
      "striyā": 9185,
      "ukte": 9186,
      "bhūmiṣu": 9187,
      "ṅgulī": 9188,
      "yā̍ya": 9189,
      "rudraḥ": 9190,
      "samudbhūtaṃ": 9191,
      "mahotsa": 9192,
      "mahodadhi": 9193,
      "kariṣyanti": 9194,
      "kariṣyasi": 9195,
      "atra̍": 9196,
      "puruṣasya": 9197,
      "śrotra": 9198,
      "śrotumi": 9199,
      "̱ny": 9200,
      "taila": 9201,
      "asy": 9202,
      "rūpiṇaḥ": 9203,
      "dvīpā": 9204,
      "dvīpaṃ": 9205,
      "vartinaḥ": 9206,
      "baddhaṃ": 9207,
      "̱raṁ": 9208,
      "kalyāṇi": 9209,
      "nārāyaṇo": 9210,
      "bhāvitaḥ": 9211,
      "vṛkṣasya": 9212,
      "jinātma": 9213,
      "ṇasyāṃ": 9214,
      "bruvā": 9215,
      "vijayaṃ": 9216,
      "praṇidhā": 9217,
      "jvāla": 9218,
      "varcasaḥ": 9219,
      "nagara": 9220,
      "vikalpo": 9221,
      "dhāriṇī": 9222,
      "rādha̍": 9223,
      "grantha": 9224,
      "rāṣṭra": 9225,
      "bodhisattvānāṃ": 9226,
      "vāñchā": 9227,
      "doṣān": 9228,
      "pāśair": 9229,
      "śiṣyo": 9230,
      "dhāryate": 9231,
      "subhage": 9232,
      "bṛhad": 9233,
      "yuṣmān": 9234,
      "māhātm": 9235,
      "kaikeyyā": 9236,
      "dadatu": 9237,
      "pīṭhaṃ": 9238,
      "paṇḍitaḥ": 9239,
      "ayodhyāṃ": 9240,
      "hayagrī": 9241,
      "vṛṣṇi": 9242,
      "rājñāṃ": 9243,
      "piṅgalā": 9244,
      "raudraṃ": 9245,
      "snig": 9246,
      "ṭṭahā": 9247,
      "karuṇayā": 9248,
      "varjayet": 9249,
      "pariṇāma": 9250,
      "samāśritya": 9251,
      "juhuyāt": 9252,
      "vadet": 9253,
      "rāśiṃ": 9254,
      "vāhinī": 9255,
      "pāṇeḥ": 9256,
      "mandiram": 9257,
      "vi̱dvān": 9258,
      "tumarhasi": 9259,
      "paśūn": 9260,
      "prathita": 9261,
      "bhuktimukti": 9262,
      "kūrma": 9263,
      "sūrya̍sya": 9264,
      "nū̱nam": 9265,
      "pīyūṣa": 9266,
      "sphaṭika": 9267,
      "jajñire": 9268,
      "praṇamitaśirasā": 9269,
      "ikṣvāku": 9270,
      "=>": 9271,
      "adhā": 9272,
      "akra": 9273,
      "adyā": 9274,
      "adhya": 9275,
      "chat": 9276,
      "etau": 9277,
      "eveti": 9278,
      "hrī": 9279,
      "iḻ": 9280,
      "iyam": 9281,
      "ntya": 9282,
      "rdhaṃ": 9283,
      "smīti": 9284,
      "udyā": 9285,
      "ucchi": 9286,
      "uccā": 9287,
      "āya": 9288,
      "ākarṇya": 9289,
      "śnute": 9290,
      "̍va̱": 9291,
      "̍ni̱": 9292,
      "̱nām": 9293,
      "ṝn": 9294,
      "yajā": 9295,
      "rai": 9296,
      "rayī": 9297,
      "vahā": 9298,
      "varī": 9299,
      "vavṛ": 9300,
      "vareṇa": 9301,
      "vaśaṃ": 9302,
      "vadho": 9303,
      "vari̍": 9304,
      "hava̍": 9305,
      "hanyā": 9306,
      "matīṃ": 9307,
      "nave": 9308,
      "nami": 9309,
      "saktaṃ": 9310,
      "patau": 9311,
      "yāpi": 9312,
      "yāmaḥ": 9313,
      "vādo": 9314,
      "caka": 9315,
      "cayaḥ": 9316,
      "candri": 9317,
      "vihi": 9318,
      "vilu": 9319,
      "vinyasya": 9320,
      "vibudha": 9321,
      "karū": 9322,
      "karat": 9323,
      "karīṃ": 9324,
      "rādhā": 9325,
      "rāji": 9326,
      "rāmāya": 9327,
      "hin": 9328,
      "dakaṃ": 9329,
      "daśo": 9330,
      "dahya": 9331,
      "daur": 9332,
      "māṇam": 9333,
      "māyū": 9334,
      "nāyi": 9335,
      "nāśāya": 9336,
      "nāmadhe": 9337,
      "gamā": 9338,
      "gaiḥ": 9339,
      "gavya": 9340,
      "gaṇo": 9341,
      "galita": 9342,
      "nidhe": 9343,
      "niyamā": 9344,
      "nipāti": 9345,
      "śaktā": 9346,
      "pratā": 9347,
      "lair": 9348,
      "lagna": 9349,
      "jaye": 9350,
      "jayet": 9351,
      "ja̍ṁ": 9352,
      "jagh": 9353,
      "jalpa": 9354,
      "bhagi": 9355,
      "ṣayā": 9356,
      "dha̍": 9357,
      "tuś": 9358,
      "kāśam": 9359,
      "kāñcī": 9360,
      "syaḥ": 9361,
      "pāśaṃ": 9362,
      "suvar": 9363,
      "suduḥkhi": 9364,
      "supto": 9365,
      "dātavyaṃ": 9366,
      "rute": 9367,
      "ruru": 9368,
      "rucyate": 9369,
      "dema": 9370,
      "saṃsta": 9371,
      "saṃkṣe": 9372,
      "saṃbandha": 9373,
      "saṃkarṣa": 9374,
      "saṃyuktā": 9375,
      "mitam": 9376,
      "diṅ": 9377,
      "diha": 9378,
      "dinam": 9379,
      "divo": 9380,
      "mur": 9381,
      "bhidyate": 9382,
      "bhidhīyate": 9383,
      "rogā": 9384,
      "ṇārthaṃ": 9385,
      "citram": 9386,
      "yus": 9387,
      "yudhya": 9388,
      "tvasya": 9389,
      "kṣapa": 9390,
      "jānan": 9391,
      "jāraṇa": 9392,
      "ner": 9393,
      "hes": 9394,
      "śāstu": 9395,
      "svair": 9396,
      "svakarma": 9397,
      "mahāsattva": 9398,
      "prājā": 9399,
      "prāvṛ": 9400,
      "tase": 9401,
      "gāminī": 9402,
      "ntikaṃ": 9403,
      "guḥ": 9404,
      "guñjā": 9405,
      "śum": 9406,
      "śita": 9407,
      "śirā": 9408,
      "śikṣa": 9409,
      "kinna": 9410,
      "ścai": 9411,
      "bhavatāṃ": 9412,
      "ttathā": 9413,
      "keśo": 9414,
      "ddhaḥ": 9415,
      "ramī": 9416,
      "mṛte": 9417,
      "dṛśam": 9418,
      "parigha": 9419,
      "parijana": 9420,
      "so̱m": 9421,
      "budhāḥ": 9422,
      "lebhe": 9423,
      "yasmai": 9424,
      "kovi": 9425,
      "kopā": 9426,
      "yantīṃ": 9427,
      "vaiku": 9428,
      "vaiśvā": 9429,
      "vairoca": 9430,
      "vyatī": 9431,
      "devadeveśa": 9432,
      "yatve": 9433,
      "samādi": 9434,
      "tribhiḥ": 9435,
      "vyāpāra": 9436,
      "vyāptaṃ": 9437,
      "kṣiṇī": 9438,
      "samarthā": 9439,
      "pṛtanā": 9440,
      "pratiṣṭhitā": 9441,
      "a̱śvinā": 9442,
      "peto": 9443,
      "ghanaṃ": 9444,
      "karṇo": 9445,
      "bhojana": 9446,
      "madhvā": 9447,
      "madhyaṃ": 9448,
      "ṭaka": 9449,
      "gṛdh": 9450,
      "bhena": 9451,
      "dharmatā": 9452,
      "sūtre": 9453,
      "patinā": 9454,
      "pati̍m": 9455,
      "phale": 9456,
      "ktau": 9457,
      "sauvarṇa": 9458,
      "jñasya": 9459,
      "brahmacārī": 9460,
      "tanme": 9461,
      "śruṇi": 9462,
      "pīti": 9463,
      "dhyāt": 9464,
      "anujñā": 9465,
      "svā̱": 9466,
      "janatā": 9467,
      "lokanāyaka": 9468,
      "vajraṃ": 9469,
      "vajreṇa": 9470,
      "va̱j": 9471,
      "mānasa": 9472,
      "mānasā": 9473,
      "mānavāḥ": 9474,
      "khyāti": 9475,
      "dhur": 9476,
      "dhu̱": 9477,
      "sa̱ha": 9478,
      "sa̱mat": 9479,
      "sa̱tyam": 9480,
      "annaṃ": 9481,
      "indreṇa": 9482,
      "ḍamaru": 9483,
      "darśayan": 9484,
      "ṣo̍": 9485,
      "vṛttiṃ": 9486,
      "prāptam": 9487,
      "narasya": 9488,
      "uttiṣṭha": 9489,
      "puṣpada": 9490,
      "śrita": 9491,
      "ṣṭhāḥ": 9492,
      "su̱tasya̍": 9493,
      "mattaḥ": 9494,
      "kriyāḥ": 9495,
      "iścāpi": 9496,
      "hari̍": 9497,
      "hariṇā": 9498,
      "anartha": 9499,
      "ananya": 9500,
      "sarasi": 9501,
      "stham": 9502,
      "tarala": 9503,
      "taraṅgā": 9504,
      "nnaraḥ": 9505,
      "haraṇaṃ": 9506,
      "karoṣi": 9507,
      "mūrte": 9508,
      "saptadhā": 9509,
      "bhūtaye": 9510,
      "uddiśya": 9511,
      "bharaṇaṃ": 9512,
      "vidhim": 9513,
      "pratyakṣā": 9514,
      "vā̱jina": 9515,
      "kathayiṣyāmi": 9516,
      "antas": 9517,
      "aparaṃ": 9518,
      "kūlaṃ": 9519,
      "varuṇasya": 9520,
      "kasyacit": 9521,
      "buddhī": 9522,
      "pālayet": 9523,
      "parvatāḥ": 9524,
      "śāntam": 9525,
      "gandhena": 9526,
      "cetasi": 9527,
      "cetasām": 9528,
      "prasādā": 9529,
      "nayanaṃ": 9530,
      "munim": 9531,
      "mbaṃ": 9532,
      "surārci": 9533,
      "randhra": 9534,
[...]
