{
  "version": "1.0",
  "truncation": null,
  "padding": null,
  "added_tokens": [
    {
      "id": 0,
      "content": "[MASK]",
      "single_word": false,
      "lstrip": false,
      "rstrip": false,
      "normalized": false,
      "special": true
    },
    {
      "id": 1,
      "content": "[PAD]",
      "single_word": false,
      "lstrip": false,
      "rstrip": false,
      "normalized": false,
      "special": true
    },
    {
      "id": 2,
      "content": "[UNK]",
      "single_word": false,
      "lstrip": false,
      "rstrip": false,
      "normalized": false,
      "special": true
    },
    {
      "id": 3,
      "content": "[CLS]",
      "single_word": false,
      "lstrip": false,
      "rstrip": false,
      "normalized": false,
      "special": true
    },
    {
      "id": 4,
      "content": "[SEP]",
      "single_word": false,
      "lstrip": false,
      "rstrip": false,
      "normalized": false,
      "special": true
    }
  ],
  "normalizer": null,
  "pre_tokenizer": {
    "type": "Whitespace"
  },
  "post_processor": null,
  "decoder": null,
  "model": {
    "type": "BPE",
    "dropout": null,
    "unk_token": "[UNK]",
    "continuing_subword_prefix": null,
    "end_of_word_suffix": null,
    "fuse_unk": false,
    "byte_fallback": false,
    "ignore_merges": false,
    "vocab": {
      "[MASK]": 0,
      "[PAD]": 1,
      "[UNK]": 2,
      "[CLS]": 3,
      "[SEP]": 4,
      "!": 5,
      "\"": 6,
      "#": 7,
      "$": 8,
      "%": 9,
      "&": 10,
      "'": 11,
      "(": 12,
      ")": 13,
      "*": 14,
      "+": 15,
      ",": 16,
      "-": 17,
      ".": 18,
      "/": 19,
      ":": 20,
      ";": 21,
      "<": 22,
      "=": 23,
      ">": 24,
      "?": 25,
      "@": 26,
      "A": 27,
      "B": 28,
      "C": 29,
      "D": 30,
      "E": 31,
      "G": 32,
      "H": 33,
      "I": 34,
      "J": 35,
      "K": 36,
      "L": 37,
      "M": 38,
      "N": 39,
      "O": 40,
      "P": 41,
      "Q": 42,
      "R": 43,
      "S": 44,
      "T": 45,
      "U": 46,
      "V": 47,
      "W": 48,
      "X": 49,
      "Y": 50,
      "[": 51,
      "\\": 52,
      "]": 53,
      "_": 54,
      "`": 55,
      "a": 56,
      "b": 57,
      "c": 58,
      "d": 59,
      "e": 60,
      "f": 61,
      "g": 62,
      "h": 63,
      "i": 64,
      "j": 65,
      "k": 66,
      "l": 67,
      "m": 68,
      "n": 69,
      "o": 70,
      "p": 71,
      "q": 72,
      "r": 73,
      "s": 74,
      "t": 75,
      "u": 76,
      "v": 77,
      "w": 78,
      "x": 79,
      "y": 80,
      "z": 81,
      "{": 82,
      "|": 83,
      "}": 84,
      "~": 85,
      "°": 86,
      "á": 87,
      "â": 88,
      "æ": 89,
      "ê": 90,
      "î": 91,
      "ï": 92,
      "ñ": 93,
      "ö": 94,
      "ú": 95,
      "ü": 96,
      "Ā": 97,
      "ā": 98,
      "ē": 99,
      "Ī": 100,
      "ī": 101,
      "Ō": 102,
      "ō": 103,
      "Ś": 104,
      "ś": 105,
      "ū": 106,
      "́": 107,
      "̄": 108,
      "̆": 109,
      "̍": 110,
      "̐": 111,
      "̥": 112,
      "̱": 113,
      "ँ": 114,
      "ं": 115,
      "ः": 116,
      "अ": 117,
      "आ": 118,
      "इ": 119,
      "ई": 120,
      "उ": 121,
      "ऊ": 122,
      "ऋ": 123,
      "ऌ": 124,
      "ए": 125,
      "ऐ": 126,
      "ओ": 127,
      "औ": 128,
      "क": 129,
      "ख": 130,
      "ग": 131,
      "घ": 132,
      "ङ": 133,
      "च": 134,
      "छ": 135,
      "ज": 136,
      "झ": 137,
      "ञ": 138,
      "ट": 139,
      "ठ": 140,
      "ड": 141,
      "ढ": 142,
      "ण": 143,
      "त": 144,
      "थ": 145,
      "द": 146,
      "ध": 147,
      "न": 148,
      "ऩ": 149,
      "प": 150,
      "फ": 151,
      "ब": 152,
      "भ": 153,
      "म": 154,
      "य": 155,
      "र": 156,
      "ऱ": 157,
      "ल": 158,
      "ळ": 159,
      "व": 160,
      "श": 161,
      "ष": 162,
      "स": 163,
      "ह": 164,
      "ऽ": 165,
      "ा": 166,
      "ि": 167,
      "ी": 168,
      "ु": 169,
      "ू": 170,
      "ृ": 171,
      "ॄ": 172,
      "े": 173,
      "ै": 174,
      "ो": 175,
      "ौ": 176,
      "्": 177,
      "ॐ": 178,
      "क़": 179,
      "ज़": 180,
      "फ़": 181,
      "ॠ": 182,
      "ॡ": 183,
      "ॢ": 184,
      "।": 185,
      "॥": 186,
      "Ḍ": 187,
      "ḍ": 188,
      "ḥ": 189,
      "ḫ": 190,
      "ḷ": 191,
      "ḹ": 192,
      "ḻ": 193,
      "ṁ": 194,
      "ṃ": 195,
      "ṅ": 196,
      "Ṇ": 197,
      "ṇ": 198,
      "ṉ": 199,
      "Ṛ": 200,
      "ṛ": 201,
      "ṝ": 202,
      "ṟ": 203,
      "ṣ": 204,
      "Ṭ": 205,
      "ṭ": 206,
      "ẖ": 207,
      "–": 208,
      "’": 209,
      "…": 210,
      "⏑": 211,
      "⟨": 212,
      "⟩": 213,
      "꣡": 214,
      "ꣳ": 215,
      "ya": 216,
      "ra": 217,
      "ta": 218,
      "्य": 219,
      "va": 220,
      "्र": 221,
      "ha": 222,
      "र्": 223,
      "ma": 224,
      "na": 225,
      "sa": 226,
      "्त": 227,
      "म्": 228,
      "्व": 229,
      "pa": 230,
      "yā": 231,
      "hā": 232,
      "ान": 233,
      "vā": 234,
      "ca": 235,
      "vi": 236,
      "ti": 237,
      "ka": 238,
      "rā": 239,
      "ित": 240,
      "hi": 241,
      "tā": 242,
      "वि": 243,
      "da": 244,
      "mā": 245,
      "त्": 246,
      "प्र": 247,
      "nā": 248,
      "//": 249,
      "न्": 250,
      "स्": 251,
      "te": 252,
      "द्": 253,
      "ति": 254,
      "मा": 255,
      "ga": 256,
      "ni": 257,
      "śa": 258,
      "्या": 259,
      "pra": 260,
      "क्": 261,
      "la": 262,
      "वा": 263,
      "ना": 264,
      "bh": 265,
      "ja": 266,
      "ते": 267,
      "bha": 268,
      "ष्": 269,
      "ṇa": 270,
      "रा": 271,
      "ṣa": 272,
      "dha": 273,
      "नि": 274,
      "ri": 275,
      "क्ष": 276,
      "tu": 277,
      "ता": 278,
      "kā": 279,
      "न्त": 280,
      "या": 281,
      "त्र": 282,
      "dh": 283,
      "का": 284,
      "स्त": 285,
      "स्य": 286,
      "ye": 287,
      "sya": 288,
      "्वा": 289,
      "pā": 290,
      "yo": 291,
      "श्": 292,
      "सु": 293,
      "su": 294,
      "ṣṭ": 295,
      "पा": 296,
      "dā": 297,
      "ru": 298,
      "sā": 299,
      "तु": 300,
      "दे": 301,
      "de": 302,
      "tha": 303,
      "ve": 304,
      "tra": 305,
      "र्व": 306,
      "सं": 307,
      "saṃ": 308,
      "सा": 309,
      "pi": 310,
      "taḥ": 311,
      "mi": 312,
      "taṃ": 313,
      "kṣ": 314,
      "thā": 315,
      "re": 316,
      "त्त": 317,
      "di": 318,
      "पु": 319,
      "pu": 320,
      "दा": 321,
      "to": 322,
      "||": 323,
      "yaṃ": 324,
      "क्त": 325,
      "मु": 326,
      "mu": 327,
      "sar": 328,
      "मह": 329,
      "था": 330,
      "द्र": 331,
      "ान्": 332,
      "bhi": 333,
      "पर": 334,
      "ro": 335,
      "पि": 336,
      "ṇā": 337,
      "भि": 338,
      "द्ध": 339,
      "ci": 340,
      "bhā": 341,
      "ष्ट": 342,
      "रु": 343,
      "यो": 344,
      "ये": 345,
      "मि": 346,
      "dhā": 347,
      "दि": 348,
      "ज्": 349,
      "tvā": 350,
      "भा": 351,
      "yu": 352,
      "कृ": 353,
      "kṛ": 354,
      "dhi": 355,
      "tva": 356,
      "ङ्": 357,
      "णा": 358,
      "त्य": 359,
      "kṣa": 360,
      "वे": 361,
      "मे": 362,
      "me": 363,
      "jā": 364,
      "सर्व": 365,
      "ba": 366,
      "ne": 367,
      "त्व": 368,
      "स्व": 369,
      "tam": 370,
      "si": 371,
      "च्": 372,
      "rī": 373,
      "jñ": 374,
      "तः": 375,
      "ज्ञ": 376,
      "श्र": 377,
      "nu": 378,
      "cā": 379,
      "iva": 380,
      "कु": 381,
      "ku": 382,
      "lā": 383,
      "सि": 384,
      "he": 385,
      "śā": 386,
      "ां": 387,
      "sva": 388,
      "तो": 389,
      "श्च": 390,
      "ने": 391,
      "क्र": 392,
      "जा": 393,
      "लो": 394,
      "lo": 395,
      "tya": 396,
      "धि": 397,
      "naṃ": 398,
      "tī": 399,
      "हि": 400,
      "nta": 401,
      "भू": 402,
      "bhū": 403,
      "nd": 404,
      "िता": 405,
      "रे": 406,
      "sarva": 407,
      "रो": 408,
      "raṃ": 409,
      "दु": 410,
      "st": 411,
      "स्थ": 412,
      "mahā": 413,
      "no": 414,
      "तं": 415,
      "ला": 416,
      "श्व": 417,
      "त्वा": 418,
      "यु": 419,
      "धा": 420,
      "द्व": 421,
      "var": 422,
      "ेन": 423,
      "द्य": 424,
      "रि": 425,
      "vī": 426,
      "चा": 427,
      "ūr": 428,
      "मन": 429,
      "व्य": 430,
      "ग्": 431,
      "महा": 432,
      "vṛ": 433,
      "र्थ": 434,
      "iḥ": 435,
      "du": 436,
      "र्म": 437,
      "yaḥ": 438,
      "ho": 439,
      "ान्त": 440,
      "prā": 441,
      "ṣā": 442,
      "naḥ": 443,
      "ङ्ग": 444,
      "tas": 445,
      "प्रा": 446,
      "ञ्": 447,
      "वर्": 448,
      "मान": 449,
      "शा": 450,
      "gā": 451,
      "nam": 452,
      "nī": 453,
      "nti": 454,
      "gu": 455,
      "भव": 456,
      "śu": 457,
      "शु": 458,
      "शि": 459,
      "र्य": 460,
      "वृ": 461,
      "ir": 462,
      "ैः": 463,
      "मो": 464,
      "ग्र": 465,
      "पू": 466,
      "ैव": 467,
      "यं": 468,
      "yate": 469,
      "śi": 470,
      "ेष": 471,
      "ती": 472,
      "cc": 473,
      "देव": 474,
      "चि": 475,
      "tat": 476,
      "न्द्र": 477,
      "च्छ": 478,
      "ण्": 479,
      "kha": 480,
      "eva": 481,
      "गु": 482,
      "rma": 483,
      "ki": 484,
      "yam": 485,
      "śca": 486,
      "bhava": 487,
      "tta": 488,
      "rū": 489,
      "नु": 490,
      "ke": 491,
      "hu": 492,
      "ब्र": 493,
      "ल्": 494,
      "रं": 495,
      "śva": 496,
      "नी": 497,
      "ṣu": 498,
      "प्त": 499,
      "jñā": 500,
      "ddha": 501,
      "ष्ठ": 502,
      "नो": 503,
      "कि": 504,
      "ṇi": 505,
      "ह्": 506,
      "एव": 507,
      "न्य": 508,
      "नं": 509,
      "णि": 510,
      "ram": 511,
      "हा": 512,
      "man": 513,
      "मृ": 514,
      "रण": 515,
      "li": 516,
      "स्या": 517,
      "न्ति": 518,
      "mṛ": 519,
      "nāṃ": 520,
      "दृ": 521,
      "dṛ": 522,
      "vo": 523,
      "नः": 524,
      "ैर्": 525,
      "लोक": 526,
      "pari": 527,
      "्यं": 528,
      "यः": 529,
      "सो": 530,
      "ṣṭa": 531,
      "ji": 532,
      "tathā": 533,
      "ṇḍ": 534,
      "वी": 535,
      "ण्ड": 536,
      "so": 537,
      "रू": 538,
      "bu": 539,
      "बु": 540,
      "rtha": 541,
      "raḥ": 542,
      "गा": 543,
      "le": 544,
      "ानि": 545,
      "yas": 546,
      "परि": 547,
      "tāḥ": 548,
      "सम": 549,
      "चित": 550,
      "tāṃ": 551,
      "ko": 552,
      "yan": 553,
      "mo": 554,
      "्य्": 555,
      "trā": 556,
      "तम्": 557,
      "vai": 558,
      "nir": 559,
      "लि": 560,
      "को": 561,
      "री": 562,
      "षा": 563,
      "sthi": 564,
      "yāṃ": 565,
      "न्द": 566,
      "vya": 567,
      "haṃ": 568,
      "tasya": 569,
      "yathā": 570,
      "tad": 571,
      "्ये": 572,
      "bra": 573,
      "भु": 574,
      "bhu": 575,
      "तथा": 576,
      "deva": 577,
      "yat": 578,
      "samā": 579,
      "स्तु": 580,
      "सह": 581,
      "tri": 582,
      "नम्": 583,
      "न्ध": 584,
      "śe": 585,
      "daṃ": 586,
      "वै": 587,
      "ले": 588,
      "tma": 589,
      "के": 590,
      "ितः": 591,
      "ṇaṃ": 592,
      "tyā": 593,
      "लं": 594,
      "laṃ": 595,
      "्रा": 596,
      "सू": 597,
      "yi": 598,
      "para": 599,
      "vyā": 600,
      "stu": 601,
      "रः": 602,
      "kh": 603,
      "kra": 604,
      "समा": 605,
      "go": 606,
      "kṣi": 607,
      "दं": 608,
      "ाना": 609,
      "syā": 610,
      "kaṃ": 611,
      "ṅga": 612,
      "तां": 613,
      "दी": 614,
      "sat": 615,
      "यथा": 616,
      "has": 617,
      "nama": 618,
      "यम्": 619,
      "ṇe": 620,
      "हु": 621,
      "dī": 622,
      "sama": 623,
      "śo": 624,
      "शो": 625,
      "से": 626,
      "राज": 627,
      "त्म": 628,
      "तत्": 629,
      "तस्य": 630,
      "पृ": 631,
      "pṛ": 632,
      "prati": 633,
      "त्रि": 634,
      "नम": 635,
      "प्रति": 636,
      "गो": 637,
      "ानां": 638,
      "भ्य": 639,
      "hṛ": 640,
      "तस्": 641,
      "श्य": 642,
      "vān": 643,
      "कं": 644,
      "षु": 645,
      "a̱": 646,
      "ष्ण": 647,
      "gra": 648,
      "sam": 649,
      "अ̱": 650,
      "pū": 651,
      "त्रा": 652,
      "व्या": 653,
      "pe": 654,
      "र्ण": 655,
      "रम्": 656,
      "gha": 657,
      "kar": 658,
      "भो": 659,
      "bho": 660,
      "tvaṃ": 661,
      "ndra": 662,
      "dya": 663,
      "kal": 664,
      "हं": 665,
      "brah": 666,
      "ब्रह्": 667,
      "ितम्": 668,
      "ध्य": 669,
      "बुद्ध": 670,
      "वो": 671,
      "निर्": 672,
      "thi": 673,
      "dvi": 674,
      "vaṃ": 675,
      "ṇo": 676,
      "rya": 677,
      "ṣi": 678,
      "ञ्च": 679,
      "pūr": 680,
      "iti": 681,
      "त्त्व": 682,
      "ष्य": 683,
      "se": 684,
      "kam": 685,
      "ितं": 686,
      "bā": 687,
      "पे": 688,
      "ccha": 689,
      "nya": 690,
      "ṇī": 691,
      "ṇḍa": 692,
      "dra": 693,
      "हे": 694,
      "धर्म": 695,
      "hī": 696,
      "मू": 697,
      "madh": 698,
      "bo": 699,
      "बो": 700,
      "इति": 701,
      "tena": 702,
      "क्षि": 703,
      "कम्": 704,
      "तद्": 705,
      "द्वि": 706,
      "प्": 707,
      "बा": 708,
      "kti": 709,
      "sta": 710,
      "ṭa": 711,
      "nda": 712,
      "paś": 713,
      "ब्": 714,
      "ndha": 715,
      "ñca": 716,
      "gṛ": 717,
      "गृ": 718,
      "yati": 719,
      "सर्": 720,
      "ध्व": 721,
      "मित": 722,
      "kāra": 723,
      "vid": 724,
      "जि": 725,
      "̍ः": 726,
      "̍ḥ": 727,
      "maṃ": 728,
      "कल्": 729,
      "ce": 730,
      "मं": 731,
      "क्ति": 732,
      "यत्": 733,
      "प्य": 734,
      "भाव": 735,
      "dhe": 736,
      "कर्": 737,
      "हृ": 738,
      "tām": 739,
      "yet": 740,
      "स्म": 741,
      "bhe": 742,
      "dharma": 743,
      "sū": 744,
      "दश": 745,
      "ty": 746,
      "yad": 747,
      "van": 748,
      "lam": 749,
      "स्र": 750,
      "द्या": 751,
      "pati": 752,
      "dar": 753,
      "त्या": 754,
      "bhiḥ": 755,
      "भिः": 756,
      "सी": 757,
      "मन्त": 758,
      "जग": 759,
      "र्या": 760,
      "स्त्र": 761,
      "dhī": 762,
      "kṣā": 763,
      "jaga": 764,
      "vat": 765,
      "दो": 766,
      "लम्": 767,
      "णं": 768,
      "चे": 769,
      "viṣ": 770,
      "ज्ञा": 771,
      "vaḥ": 772,
      "दर्": 773,
      "nām": 774,
      "sthā": 775,
      "ṣṭha": 776,
      "jī": 777,
      "cit": 778,
      "ज्ञान": 779,
      "सम्": 780,
      "येत्": 781,
      "ऽपि": 782,
      "pha": 783,
      "यि": 784,
      "तत्र": 785,
      "ṇam": 786,
      "̍m": 787,
      "kta": 788,
      "त्वं": 789,
      "gi": 790,
      "sī": 791,
      "धी": 792,
      "वः": 793,
      "णी": 794,
      "जी": 795,
      "व्र": 796,
      "śī": 797,
      "ge": 798,
      "भवे": 799,
      "bhave": 800,
      "tṛ": 801,
      "ddhi": 802,
      "parā": 803,
      "ryā": 804,
      "tatra": 805,
      "ानु": 806,
      "जन": 807,
      "सौ": 808,
      "sau": 809,
      "णो": 810,
      "दृष्ट": 811,
      "इन्द्र": 812,
      "ब्रह्म": 813,
      "do": 814,
      "म्य": 815,
      "kaḥ": 816,
      "ṇu": 817,
      "jña": 818,
      "सिद्ध": 819,
      "भे": 820,
      "रूप": 821,
      "हो": 822,
      "शी": 823,
      "̍म्": 824,
      "rat": 825,
      "कार": 826,
      "ेषु": 827,
      "kī": 828,
      "विश": 829,
      "śra": 830,
      "api": 831,
      "अपि": 832,
      "brahma": 833,
      "योग": 834,
      "त्य्": 835,
      "मुख": 836,
      "धु": 837,
      "rāja": 838,
      "कथ": 839,
      "ताः": 840,
      "तेन": 841,
      "कः": 842,
      "की": 843,
      "vra": 844,
      "पति": 845,
      "̱r": 846,
      "ṇāṃ": 847,
      "णां": 848,
      "ṇaḥ": 849,
      "khā": 850,
      "daśa": 851,
      "तव": 852,
      "ṣṭā": 853,
      "यते": 854,
      "par": 855,
      "tava": 856,
      "reṇa": 857,
      "san": 858,
      "nṛ": 859,
      "वत्": 860,
      "kiṃ": 861,
      "किं": 862,
      "कल्प": 863,
      "̱ꣳ": 864,
      "kara": 865,
      "̱m": 866,
      "परा": 867,
      "upa": 868,
      "सः": 869,
      "tan": 870,
      "saḥ": 871,
      "hya": 872,
      "श्रु": 873,
      "pta": 874,
      "samu": 875,
      "समु": 876,
      "śru": 877,
      "नित": 878,
      "po": 879,
      "क्व": 880,
      "maḥ": 881,
      "च्य": 882,
      "स्ति": 883,
      "मः": 884,
      "bhir": 885,
      "नृ": 886,
      "̍ꣳ": 887,
      "णे": 888,
      "tān": 889,
      "pī": 890,
      "̱ṁ": 891,
      "विश्व": 892,
      "सुख": 893,
      "ham": 894,
      "ज्य": 895,
      "दान": 896,
      "sma": 897,
      "dhyā": 898,
      "कर्म": 899,
      "ली": 900,
      "ddhā": 901,
      "उप": 902,
      "rūpa": 903,
      "इव": 904,
      "va̍": 905,
      "ेण": 906,
      "vara": 907,
      "sti": 908,
      "ह्य": 909,
      "traṃ": 910,
      "tmā": 911,
      "चैव": 912,
      "यद्": 913,
      "वर": 914,
      "anu": 915,
      "क्षा": 916,
      "अनु": 917,
      "lī": 918,
      "maha": 919,
      "भग": 920,
      "मी": 921,
      "षि": 922,
      "भिर्": 923,
      "nāma": 924,
      "śaṃ": 925,
      "पी": 926,
      "caiva": 927,
      "dho": 928,
      "शं": 929,
      "पित": 930,
      "sarve": 931,
      "kṣe": 932,
      "nyā": 933,
      "मम": 934,
      "karma": 935,
      "दुः": 936,
      "kva": 937,
      "pya": 938,
      "िताः": 939,
      "svā": 940,
      "jana": 941,
      "्यां": 942,
      "गुण": 943,
      "loka": 944,
      "duḥ": 945,
      "̍ṁ": 946,
      "mama": 947,
      "mān": 948,
      "̱म्": 949,
      "स्वा": 950,
      "भ्र": 951,
      "मां": 952,
      "स्मि": 953,
      "vaj": 954,
      "māṃ": 955,
      "चतु": 956,
      "catu": 957,
      "पूर्व": 958,
      "pat": 959,
      "ag": 960,
      "va̱": 961,
      "वं": 962,
      "तृ": 963,
      "हम्": 964,
      "saha": 965,
      "क्षे": 966,
      "yena": 967,
      "thaṃ": 968,
      "ितो": 969,
      "ṣe": 970,
      "सत्त्व": 971,
      "dam": 972,
      "sadā": 973,
      "णः": 974,
      "bhāva": 975,
      "̱र्": 976,
      "yuk": 977,
      "न्न": 978,
      "मन्त्र": 979,
      "ताम्": 980,
      "māna": 981,
      "khyā": 982,
      "नाम": 983,
      "bhaga": 984,
      "कल": 985,
      "पो": 986,
      "dhar": 987,
      "tiḥ": 988,
      "a̍": 989,
      "पुत्र": 990,
      "अ̍": 991,
      "र्ग": 992,
      "smi": 993,
      "सृ": 994,
      "दर्श": 995,
      "वान्": 996,
      "śrī": 997,
      "भी": 998,
      "bhī": 999,
      "श्री": 1000,
      "सदा": 1001,
      "mī": 1002,
      "rt": 1003,
      "थि": 1004,
      "yāḥ": 1005,
      "रत्": 1006,
      "स̱": 1007,
      "म̱": 1008,
      "dhu": 1009,
      "ma̱": 1010,
      "tadā": 1011,
      "विध": 1012,
      "नाथ": 1013,
      "दम्": 1014,
      "sarvā": 1015,
      "ṣāṃ": 1016,
      "पञ्च": 1017,
      "gh": 1018,
      "sṛ": 1019,
      "viś": 1020,
      "evaṃ": 1021,
      "एवं": 1022,
      "विष": 1023,
      "yasya": 1024,
      "pri": 1025,
      "प्रि": 1026,
      "je": 1027,
      "ही": 1028,
      "mana": 1029,
      "वज": 1030,
      "युक्त": 1031,
      "sa̱": 1032,
      "द्वा": 1033,
      "mam": 1034,
      "सर्वा": 1035,
      "न्तु": 1036,
      "bodhi": 1037,
      "नां": 1038,
      "tau": 1039,
      "वित": 1040,
      "मम्": 1041,
      "pad": 1042,
      "शे": 1043,
      "स्था": 1044,
      "māt": 1045,
      "̱त": 1046,
      "चित्त": 1047,
      "tataḥ": 1048,
      "co": 1049,
      "an": 1050,
      "pañca": 1051,
      "अन": 1052,
      "तदा": 1053,
      "शू": 1054,
      "ind": 1055,
      "वर्त": 1056,
      "ष्टा": 1057,
      "dur": 1058,
      "वृत्त": 1059,
      "र्ष": 1060,
      "व̍": 1061,
      "muk": 1062,
      "sahas": 1063,
      "namo": 1064,
      "tato": 1065,
      "dṛṣṭ": 1066,
      "dva": 1067,
      "ततः": 1068,
      "ततो": 1069,
      "मुक्त": 1070,
      "ञ्ज": 1071,
      "नाम्": 1072,
      "न्ते": 1073,
      "नमो": 1074,
      "devā": 1075,
      "buddha": 1076,
      "yām": 1077,
      "कर": 1078,
      "ḍa": 1079,
      "क्षु": 1080,
      "व̱": 1081,
      "बोधि": 1082,
      "kṣu": 1083,
      "पुन": 1084,
      "darśa": 1085,
      "dvā": 1086,
      "puna": 1087,
      "यन्": 1088,
      "पश्य": 1089,
      "mayā": 1090,
      "कृत": 1091,
      "णम्": 1092,
      "दित": 1093,
      "ya̱": 1094,
      "tir": 1095,
      "kalpa": 1096,
      "मया": 1097,
      "ग्नि": 1098,
      "बि": 1099,
      "बल": 1100,
      "pan": 1101,
      "ख्या": 1102,
      "यस्य": 1103,
      "cara": 1104,
      "र्ध": 1105,
      "u̱": 1106,
      "śū": 1107,
      "चर": 1108,
      "वाच": 1109,
      "दुःख": 1110,
      "mū": 1111,
      "dyā": 1112,
      "ar": 1113,
      "लक्ष": 1114,
      "भृ": 1115,
      "yāmi": 1116,
      "bhṛ": 1117,
      "nena": 1118,
      "ीं": 1119,
      "स्ते": 1120,
      "ṇya": 1121,
      "स्मा": 1122,
      "यां": 1123,
      "tre": 1124,
      "ṣo": 1125,
      "भूत": 1126,
      "क्ष्": 1127,
      "drā": 1128,
      "ण्य": 1129,
      "वज्र": 1130,
      "पुरु": 1131,
      "puru": 1132,
      "सर्वे": 1133,
      "रथ": 1134,
      "viśva": 1135,
      "--": 1136,
      "घो": 1137,
      "viṣa": 1138,
      "mya": 1139,
      "vṛt": 1140,
      "kīr": 1141,
      "gī": 1142,
      "चो": 1143,
      "śaḥ": 1144,
      "dhva": 1145,
      "guṇa": 1146,
      "शुद्ध": 1147,
      "ाः": 1148,
      "prāp": 1149,
      "चक्र": 1150,
      "गि": 1151,
      "शृ": 1152,
      "तिः": 1153,
      "मान्": 1154,
      "सुर": 1155,
      "śṛ": 1156,
      "शः": 1157,
      "khi": 1158,
      "nara": 1159,
      "न्न्": 1160,
      "स्थित": 1161,
      "jo": 1162,
      "अथ": 1163,
      "दू": 1164,
      "grā": 1165,
      "yamā": 1166,
      "स्मृ": 1167,
      "varta": 1168,
      "vāca": 1169,
      "smṛ": 1170,
      "śara": 1171,
      "ान्ति": 1172,
      "णु": 1173,
      "र्त": 1174,
      "indra": 1175,
      "ghā": 1176,
      "षे": 1177,
      "ग्रा": 1178,
      "पाद": 1179,
      "abhi": 1180,
      "gho": 1181,
      "vi̱": 1182,
      "nātha": 1183,
      "bhya": 1184,
      "गत": 1185,
      "ानं": 1186,
      "tāni": 1187,
      "ivā": 1188,
      "य̱": 1189,
      "ste": 1190,
      "ut": 1191,
      "काल": 1192,
      "मनो": 1193,
      "न्या": 1194,
      "̍r": 1195,
      "बन्ध": 1196,
      "mār": 1197,
      "jan": 1198,
      "puṣ": 1199,
      "yanti": 1200,
      "tvam": 1201,
      "जे": 1202,
      "ṭi": 1203,
      "jñāna": 1204,
      "बहु": 1205,
      "bahu": 1206,
      "sura": 1207,
      "एक": 1208,
      "धे": 1209,
      "स्ता": 1210,
      "kṛtvā": 1211,
      "अभि": 1212,
      "धर्": 1213,
      "bhavet": 1214,
      "śeṣa": 1215,
      "ान्य": 1216,
      "daḥ": 1217,
      "देवा": 1218,
      "द्रा": 1219,
      "रक्ष": 1220,
      "षो": 1221,
      "जो": 1222,
      "कृत्वा": 1223,
      "वन": 1224,
      "kṛṣ": 1225,
      "भवेत्": 1226,
      "ntā": 1227,
      "प्रत्य": 1228,
      "न्म": 1229,
      "तथ": 1230,
      "षां": 1231,
      "वि̱": 1232,
      "jñe": 1233,
      "tuṃ": 1234,
      "ñja": 1235,
      "dhṛ": 1236,
      "पुष्": 1237,
      "vaca": 1238,
      "eka": 1239,
      "पत": 1240,
      "सप्त": 1241,
      "दुर्": 1242,
      "kṛta": 1243,
      "वच": 1244,
      "ju": 1245,
      "bi": 1246,
      "śri": 1247,
      "pre": 1248,
      "प्राप्त": 1249,
      "यन्त": 1250,
      "ṣṭhā": 1251,
      "ध्या": 1252,
      "पद्": 1253,
      "्व्": 1254,
      "bala": 1255,
      "sūr": 1256,
      "niḥ": 1257,
      "दे̱": 1258,
      "de̱": 1259,
      "rāḥ": 1260,
      "namā": 1261,
      "वन्": 1262,
      "मात्": 1263,
      "loke": 1264,
      "र्थं": 1265,
      "हित": 1266,
      "su̱": 1267,
      "येन": 1268,
      "rthaṃ": 1269,
      "भाग": 1270,
      "mat": 1271,
      "gar": 1272,
      "गच्छ": 1273,
      "kri": 1274,
      "tiṃ": 1275,
      "दः": 1276,
      "vinā": 1277,
      "lakṣa": 1278,
      "sukha": 1279,
      "ैर": 1280,
      "पूज": 1281,
      "vajra": 1282,
      "̍र्": 1283,
      "चिन्त": 1284,
      "tyaṃ": 1285,
      "ज्ञे": 1286,
      "cchā": 1287,
      "pro": 1288,
      "शत": 1289,
      "प्रो": 1290,
      "टि": 1291,
      "̱ः": 1292,
      "rājā": 1293,
      "यत्र": 1294,
      "ṅgā": 1295,
      "nava": 1296,
      "विष्ण": 1297,
      "अन्य": 1298,
      "जु": 1299,
      "िया": 1300,
      "namaḥ": 1301,
      "नमः": 1302,
      "niṣ": 1303,
      "क्य": 1304,
      "नर": 1305,
      "व्": 1306,
      "तिष्ठ": 1307,
      "pāda": 1308,
      "kya": 1309,
      "मण्ड": 1310,
      "मनु": 1311,
      "mar": 1312,
      "त्वम्": 1313,
      "dhya": 1314,
      "सर": 1315,
      "mano": 1316,
      "सु̱": 1317,
      "śiva": 1318,
      "iś": 1319,
      "स्फ": 1320,
      "cid": 1321,
      "अप": 1322,
      "गन्ध": 1323,
      "hari": 1324,
      "yū": 1325,
      "lakṣ": 1326,
      "ira": 1327,
      "साध": 1328,
      "ष्टि": 1329,
      "dū": 1330,
      "पुनः": 1331,
      "punaḥ": 1332,
      "ava": 1333,
      "अव": 1334,
      "दक्षि": 1335,
      "dakṣi": 1336,
      "राः": 1337,
      "it": 1338,
      "शेष": 1339,
      "hat": 1340,
      "kāla": 1341,
      "सहस्र": 1342,
      "यित": 1343,
      "च्च": 1344,
      "̱ḥ": 1345,
      "मनः": 1346,
      "devī": 1347,
      "श्चा": 1348,
      "yadi": 1349,
      "महे": 1350,
      "पन्": 1351,
      "kala": 1352,
      "rva": 1353,
      "ana": 1354,
      "चित्": 1355,
      "यदि": 1356,
      "putra": 1357,
      "।।": 1358,
      "vad": 1359,
      "tapa": 1360,
      "yāt": 1361,
      "ङ्क": 1362,
      "tiṣṭha": 1363,
      "guru": 1364,
      "गुरु": 1365,
      "veda": 1366,
      "./": 1367,
      "लु": 1368,
      "bhra": 1369,
      "janā": 1370,
      "देश": 1371,
      "ṇām": 1372,
      "नमा": 1373,
      "sara": 1374,
      "वेद": 1375,
      "stha": 1376,
      "tara": 1377,
      "nna": 1378,
      "गर्": 1379,
      "mahe": 1380,
      "ktā": 1381,
      "ṣṭi": 1382,
      "pūrva": 1383,
      "ya̍": 1384,
      "hara": 1385,
      "अन्त": 1386,
      "rān": 1387,
      "णाम्": 1388,
      "lu": 1389,
      "तिर्": 1390,
      "लोके": 1391,
      "मर्": 1392,
      "cca": 1393,
      "सन्": 1394,
      "kāḥ": 1395,
      "काः": 1396,
      "ुर्": 1397,
      "प्रे": 1398,
      "सर्वं": 1399,
      "sarvaṃ": 1400,
      "उत्": 1401,
      "idaṃ": 1402,
      "इदं": 1403,
      "तप": 1404,
      "vā̍": 1405,
      "atha": 1406,
      "smā": 1407,
      "त्रे": 1408,
      "karo": 1409,
      "सार": 1410,
      "घा": 1411,
      "ैक": 1412,
      "yān": 1413,
      "विद्या": 1414,
      "त्मा": 1415,
      "पाप": 1416,
      "म्ब": 1417,
      "काम": 1418,
      "ोप": 1419,
      "rāma": 1420,
      "उत्त": 1421,
      "करो": 1422,
      "यति": 1423,
      "वद": 1424,
      "śam": 1425,
      "mukha": 1426,
      "मधु": 1427,
      "tum": 1428,
      "याः": 1429,
      "sp": 1430,
      "yatra": 1431,
      "dhū": 1432,
      "yoga": 1433,
      "सूर्य": 1434,
      "उ̱": 1435,
      "हरि": 1436,
      "vāsa": 1437,
      "prajā": 1438,
      "प्रण": 1439,
      "निः": 1440,
      "mantra": 1441,
      "बोध": 1442,
      "विद्य": 1443,
      "manu": 1444,
      "dat": 1445,
      "्यामि": 1446,
      "ग्ने": 1447,
      "अर्": 1448,
      "चन्द्र": 1449,
      "gandha": 1450,
      "फल": 1451,
      "सत्य": 1452,
      "kṣī": 1453,
      "mūr": 1454,
      "sapta": 1455,
      "तत्त्व": 1456,
      "रेण": 1457,
      "madhu": 1458,
      "hy": 1459,
      "śak": 1460,
      "शुभ": 1461,
      "maṇḍa": 1462,
      "sāra": 1463,
      "च्छा": 1464,
      "ख्य": 1465,
      "ma̍": 1466,
      "क्ष्य": 1467,
      "nn": 1468,
      "िते": 1469,
      "वम्": 1470,
      "तिं": 1471,
      "मेव": 1472,
      "मै": 1473,
      "gata": 1474,
      "śakti": 1475,
      "̱ta": 1476,
      "खि": 1477,
      "सत्त": 1478,
      "py": 1479,
      "bhūta": 1480,
      "ud": 1481,
      "stā": 1482,
      "tve": 1483,
      "कृष्ण": 1484,
      "vana": 1485,
      "kṣo": 1486,
      "क्ता": 1487,
      "नेन": 1488,
      "rāva": 1489,
      "śata": 1490,
      "bhara": 1491,
      "तस्या": 1492,
      "vidhā": 1493,
      "त्रं": 1494,
      "sattvā": 1495,
      "hū": 1496,
      "vada": 1497,
      "meva": 1498,
      "yama": 1499,
      "निष्": 1500,
      "vidyā": 1501,
      "दृष्ट्वा": 1502,
      "खा": 1503,
      "दत्त": 1504,
      "ुं": 1505,
      "ṭā": 1506,
      "क्षी": 1507,
      "चिद्": 1508,
      "dṛṣṭvā": 1509,
      "vyaṃ": 1510,
      "वस": 1511,
      "वास": 1512,
      "भवति": 1513,
      "bhavati": 1514,
      "तौ": 1515,
      "sattva": 1516,
      "nityaṃ": 1517,
      "धृ": 1518,
      "vidha": 1519,
      "cyate": 1520,
      "gni": 1521,
      "ंश": 1522,
      "ट्": 1523,
      "व्यं": 1524,
      "vidhi": 1525,
      "rāya": 1526,
      "नित्यं": 1527,
      "च्यते": 1528,
      "kāma": 1529,
      "म̍": 1530,
      "शान्त": 1531,
      "हर": 1532,
      "kār": 1533,
      "dāna": 1534,
      "धू": 1535,
      "ह्य्": 1536,
      "pratya": 1537,
      "मानं": 1538,
      "ika": 1539,
      "vā̱": 1540,
      "tasyā": 1541,
      "paṃ": 1542,
      "विधि": 1543,
      "स्त्व": 1544,
      "ो̱": 1545,
      "tro": 1546,
      "tv": 1547,
      "ṃśa": 1548,
      "विना": 1549,
      "रणं": 1550,
      "nte": 1551,
      "न्व": 1552,
      "मल": 1553,
      "vam": 1554,
      "duḥkha": 1555,
      "tyu": 1556,
      "yata": 1557,
      "sādha": 1558,
      "ऽस्तु": 1559,
      "य̍": 1560,
      "tatha": 1561,
      "bhaviṣ": 1562,
      "ātma": 1563,
      "śab": 1564,
      "śubha": 1565,
      "i̱": 1566,
      "रत्न": 1567,
      "वद्": 1568,
      "शक्ति": 1569,
      "जः": 1570,
      "prabhā": 1571,
      "क्तं": 1572,
      "शब्": 1573,
      "yau": 1574,
      "namas": 1575,
      "jaḥ": 1576,
      "rāh": 1577,
      "राजा": 1578,
      "nau": 1579,
      "catur": 1580,
      "jya": 1581,
      "तान्": 1582,
      "ahaṃ": 1583,
      "अहं": 1584,
      "कौ": 1585,
      "tada": 1586,
      "गी": 1587,
      "धान": 1588,
      "ṅka": 1589,
      "श्रे": 1590,
      "ष्यति": 1591,
      "तन्": 1592,
      "siddhi": 1593,
      "ब्रा": 1594,
      "han": 1595,
      "katha": 1596,
      "कार्य": 1597,
      "काश": 1598,
      "sāṃ": 1599,
      "सां": 1600,
      "ग्रह": 1601,
      "सिद्धि": 1602,
      "brāh": 1603,
      "यस्": 1604,
      "gaccha": 1605,
      "tur": 1606,
      "tvayā": 1607,
      "kim": 1608,
      "किम्": 1609,
      "रूपा": 1610,
      "भवि": 1611,
      "ब्राह्": 1612,
      "बृ": 1613,
      "varā": 1614,
      "bṛ": 1615,
      "मध्य": 1616,
      "bhyo": 1617,
      "यात्": 1618,
      "नित्य": 1619,
      "जना": 1620,
      "तद": 1621,
      "हू": 1622,
      "nāt": 1623,
      "adhi": 1624,
      "ktaṃ": 1625,
      "utta": 1626,
      "स्मिन्": 1627,
      "gatā": 1628,
      "praṇa": 1629,
      "cin": 1630,
      "dhāra": 1631,
      "mai": 1632,
      "त्त्": 1633,
      "śre": 1634,
      "निर": 1635,
      "pitā": 1636,
      "ङ्गा": 1637,
      "Bhat": 1638,
      "पते": 1639,
      "भत्त्": 1640,
      "rakṣa": 1641,
      "pate": 1642,
      "vāk": 1643,
      "Bhatt": 1644,
      "rṣa": 1645,
      "जं": 1646,
      "देवी": 1647,
      "cī": 1648,
      "त्ति": 1649,
      "jaṃ": 1650,
      "purā": 1651,
      "कू": 1652,
      "प्रभा": 1653,
      "bī": 1654,
      "ल्य": 1655,
      "bhrā": 1656,
      "cāpi": 1657,
      "rūpā": 1658,
      "अधि": 1659,
      "kau": 1660,
      "पुरा": 1661,
      "anta": 1662,
      "राय": 1663,
      "वक्त": 1664,
      "teṣāṃ": 1665,
      "कुरु": 1666,
      "kuru": 1667,
      "जान": 1668,
      "्रं": 1669,
      "bhakti": 1670,
      "र्वा": 1671,
      "पुर": 1672,
      "ब्रवी": 1673,
      "bravī": 1674,
      "दै": 1675,
      "भ्यां": 1676,
      "vak": 1677,
      "bhyāṃ": 1678,
      "न्ता": 1679,
      "śuddha": 1680,
      "stra": 1681,
      "रस": 1682,
      "rākṣa": 1683,
      "hitā": 1684,
      "पाल": 1685,
      "devi": 1686,
      "ध्ये": 1687,
      "ुः": 1688,
      "क्षो": 1689,
      "देवि": 1690,
      "भूष": 1691,
      "पृथि": 1692,
      "pṛthi": 1693,
      "नै": 1694,
      "यत": 1695,
      "ष्ठा": 1696,
      "जीव": 1697,
      "धो": 1698,
      "kathaṃ": 1699,
      "कथं": 1700,
      "prī": 1701,
      "haḥ": 1702,
      "प्री": 1703,
      "gam": 1704,
      "yante": 1705,
      "विशेष": 1706,
      "apa": 1707,
      "pura": 1708,
      "ुम्": 1709,
      "प्रजा": 1710,
      "nāḥ": 1711,
      "यम": 1712,
      "यौ": 1713,
      "लक्ष्": 1714,
      "म्भ": 1715,
      "न्तं": 1716,
      "न्दु": 1717,
      "sad": 1718,
      "वर्ण": 1719,
      "प्रथ": 1720,
      "bodha": 1721,
      "भद्र": 1722,
      "तेषां": 1723,
      "ṣṭaṃ": 1724,
      "भ्यो": 1725,
      "viṣṇu": 1726,
      "punar": 1727,
      "रम": 1728,
      "yadā": 1729,
      "ानाम्": 1730,
      "परं": 1731,
      "पिता": 1732,
      "यू": 1733,
      "siddha": 1734,
      "taiḥ": 1735,
      "mahi": 1736,
      "राम": 1737,
      "पात": 1738,
      "phala": 1739,
      "कीर्त": 1740,
      "ity": 1741,
      "पद": 1742,
      "tim": 1743,
      "guṇā": 1744,
      "मूर्": 1745,
      "प्रमा": 1746,
      "dharmā": 1747,
      "भक्त": 1748,
      "ban": 1749,
      "yī": 1750,
      "इत्य्": 1751,
      "टा": 1752,
      "यज्ञ": 1753,
      "शम्": 1754,
      "svar": 1755,
      "नौ": 1756,
      "त्व्": 1757,
      "ratna": 1758,
      "इ̱": 1759,
      "tasmi": 1760,
      "कस्य": 1761,
      "बी": 1762,
      "ratha": 1763,
      "स्थितः": 1764,
      "sthitaḥ": 1765,
      "mala": 1766,
      "ṣaṃ": 1767,
      "सिं": 1768,
      "भक्ति": 1769,
      "यदा": 1770,
      "शर": 1771,
      "siṃ": 1772,
      "त्वया": 1773,
      "brahmā": 1774,
      "yoḥ": 1775,
      "ध्र": 1776,
      "nanda": 1777,
      "श्चि": 1778,
      "sto": 1779,
      "भ्रा": 1780,
      "pramā": 1781,
      "माना": 1782,
      "ज्व": 1783,
      "nira": 1784,
      "ब्रह्मा": 1785,
      "पुनर्": 1786,
      "khe": 1787,
      "घ्": 1788,
      "चै": 1789,
      "nāya": 1790,
      "द्धि": 1791,
      "मात्र": 1792,
      "nitya": 1793,
      "चतुर्": 1794,
      "ब्राह्म": 1795,
      "bhavā": 1796,
      "पुण्य": 1797,
      "पं": 1798,
      "े̍": 1799,
      "paraṃ": 1800,
      "मार्ग": 1801,
      "राक्ष": 1802,
      "याम्": 1803,
      "bandha": 1804,
      "vyava": 1805,
      "paḥ": 1806,
      "pār": 1807,
      "देवे": 1808,
      "deve": 1809,
      "महि": 1810,
      "cche": 1811,
      "वरु": 1812,
      "क्रो": 1813,
      "brāhma": 1814,
      "मत्": 1815,
      "कुल": 1816,
      "श्वर": 1817,
      "तस्मा": 1818,
      "kū": 1819,
      "पः": 1820,
      "yor": 1821,
      "sahasra": 1822,
      "लभ": 1823,
      "pada": 1824,
      "snā": 1825,
      "śya": 1826,
      "nai": 1827,
      "ta̱": 1828,
      "tama": 1829,
      "tasmā": 1830,
      "śarī": 1831,
      "śvara": 1832,
      "पुरुष": 1833,
      "nān": 1834,
      "saṅ": 1835,
      "param": 1836,
      "स्तो": 1837,
      "hyā": 1838,
      "गे": 1839,
      "शरी": 1840,
      "र्ध्व": 1841,
      "तस्मि": 1842,
      "kīrti": 1843,
      "kṛtā": 1844,
      "kro": 1845,
      "माः": 1846,
      "गता": 1847,
      "पर्": 1848,
      "भवा": 1849,
      "varu": 1850,
      "māyā": 1851,
      "laḥ": 1852,
      "चार": 1853,
      "jagat": 1854,
      "घृ": 1855,
      "वती": 1856,
      "ghṛ": 1857,
      "upā": 1858,
      "ैश्": 1859,
      "kasya": 1860,
      "द्धा": 1861,
      "yase": 1862,
      "̍त": 1863,
      "रौ": 1864,
      "धार": 1865,
      "trī": 1866,
      "पत्": 1867,
      "यथ": 1868,
      "cāra": 1869,
      "पर्व": 1870,
      "tar": 1871,
      "jam": 1872,
      "aś": 1873,
      "ur": 1874,
      "ṭha": 1875,
      "द्रु": 1876,
      "नाय": 1877,
      "ष्व": 1878,
      "माया": 1879,
      "dhaṃ": 1880,
      "kāṃ": 1881,
      "त्यु": 1882,
      "kena": 1883,
      "पृथ": 1884,
      "प̱": 1885,
      "gaṃ": 1886,
      "pratha": 1887,
      "ṇena": 1888,
      "ची": 1889,
      "rasā": 1890,
      "kalā": 1891,
      "bhaṃ": 1892,
      "कृतं": 1893,
      "kṛtaṃ": 1894,
      "tīr": 1895,
      "te̱": 1896,
      "jāyate": 1897,
      "जायते": 1898,
      "rāṃ": 1899,
      "राग": 1900,
      "yur": 1901,
      "शिव": 1902,
      "yitvā": 1903,
      "सत्": 1904,
      "न्तो": 1905,
      "कां": 1906,
      "दिव्य": 1907,
      "वर्ज": 1908,
      "विश्वा": 1909,
      "ntu": 1910,
      "आत्म": 1911,
      "ह्व": 1912,
      "ḍā": 1913,
      "ṣī": 1914,
      "puṇ": 1915,
      "tayā": 1916,
      "cha": 1917,
      "ta̍": 1918,
      "स्तस्य": 1919,
      "deśa": 1920,
      "पर्य": 1921,
      "भर": 1922,
      "̱d": 1923,
      "kān": 1924,
      "व्यव": 1925,
      "स्फु": 1926,
      "यित्वा": 1927,
      "pāpa": 1928,
      "क्त्वा": 1929,
      "स्तथा": 1930,
      "देह": 1931,
      "पूर्ण": 1932,
      "तत": 1933,
      "ra̱": 1934,
      "ते̱": 1935,
      "bhāvā": 1936,
      "योः": 1937,
      "mahī": 1938,
      "लोक्य": 1939,
      "मित्र": 1940,
      "रसा": 1941,
      "ṣya": 1942,
      "pūja": 1943,
      "sphu": 1944,
      "̱tā": 1945,
      "hṛda": 1946,
      "jva": 1947,
      "kṛt": 1948,
      "pa̱": 1949,
      "cak": 1950,
      "prakā": 1951,
      "श्रा": 1952,
      "गण": 1953,
      "śaṅ": 1954,
      "तुं": 1955,
      "ṣv": 1956,
      "̱ता": 1957,
      "vasu": 1958,
      "vatī": 1959,
      "आस": 1960,
      "rasa": 1961,
      "smin": 1962,
      "ड्": 1963,
      "cakra": 1964,
      "dai": 1965,
      "चित्र": 1966,
      "चेत": 1967,
      "जल": 1968,
      "नव": 1969,
      "yaś": 1970,
      "padā": 1971,
      "rāṇi": 1972,
      "pāta": 1973,
      "रुद्र": 1974,
      "namāmi": 1975,
      "यन्ति": 1976,
      "saman": 1977,
      "हृद": 1978,
      "rūpaṃ": 1979,
      "उपा": 1980,
      "hāra": 1981,
      "कृता": 1982,
      "śrutvā": 1983,
      "मन्": 1984,
      "gataḥ": 1985,
      "वा̱": 1986,
      "तुर्": 1987,
      "bud": 1988,
      "नू": 1989,
      "र̱": 1990,
      "māḥ": 1991,
      "निर्व": 1992,
      "ष्टं": 1993,
      "योज": 1994,
      "रूपं": 1995,
      "नमामि": 1996,
      "iha": 1997,
      "vyo": 1998,
      "अश्व": 1999,
      "hita": 2000,
      "nānā": 2001,
      "yed": 2002,
      "परम्": 2003,
      "जगत्": 2004,
      "आत्": 2005,
      "एष": 2006,
      "दौ": 2007,
      "शय": 2008,
      "स्रा": 2009,
      "cai": 2010,
      "mām": 2011,
      "निश्च": 2012,
      "मही": 2013,
      "yāti": 2014,
      "pravi": 2015,
      "dṛś": 2016,
      "kle": 2017,
      "च̱": 2018,
      "वसु": 2019,
      "ह̱": 2020,
      "kaṇ": 2021,
      "क्ले": 2022,
      "stri": 2023,
      "इह": 2024,
      "मौ": 2025,
      "यी": 2026,
      "लिङ्ग": 2027,
      "स्पृ": 2028,
      "pāra": 2029,
      "dru": 2030,
      "बद्ध": 2031,
      "daśā": 2032,
      "नाः": 2033,
      "नाग": 2034,
      "ati": 2035,
      "nan": 2036,
      "rāt": 2037,
      "तिम्": 2038,
      "दाय": 2039,
      "buddhi": 2040,
      "श्रुत्वा": 2041,
      "padma": 2042,
      "गतः": 2043,
      "sa̍": 2044,
      "śat": 2045,
      "citta": 2046,
      "uk": 2047,
      "ḍha": 2048,
      "mau": 2049,
      "ṣaḥ": 2050,
      "दि̱": 2051,
      "भावा": 2052,
      "is": 2053,
      "bhūmi": 2054,
      "spṛ": 2055,
      "अति": 2056,
      "जन्म": 2057,
      "िर्": 2058,
      "श्चैव": 2059,
      "र्थि": 2060,
      "मणि": 2061,
      "taś": 2062,
      "रां": 2063,
      "di̱": 2064,
      "क्रिया": 2065,
      "सद": 2066,
      "स्य̱": 2067,
      "धर्मा": 2068,
      "pāla": 2069,
      "वीर्य": 2070,
      "lena": 2071,
      "dyu": 2072,
      "ātmā": 2073,
      "नय": 2074,
      "ca̱": 2075,
      "labha": 2076,
      "tuḥ": 2077,
      "स्थान": 2078,
      "evā": 2079,
      "eṣa": 2080,
      "केन": 2081,
      "चरे": 2082,
      "षी": 2083,
      "care": 2084,
      "tānāṃ": 2085,
      "ścaiva": 2086,
      "नन्द": 2087,
      "सङ्ग": 2088,
      "sya̱": 2089,
      "varṇa": 2090,
      "madhye": 2091,
      "चन": 2092,
      "डा": 2093,
      "प्य्": 2094,
      "ha̱": 2095,
      "त्थ": 2096,
      "ndri": 2097,
      "ब्ध": 2098,
      "पद्म": 2099,
      "भूमि": 2100,
      "हार": 2101,
      "दृश्य": 2102,
      "syāt": 2103,
      "parva": 2104,
      "jyo": 2105,
      "नाना": 2106,
      "naiva": 2107,
      "प्रवि": 2108,
      "याति": 2109,
      "मन्व": 2110,
      "trai": 2111,
      "शक्त": 2112,
      "ṣva": 2113,
      "jala": 2114,
      "mit": 2115,
      "śān": 2116,
      "rthe": 2117,
      "śṛṇu": 2118,
      "हिता": 2119,
      "sada": 2120,
      "मार": 2121,
      "वृष": 2122,
      "मोक्ष": 2123,
      "शृणु": 2124,
      "भ्या": 2125,
      "dāya": 2126,
      "वर्ष": 2127,
      "vāṃ": 2128,
      "gan": 2129,
      "जिन": 2130,
      "ज्यो": 2131,
      "श्वा": 2132,
      "dau": 2133,
      "माम्": 2134,
      "evam": 2135,
      "āsa": 2136,
      "वान": 2137,
      "candra": 2138,
      "māra": 2139,
      "वर्ध": 2140,
      "ण्ठ": 2141,
      "एवम्": 2142,
      "ceta": 2143,
      "र्ज": 2144,
      "lokya": 2145,
      "कट": 2146,
      "तर": 2147,
      "स̍": 2148,
      "nas": 2149,
      "nāga": 2150,
      "nirā": 2151,
      "स्यात्": 2152,
      "jīva": 2153,
      "asi": 2154,
      "ज̍": 2155,
      "लः": 2156,
      "na̱": 2157,
      "िति": 2158,
      "ja̍": 2159,
      "graha": 2160,
      "कला": 2161,
      "निरा": 2162,
      "paramā": 2163,
      "शोभ": 2164,
      "शङ्": 2165,
      "dhara": 2166,
      "न्ती": 2167,
      "kuryā": 2168,
      "चापि": 2169,
      "स्त्रि": 2170,
      "स्क": 2171,
      "balā": 2172,
      "कुर्व": 2173,
      "koṭi": 2174,
      "कान्त": 2175,
      "हस्त": 2176,
      "त्रै": 2177,
      "tvāṃ": 2178,
      "वेश": 2179,
      "uvāca": 2180,
      "ṅgu": 2181,
      "prasā": 2182,
      "भाष": 2183,
      "i̍": 2184,
      "उवाच": 2185,
      "तया": 2186,
      "भय": 2187,
      "teṣu": 2188,
      "मन्य": 2189,
      "ङ्गु": 2190,
      "पदा": 2191,
      "yā̍": 2192,
      "कोटि": 2193,
      "भोग": 2194,
      "naya": 2195,
      "janma": 2196,
      "नैव": 2197,
      "lab": 2198,
      "yuḥ": 2199,
      "कुर्या": 2200,
      "bhagavān": 2201,
      "ोद": 2202,
      "राव": 2203,
      "निर्म": 2204,
      "णाः": 2205,
      "सोम": 2206,
      "cana": 2207,
      "द्यु": 2208,
      "दोष": 2209,
      "kṛṣṇa": 2210,
      "त̍": 2211,
      "त̱": 2212,
      "muni": 2213,
      "jñānaṃ": 2214,
      "ज्ञानं": 2215,
      "dve": 2216,
      "vira": 2217,
      "bhyaḥ": 2218,
      "kṣya": 2219,
      "स्थिता": 2220,
      "भ्यः": 2221,
      "mba": 2222,
      "पूर": 2223,
      "tattva": 2224,
      "gataṃ": 2225,
      "rud": 2226,
      "मुनि": 2227,
      "vṛṣa": 2228,
      "soma": 2229,
      "कर्ण": 2230,
      "ान्व": 2231,
      "भगवान्": 2232,
      "vartate": 2233,
      "एवा": 2234,
      "dhvaṃ": 2235,
      "व्यो": 2236,
      "वर्तते": 2237,
      "bravīt": 2238,
      "मोह": 2239,
      "kadā": 2240,
      "mānā": 2241,
      "वा̍": 2242,
      "काय": 2243,
      "ब्रवीत्": 2244,
      "satya": 2245,
      "याव": 2246,
      "त्वे": 2247,
      "bhūṣi": 2248,
      "कदा": 2249,
      "गतं": 2250,
      "प्रसा": 2251,
      "प्रती": 2252,
      "प्रभु": 2253,
      "nāśa": 2254,
      "prabhu": 2255,
      "surā": 2256,
      "योर्": 2257,
      "kriyā": 2258,
      "chi": 2259,
      "जय": 2260,
      "मध्ये": 2261,
      "ran": 2262,
      "ित्य": 2263,
      "gaṇa": 2264,
      "pratī": 2265,
      "mokṣa": 2266,
      "vasa": 2267,
      "kaś": 2268,
      "परमा": 2269,
      "त्ये": 2270,
      "उद्": 2271,
      "दण्ड": 2272,
      "maṇi": 2273,
      "yāma": 2274,
      "कुश": 2275,
      "त्वां": 2276,
      "varji": 2277,
      "पौ": 2278,
      "भं": 2279,
      "वरा": 2280,
      "वक्ष": 2281,
      "तुम्": 2282,
      "tram": 2283,
      "vardha": 2284,
      "गौ": 2285,
      "तू": 2286,
      "ṭe": 2287,
      "buddhā": 2288,
      "अस्य": 2289,
      "अग्ने": 2290,
      "yajña": 2291,
      "विर": 2292,
      "kula": 2293,
      "ttama": 2294,
      "sthitā": 2295,
      "agne": 2296,
      "vāḥ": 2297,
      "karu": 2298,
      "सुरा": 2299,
      "द्यो": 2300,
      "शत्र": 2301,
      "lya": 2302,
      "tye": 2303,
      "करु": 2304,
      "न̱": 2305,
      "gama": 2306,
      "तानि": 2307,
      "nāni": 2308,
      "क्रि": 2309,
      "वाह": 2310,
      "pita": 2311,
      "puṇya": 2312,
      "strī": 2313,
      "च्छे": 2314,
      "hyaṃ": 2315,
      "pata": 2316,
      "khya": 2317,
      "ptā": 2318,
      "घ्र": 2319,
      "लित": 2320,
      "putrā": 2321,
      "स्त्री": 2322,
      "samud": 2323,
      "ādi": 2324,
      "̍य": 2325,
      "अना": 2326,
      "पद्य": 2327,
      "nād": 2328,
      "lokā": 2329,
      "patiḥ": 2330,
      "पतिः": 2331,
      "̍व": 2332,
      "गम": 2333,
      "भर्": 2334,
      "मद": 2335,
      "da̍": 2336,
      "sām": 2337,
      "द्वित": 2338,
      "करण": 2339,
      "bhar": 2340,
      "पुष्प": 2341,
      "सत्त्वा": 2342,
      "avi": 2343,
      "जम्": 2344,
      "बला": 2345,
      "वने": 2346,
      "िः": 2347,
      "पार": 2348,
      "saṃśa": 2349,
      "mahātma": 2350,
      "द्वी": 2351,
      "ल्ल": 2352,
      "etad": 2353,
      "इवा": 2354,
      "ti̱": 2355,
      "bhak": 2356,
      "ṣṭo": 2357,
      "स्वयं": 2358,
      "svayaṃ": 2359,
      "tasmāt": 2360,
      "bāhu": 2361,
      "बाहु": 2362,
      "gena": 2363,
      "::": 2364,
      "ऽथ": 2365,
      "vane": 2366,
      "ति̱": 2367,
      "नात्": 2368,
      "dhvā": 2369,
      "bhāga": 2370,
      "कृत्य": 2371,
      "aho": 2372,
      "̱द्": 2373,
      "अहो": 2374,
      "पश": 2375,
      "मय": 2376,
      "tatas": 2377,
      "विप्र": 2378,
      "yogi": 2379,
      "kur": 2380,
      "kuśa": 2381,
      "̍ta": 2382,
      "खे": 2383,
      "चक्षु": 2384,
      "भैर": 2385,
      "cakṣu": 2386,
      "dhaḥ": 2387,
      "tvat": 2388,
      "stathā": 2389,
      "pade": 2390,
      "विधा": 2391,
      "नाश": 2392,
      "श्वरः": 2393,
      "śvaraḥ": 2394,
      "मृत": 2395,
      "madhya": 2396,
      "grī": 2397,
      "च̍": 2398,
      "्यम्": 2399,
      "yād": 2400,
      ".//": 2401,
      "रस्य": 2402,
      "।॥": 2403,
      "cinta": 2404,
      "varṣa": 2405,
      "योगि": 2406,
      "sra": 2407,
      "ska": 2408,
      "मपि": 2409,
      "वह": 2410,
      "ऽहं": 2411,
      "bhaira": 2412,
      "vena": 2413,
      "प्राण": 2414,
      "cchi": 2415,
      "etat": 2416,
      "̱त्र": 2417,
      "अत्र": 2418,
      "गम्": 2419,
      "दशा": 2420,
      "कृत्": 2421,
      "ndrā": 2422,
      "बृह": 2423,
      "krā": 2424,
      "nye": 2425,
      "असि": 2426,
      "ैस्": 2427,
      "ग्री": 2428,
      "mṛtyu": 2429,
      "भेद": 2430,
      "puṣpa": 2431,
      "anā": 2432,
      "आयु": 2433,
      "वाक": 2434,
      "कारण": 2435,
      "ṣṭhi": 2436,
      "येद्": 2437,
      "tair": 2438,
      "nasya": 2439,
      "sata": 2440,
      "vitā": 2441,
      "tāra": 2442,
      "विज": 2443,
      "sāga": 2444,
      "साग": 2445,
      "कोट": 2446,
      "gau": 2447,
      "अग्नि": 2448,
      "धन": 2449,
      "स्ना": 2450,
      "तेज": 2451,
      "uda": 2452,
      "ścā": 2453,
      "सद्": 2454,
      "manaḥ": 2455,
      "viśeṣa": 2456,
      "मास": 2457,
      "jaya": 2458,
      "ष्टो": 2459,
      "लक्ष्म": 2460,
      "rthā": 2461,
      "yaṁ": 2462,
      "vini": 2463,
      "संश": 2464,
      "ṇāḥ": 2465,
      "क्षेत्र": 2466,
      "mānu": 2467,
      "स्ये": 2468,
      "citra": 2469,
      "र्थे": 2470,
      "श्रेष्ठ": 2471,
      "aham": 2472,
      "अहम्": 2473,
      "धः": 2474,
      "maho": 2475,
      "teja": 2476,
      "kāle": 2477,
      "पुण": 2478,
      "तथैव": 2479,
      "पदं": 2480,
      "rāj": 2481,
      "kāya": 2482,
      "dhru": 2483,
      "devo": 2484,
      "tvāt": 2485,
      "jño": 2486,
      "जात": 2487,
      "त्प": 2488,
      "bhau": 2489,
      "ṣṭhe": 2490,
      "ṇḍi": 2491,
      "ṅgaṃ": 2492,
      "lakṣma": 2493,
      "ntaṃ": 2494,
      "kari": 2495,
      "veśa": 2496,
      "vīra": 2497,
      "tasyai": 2498,
      "̱र": 2499,
      "अवि": 2500,
      "तर्": 2501,
      "karā": 2502,
      "pradā": 2503,
      "mukti": 2504,
      "वत्स": 2505,
      "विष्णु": 2506,
      "tasmin": 2507,
      "gne": 2508,
      "सङ्": 2509,
      "vakṣ": 2510,
      "cari": 2511,
      "rā̱": 2512,
      "न्तः": 2513,
      "मानो": 2514,
      "pūjā": 2515,
      "mbha": 2516,
      "padaṃ": 2517,
      "क्रम": 2518,
      "vṛ̱": 2519,
      "khī": 2520,
      "krama": 2521,
      "gṛhī": 2522,
      "ñcā": 2523,
      "भौ": 2524,
      "pare": 2525,
      "ca̍": 2526,
      "jāna": 2527,
      "देवो": 2528,
      "nū": 2529,
      "एतत्": 2530,
      "ण्व": 2531,
      "पथ": 2532,
      "संसार": 2533,
      "मानु": 2534,
      "cch": 2535,
      "गृही": 2536,
      "vatsa": 2537,
      "tathaiva": 2538,
      "सिंह": 2539,
      "र्था": 2540,
      "mara": 2541,
      "pau": 2542,
      "vāha": 2543,
      "divya": 2544,
      "ṣyati": 2545,
      "vādi": 2546,
      "वां": 2547,
      "ज्ज": 2548,
      "ṣām": 2549,
      "pṛtha": 2550,
      "ध्रु": 2551,
      "lla": 2552,
      "ryaṃ": 2553,
      "णेन": 2554,
      "pa̍": 2555,
      "स्ती": 2556,
      "तुः": 2557,
      "परे": 2558,
      "pūra": 2559,
      "एतद्": 2560,
      "gaḥ": 2561,
      "ye̍": 2562,
      "yoja": 2563,
      "nīṃ": 2564,
      "गुणा": 2565,
      "atra": 2566,
      "athā": 2567,
      "करा": 2568,
      "षं": 2569,
      "देवं": 2570,
      "devaṃ": 2571,
      "asya": 2572,
      "cya": 2573,
      "bhaya": 2574,
      "मुक्ति": 2575,
      "sarvān": 2576,
      "̱ष": 2577,
      "करि": 2578,
      "द̍": 2579,
      "्यो": 2580,
      "nāsti": 2581,
      "्याः": 2582,
      "काले": 2583,
      "miti": 2584,
      "सर्वान्": 2585,
      "ग्ध": 2586,
      "यान": 2587,
      "शै": 2588,
      "yāva": 2589,
      "vāri": 2590,
      "vit": 2591,
      "विकल्प": 2592,
      "saṃsāra": 2593,
      "giri": 2594,
      "puruṣa": 2595,
      "cu": 2596,
      "कै": 2597,
      "यꣳ": 2598,
      "tanu": 2599,
      "kas": 2600,
      "sukhā": 2601,
      "परम": 2602,
      "ṇān": 2603,
      "rīṃ": 2604,
      "स्थि": 2605,
      "tho": 2606,
      "पक्ष": 2607,
      "राघ": 2608,
      "क्री": 2609,
      "प्नो": 2610,
      "cittaṃ": 2611,
      "अग्र": 2612,
      "समन्व": 2613,
      "mapi": 2614,
      "rāgha": 2615,
      "सम्य": 2616,
      "bhagavan": 2617,
      "̍n": 2618,
      "उद": 2619,
      "भार": 2620,
      "no̱": 2621,
      "सहस्रा": 2622,
      "namaste": 2623,
      "नमस्ते": 2624,
      "śro": 2625,
      "ऽसौ": 2626,
      "mada": 2627,
      "vāna": 2628,
      "vipra": 2629,
      "तेषु": 2630,
      "त्री": 2631,
      "bhāra": 2632,
      "ेषां": 2633,
      "a̱bhi": 2634,
      "krī": 2635,
      "̱n": 2636,
      "रक्त": 2637,
      "ष्णा": 2638,
      "क्रु": 2639,
      "ṇḍā": 2640,
      "samya": 2641,
      "paśya": 2642,
      "मिति": 2643,
      "ो̍": 2644,
      "माय": 2645,
      "नास्ति": 2646,
      "न्तम्": 2647,
      "यामि": 2648,
      "नमस्": 2649,
      "anya": 2650,
      "rā̍": 2651,
      "yo̱": 2652,
      "मानः": 2653,
      "शास": 2654,
      "parama": 2655,
      "तस्मात्": 2656,
      "bheda": 2657,
      "गिरि": 2658,
      "ā̱": 2659,
      "ष्यामि": 2660,
      "त्स": 2661,
      "ṣṭu": 2662,
      "ve̍": 2663,
      "bhavat": 2664,
      "सो̱": 2665,
      "रूपे": 2666,
      "gṛh": 2667,
      "भगव": 2668,
      "yuktaṃ": 2669,
      "अङ्ग": 2670,
      "तनु": 2671,
      "raṇa": 2672,
      "rasya": 2673,
      "tai": 2674,
      "gati": 2675,
      "ṣaṭ": 2676,
      "kāri": 2677,
      "yogā": 2678,
      "भावे": 2679,
      "no̍": 2680,
      "ग्निर्": 2681,
      "कर्त": 2682,
      "ḍi": 2683,
      "रात्": 2684,
      "to̱": 2685,
      "tamo": 2686,
      "श्रो": 2687,
      "tīṃ": 2688,
      "अ̱भि": 2689,
      "बाल": 2690,
      "फलं": 2691,
      "vāpi": 2692,
      "śai": 2693,
      "prakṛ": 2694,
      "ना̱": 2695,
      "ṇasya": 2696,
      "तार": 2697,
      "क्रान्त": 2698,
      "स्थितम्": 2699,
      "rūpe": 2700,
      "sthitam": 2701,
      "phalaṃ": 2702,
      "sūrya": 2703,
      "लव": 2704,
      "ṣyāmi": 2705,
      "naiḥ": 2706,
      "कृते": 2707,
      "svap": 2708,
      "nīm": 2709,
      "भवत्": 2710,
      "dīr": 2711,
      "क्लेश": 2712,
      "टे": 2713,
      "bhaḥ": 2714,
      "निय": 2715,
      "साम्": 2716,
      "mukta": 2717,
      "युग": 2718,
      "नो̍": 2719,
      "viṣā": 2720,
      "nāra": 2721,
      "वायु": 2722,
      "kṛtam": 2723,
      "धातु": 2724,
      "रूपि": 2725,
      "karta": 2726,
      "bhaviṣyati": 2727,
      "भविष्यति": 2728,
      "as": 2729,
      "भज": 2730,
      "ऽयं": 2731,
      "ṛ̱": 2732,
      "ṣṇa": 2733,
      "पाय": 2734,
      "dhātu": 2735,
      "kṣaṃ": 2736,
      "jāta": 2737,
      "स्वभाव": 2738,
      "indu": 2739,
      "ṭī": 2740,
      "पाणि": 2741,
      "देन": 2742,
      "पुत्रा": 2743,
      "pu̱": 2744,
      "śāsa": 2745,
      "śivā": 2746,
      "प्ता": 2747,
      "लम्ब": 2748,
      "कण्ठ": 2749,
      "तम": 2750,
      "सत": 2751,
      "र्घ": 2752,
      "vi̍": 2753,
      "yeṣu": 2754,
      "त्वात्": 2755,
      "समी": 2756,
      "samī": 2757,
      "नृप": 2758,
      "तस्मिन्": 2759,
      "ści": 2760,
      "नान": 2761,
      "यस्या": 2762,
      "वपु": 2763,
      "nanta": 2764,
      "bhūtā": 2765,
      "न्द्रि": 2766,
      "शून्य": 2767,
      "ekā": 2768,
      "भः": 2769,
      "ह्र": 2770,
      "ऽन्य": 2771,
      "naś": 2772,
      "viśa": 2773,
      "lava": 2774,
      "कृतम्": 2775,
      "śānta": 2776,
      "noti": 2777,
      "च्छि": 2778,
      "वीर": 2779,
      "dvitī": 2780,
      "paścā": 2781,
      "द्विती": 2782,
      "ddhe": 2783,
      "आ̱": 2784,
      "तै": 2785,
      "तन्त": 2786,
      "परमे": 2787,
      "cāri": 2788,
      "tatrā": 2789,
      "parame": 2790,
      "kṣetra": 2791,
      "̍ण": 2792,
      "ोर्": 2793,
      "mātra": 2794,
      "याम": 2795,
      "yu̱": 2796,
      "शिवा": 2797,
      "मित्त": 2798,
      "jīvi": 2799,
      "मरु": 2800,
      "यान्": 2801,
      "षः": 2802,
      "vāp": 2803,
      "gato": 2804,
      "ञ्चा": 2805,
      "पूर्वं": 2806,
      "ayaṃ": 2807,
      "अयं": 2808,
      "hitaṃ": 2809,
      "प्रवृत्त": 2810,
      "नार": 2811,
      "pūrvaṃ": 2812,
      "astu": 2813,
      "m̐": 2814,
      "अर्थ": 2815,
      "अस्तु": 2816,
      "इ̍": 2817,
      "उक्त": 2818,
      "धर": 2819,
      "मात": 2820,
      "त्ता": 2821,
      "र्यं": 2822,
      "yasyā": 2823,
      "rṇa": 2824,
      "nāpi": 2825,
      "yeta": 2826,
      "मेण": 2827,
      "meṇa": 2828,
      "पृथिवी": 2829,
      "pṛthivī": 2830,
      "गतो": 2831,
      "तद्व": 2832,
      "नरा": 2833,
      "ṅgi": 2834,
      "sādhu": 2835,
      "साधु": 2836,
      "ndu": 2837,
      "स्थं": 2838,
      "tasmai": 2839,
      "रणे": 2840,
      "द्विज": 2841,
      "vidyate": 2842,
      "idam": 2843,
      "इदम्": 2844,
      "vapu": 2845,
      "yāmā": 2846,
      "yāni": 2847,
      "daṇḍa": 2848,
      "वाः": 2849,
      "सर्वत्र": 2850,
      "विद्यते": 2851,
      "tasmād": 2852,
      "tū": 2853,
      "अद्य": 2854,
      "ऋ̱": 2855,
      "बभू": 2856,
      "hare": 2857,
      "parya": 2858,
      "ित्त": 2859,
      "gatvā": 2860,
      "dhana": 2861,
      "ṇāt": 2862,
      "babhū": 2863,
      "स्थिताः": 2864,
      "rūpi": 2865,
      "नो̱": 2866,
      "sthitāḥ": 2867,
      "नमस्तस्य": 2868,
      "प्नु": 2869,
      "युक्तं": 2870,
      "namastasyai": 2871,
      "निर्वृ": 2872,
      "नमस्तस्यै": 2873,
      "rdha": 2874,
      "mayi": 2875,
      "मा̍": 2876,
      "मुनी": 2877,
      "hetu": 2878,
      "ग्न": 2879,
      "śubhā": 2880,
      "कीर्": 2881,
      "चित्तं": 2882,
      "प̍": 2883,
      "ष्या": 2884,
      "हरे": 2885,
      "viṃśa": 2886,
      "विद": 2887,
      "munī": 2888,
      "तीर्थ": 2889,
      "मृग": 2890,
      "गृह": 2891,
      "एका": 2892,
      "har": 2893,
      "kai": 2894,
      "tā̍": 2895,
      "विशुद्ध": 2896,
      "वाक्य": 2897,
      "न्त्य्": 2898,
      "saṃs": 2899,
      "प्राप्य": 2900,
      "वृ̱": 2901,
      "mahat": 2902,
      "samanvi": 2903,
      "e̱": 2904,
      "चण्ड": 2905,
      "ऽसि": 2906,
      "vas": 2907,
      "paṭ": 2908,
      "hira": 2909,
      "वार": 2910,
      "नापि": 2911,
      "श्रि": 2912,
      "मोद": 2913,
      "mṛta": 2914,
      "so̱": 2915,
      "मूल": 2916,
      "agni": 2917,
      "ad": 2918,
      "dvī": 2919,
      "अथा": 2920,
      "ान्य्": 2921,
      "विषा": 2922,
      "माता": 2923,
      "bhyā": 2924,
      "स्त्रा": 2925,
      "mi̱": 2926,
      "स्वर्ग": 2927,
      "varti": 2928,
      "karmā": 2929,
      "समुद्र": 2930,
      "ध्": 2931,
      "पदे": 2932,
      "षट्": 2933,
      "विनि": 2934,
      "dan": 2935,
      "mātā": 2936,
      "mānaṃ": 2937,
      "nābhi": 2938,
      "mitā": 2939,
      "jina": 2940,
      "समन्त": 2941,
      "स्मर": 2942,
      "दे̱व": 2943,
      "śve": 2944,
      "तच्": 2945,
      "त्मनः": 2946,
      "prabho": 2947,
      "कारा": 2948,
      "deha": 2949,
      "स्वप्": 2950,
      "हेतु": 2951,
      "भविष्य": 2952,
      "tsa": 2953,
      "कैः": 2954,
      "गत्वा": 2955,
      "ṃs": 2956,
      "vāsi": 2957,
      "प्रभो": 2958,
      "प्रकाश": 2959,
      "क्षं": 2960,
      "यु̱": 2961,
      "तस्मै": 2962,
      "बुद्धि": 2963,
      "शब्द": 2964,
      "छि": 2965,
      "kaiḥ": 2966,
      "न्ग्": 2967,
      "मार्": 2968,
      "dena": 2969,
      "sarvatra": 2970,
      "जित": 2971,
      "सित": 2972,
      "सकल": 2973,
      "vah": 2974,
      "pakṣa": 2975,
      "hitaḥ": 2976,
      "rudra": 2977,
      "kṛte": 2978,
      "णात्": 2979,
      "स्व̱": 2980,
      "sarvadā": 2981,
      "द्वे": 2982,
      "ान्ते": 2983,
      "vo̱": 2984,
      "samādhi": 2985,
      "अवा": 2986,
      "करं": 2987,
      "श्या": 2988,
      "ेति": 2989,
      "ैश्च": 2990,
      "rau": 2991,
      "na̍": 2992,
      "karaṃ": 2993,
      "kathi": 2994,
      "sva̱": 2995,
      "तत्रा": 2996,
      "मयि": 2997,
      "tac": 2998,
      "viśe": 2999,
      "bhadra": 3000,
      "yeva": 3001,
      "pāya": 3002,
      "सर्वदा": 3003,
      "नीम्": 3004,
      "lita": 3005,
      "phalā": 3006,
      "सृज": 3007,
      "अध": 3008,
      "आग": 3009,
      "गति": 3010,
      "विंश": 3011,
      "pitṛ": 3012,
      "परः": 3013,
      "क्रा": 3014,
      "श्वे": 3015,
      "rthaḥ": 3016,
      "षाम्": 3017,
      "गृह्": 3018,
      "oṣa": 3019,
      "raś": 3020,
      "म्यहम्": 3021,
      "वह्": 3022,
      "ऽनु": 3023,
      "narā": 3024,
      "प्रदा": 3025,
      "महो": 3026,
      "भवन्ति": 3027,
      "bhavanti": 3028,
      "ल्प": 3029,
      "मृत्य": 3030,
      "adya": 3031,
      "ktvā": 3032,
      "āga": 3033,
      "padam": 3034,
      "māta": 3035,
      "रा̱": 3036,
      "ṣṭe": 3037,
      "दार": 3038,
      "द्यं": 3039,
      "ttamam": 3040,
      "dṛṣṭa": 3041,
      "nirvṛ": 3042,
      "केश": 3043,
      "pūrṇa": 3044,
      "मूढ": 3045,
      "मूर्ध": 3046,
      "कर्मा": 3047,
      "siṃha": 3048,
      "apy": 3049,
      "chā": 3050,
      "ghu": 3051,
      "hva": 3052,
      "पदम्": 3053,
      "rama": 3054,
      "niśca": 3055,
      "pra̱": 3056,
      "laṅ": 3057,
      "bhad": 3058,
      "ताप": 3059,
      "पार्": 3060,
      "ान्ध": 3061,
      "भि̱र्": 3062,
      "योगा": 3063,
      "ज्ञो": 3064,
      "ध्यान": 3065,
      "paśyan": 3066,
      "अप्य्": 3067,
      "मति": 3068,
      "māni": 3069,
      "jagā": 3070,
      "निरु": 3071,
      "kṛtya": 3072,
      "baddha": 3073,
      "svayam": 3074,
      "śena": 3075,
      "syād": 3076,
      "̱न": 3077,
      "maru": 3078,
      "tāpa": 3079,
      "प्र̱": 3080,
      "mukhā": 3081,
      "bhi̱r": 3082,
      "tvām": 3083,
      "ज्ञाना": 3084,
      "पूजा": 3085,
      "समाधि": 3086,
      "kleśa": 3087,
      "̱ह": 3088,
      "yayau": 3089,
      "म्बु": 3090,
      "प्रय": 3091,
      "pravṛt": 3092,
      "kāśa": 3093,
      "कारि": 3094,
      "स्वयम्": 3095,
      "व्रज": 3096,
      "̱ra": 3097,
      "पश्चा": 3098,
      "yāya": 3099,
      "वि̍": 3100,
      "प्रस": 3101,
      "niya": 3102,
      "वापि": 3103,
      "bham": 3104,
      "ता̍": 3105,
      "त्मना": 3106,
      "kalyā": 3107,
      "सुखा": 3108,
      "कल्या": 3109,
      "jja": 3110,
      "जगा": 3111,
      "पत्त": 3112,
      "लङ्": 3113,
      "ष्व्": 3114,
      "paraḥ": 3115,
      "nārāya": 3116,
      "नाराय": 3117,
      "महत्": 3118,
      "śuci": 3119,
      "भुवन": 3120,
      "bhuva": 3121,
      "गृह्य": 3122,
      "nṛpa": 3123,
      "ज्वल": 3124,
      "yānti": 3125,
      "त्वाम्": 3126,
      "ब्रू": 3127,
      "̱ना": 3128,
      "चू": 3129,
      "पय": 3130,
      "vinir": 3131,
      "nādi": 3132,
      "वादि": 3133,
      "yoni": 3134,
      "rtho": 3135,
      "ग्राह": 3136,
      "नैः": 3137,
      "भम्": 3138,
      "ऽस्मि": 3139,
      "loca": 3140,
      "शास्त्र": 3141,
      "myaham": 3142,
      "ny": 3143,
      "ऽभि": 3144,
      "ḍhā": 3145,
      "vastu": 3146,
      "sakala": 3147,
      "mā̱": 3148,
      "dharā": 3149,
      "मुने": 3150,
      "mune": 3151,
      "भि̍र्": 3152,
      "jāḥ": 3153,
      "जाः": 3154,
      "लाः": 3155,
      "चारि": 3156,
      "वृक्ष": 3157,
      "samanta": 3158,
      "samut": 3159,
      "de̱vā": 3160,
      "अक्ष": 3161,
      "आश्र": 3162,
      "बहि": 3163,
      "सै": 3164,
      "dag": 3165,
      "nā̱": 3166,
      "bhaja": 3167,
      "श्म": 3168,
      "ro̍": 3169,
      "dhāna": 3170,
      "vīrya": 3171,
      "कर्ष": 3172,
      "सुखं": 3173,
      "sukhaṃ": 3174,
      "karoti": 3175,
      "बीज": 3176,
      "the": 3177,
      "u̍": 3178,
      "दय": 3179,
      "दैव": 3180,
      "पट": 3181,
      "मत्त": 3182,
      "mati": 3183,
      "ṣaḍ": 3184,
      "bhi̍r": 3185,
      "पितृ": 3186,
      "करोति": 3187,
      "brū": 3188,
      "आह": 3189,
      "लब्ध": 3190,
      "mālā": 3191,
      "प्रकृ": 3192,
      "nāti": 3193,
      "prasa": 3194,
      "नाभि": 3195,
      "कारं": 3196,
      "पुरो": 3197,
      "bhāṣa": 3198,
      "लोच": 3199,
      "मानि": 3200,
      "शुचि": 3201,
      "स्याद्": 3202,
      "कन": 3203,
      "रज": 3204,
      "rati": 3205,
      "viśā": 3206,
      "विविध": 3207,
      "याद्": 3208,
      "शिख": 3209,
      "bhavan": 3210,
      "doṣa": 3211,
      "ब्राह्मण": 3212,
      "तस्माद्": 3213,
      "बभूव": 3214,
      "षड": 3215,
      "र्च": 3216,
      "sā̱": 3217,
      "साम": 3218,
      "दां": 3219,
      "lāḥ": 3220,
      "vacanaṃ": 3221,
      "प्नोति": 3222,
      "cyu": 3223,
      "̍ṇa": 3224,
      "hati": 3225,
      "mamā": 3226,
      "kama": 3227,
      "kāmā": 3228,
      "dāra": 3229,
      "prāṇa": 3230,
      "liṅga": 3231,
      "vo̍": 3232,
      "mārga": 3233,
      "ani": 3234,
      "तन": 3235,
      "तैः": 3236,
      "वस्तु": 3237,
      "vāma": 3238,
      "ित्व": 3239,
      "nā̍": 3240,
      "śama": 3241,
      "prajñā": 3242,
      "संप्र": 3243,
      "त्तु": 3244,
      "त्तमम्": 3245,
      "योनि": 3246,
      "bhūtvā": 3247,
      "ान्तं": 3248,
      "रण्य": 3249,
      "dhena": 3250,
      "viśvā": 3251,
      "दैत्य": 3252,
      "अभ्य": 3253,
      "छा": 3254,
      "vin": 3255,
      "rāga": 3256,
      "tās": 3257,
      "निह": 3258,
      "kārā": 3259,
      "saṃyu": 3260,
      "siddhā": 3261,
      "कुसु": 3262,
      "kusu": 3263,
      "mahān": 3264,
      "वो̱": 3265,
      "गन्धर्व": 3266,
      "स्त्वं": 3267,
      "apā": 3268,
      "mbu": 3269,
      "अस": 3270,
      "्यते": 3271,
      "sai": 3272,
      "saṃni": 3273,
      "लोका": 3274,
      "धाय": 3275,
      "मनसा": 3276,
      "hur": 3277,
      "bhoga": 3278,
      "patir": 3279,
      "प्रिय": 3280,
      "प्रिये": 3281,
      "क्रोध": 3282,
      "śvā": 3283,
      "क̱": 3284,
      "म्य्": 3285,
      "vayaṃ": 3286,
      "vāra": 3287,
      "द्भव": 3288,
      "स्तं": 3289,
      "dāṃ": 3290,
      "tvad": 3291,
      "स्वि": 3292,
      "शुभा": 3293,
      "सूक्ष्": 3294,
      "प्रतिष्ठ": 3295,
      "स्मै": 3296,
      "priye": 3297,
      "gya": 3298,
      "kru": 3299,
      "tā̱": 3300,
      "te̍": 3301,
      "puro": 3302,
      "क्तो": 3303,
      "bhāvi": 3304,
      "vṛtta": 3305,
      "sūkṣ": 3306,
      "āsī": 3307,
      "आसी": 3308,
      "घु": 3309,
      "मथ": 3310,
      "ममा": 3311,
      "मन्द": 3312,
      "raja": 3313,
      "kaṭa": 3314,
      "bhavān": 3315,
      "tvayi": 3316,
      "भूत्वा": 3317,
      "huḥ": 3318,
      "दृश": 3319,
      "moha": 3320,
      "karṣa": 3321,
      "bāla": 3322,
      "manasā": 3323,
      "hye": 3324,
      "kto": 3325,
      "गः": 3326,
      "vijñā": 3327,
      "dadā": 3328,
      "dadhi": 3329,
      "nirma": 3330,
      "ताव": 3331,
      "vedā": 3332,
      "संस्": 3333,
      "satataṃ": 3334,
      "abravīt": 3335,
      "lpa": 3336,
      "अब्रवीत्": 3337,
      "गं": 3338,
      "हः": 3339,
      "name": 3340,
      "nāva": 3341,
      "वारि": 3342,
      "jane": 3343,
      "dhāya": 3344,
      "svabhāva": 3345,
      "ntare": 3346,
      "पतिर्": 3347,
      "saṃśayaḥ": 3348,
      "संशयः": 3349,
      "सततं": 3350,
      "ओष": 3351,
      "रति": 3352,
      "ṣyate": 3353,
      "ka̱": 3354,
      "tāt": 3355,
      "माला": 3356,
      "vṛkṣa": 3357,
      "ङ्गं": 3358,
      "nirvā": 3359,
      "dhīḥ": 3360,
      "भगवन्": 3361,
      "वचनं": 3362,
      "iśca": 3363,
      "ṣyā": 3364,
      "tana": 3365,
      "vasya": 3366,
      "yā̱": 3367,
      "संनि": 3368,
      "प्तं": 3369,
      "दृढ": 3370,
      "pūji": 3371,
      "asa": 3372,
      "kapi": 3373,
      "bhyaṃ": 3374,
      "निमित्त": 3375,
      "kāraṃ": 3376,
      "ṣṭhaṃ": 3377,
      "saṃsā": 3378,
      "bahi": 3379,
      "युः": 3380,
      "भवान्": 3381,
      "śuk": 3382,
      "keśa": 3383,
      "dvija": 3384,
      "ध्वं": 3385,
      "धीः": 3386,
      "इन्द्रा": 3387,
      "उ̱त": 3388,
      "वनं": 3389,
      "yac": 3390,
      "rakta": 3391,
      "ित्": 3392,
      "dadyā": 3393,
      "द्भु": 3394,
      "jani": 3395,
      "ते̍": 3396,
      "dhau": 3397,
      "ता̱": 3398,
      "त्तम": 3399,
      "त्वत्": 3400,
      "भूता": 3401,
      "रीं": 3402,
      "च्यु": 3403,
      "ṣoḍa": 3404,
      "षोड": 3405,
      "akṣa": 3406,
      "keva": 3407,
      "āyu": 3408,
      "हर्ष": 3409,
      "ha̍": 3410,
      "paro": 3411,
      "saṃpra": 3412,
      "िताम्": 3413,
      "sthe": 3414,
      "र्थः": 3415,
      "प्स": 3416,
      "priya": 3417,
      "śabda": 3418,
      "dyo": 3419,
      "ईश": 3420,
      "भ्यं": 3421,
      "वल": 3422,
      "सन": 3423,
      "सा̱": 3424,
      "mupa": 3425,
      "bhin": 3426,
      "परो": 3427,
      "कुण्ड": 3428,
      "वृद्ध": 3429,
      "tṛtī": 3430,
      "smara": 3431,
      "kāryaṃ": 3432,
      "कार्यं": 3433,
      "bhaktyā": 3434,
      "pañcā": 3435,
      "tāva": 3436,
      "śas": 3437,
      "या̍": 3438,
      "पु̱": 3439,
      "महान्": 3440,
      "सर्वम्": 3441,
      "त्वयि": 3442,
      "sarvam": 3443,
      "prāpya": 3444,
      "न्द्रा": 3445,
      "भक्त्या": 3446,
      "vy": 3447,
      "śrā": 3448,
      "बलि": 3449,
      "वयं": 3450,
      "ṃś": 3451,
      "mad": 3452,
      "tāna": 3453,
      "विन्द": 3454,
      "प्रज्ञा": 3455,
      "न्दा": 3456,
      "gate": 3457,
      "ni̱": 3458,
      "niru": 3459,
      "ṇau": 3460,
      "राध": 3461,
      "परी": 3462,
      "yasmi": 3463,
      "दीर्घ": 3464,
      "ptaṃ": 3465,
      "ucyate": 3466,
      "अष्ट": 3467,
      "उ̍": 3468,
      "उच्यते": 3469,
      "यश्": 3470,
      "वरं": 3471,
      "pāṇi": 3472,
      "संयु": 3473,
      "तो̱": 3474,
      "lokaṃ": 3475,
      "bhūṣa": 3476,
      "र्थो": 3477,
      "लोकं": 3478,
      "rtham": 3479,
      "śobha": 3480,
      "u̱ta": 3481,
      "vākyaṃ": 3482,
      "घ्न": 3483,
      "दद्या": 3484,
      "शतं": 3485,
      "nadī": 3486,
      "hāt": 3487,
      "tāla": 3488,
      "द्ग": 3489,
      "śataṃ": 3490,
      "स्यो": 3491,
      "mitra": 3492,
      "पुं": 3493,
      "मुप": 3494,
      "khyaṃ": 3495,
      "satyaṃ": 3496,
      "ष्यते": 3497,
      "gṛhya": 3498,
      "सुखम्": 3499,
      "बोधिसत्त्व": 3500,
      "sukham": 3501,
      "सत्यं": 3502,
      "ddho": 3503,
      "treṇa": 3504,
      "pala": 3505,
      "प्रज": 3506,
      "gaṅgā": 3507,
      "kām": 3508,
      "deśe": 3509,
      "ष्ट्र": 3510,
      "दिश": 3511,
      "भूतं": 3512,
      "युद्ध": 3513,
      "jih": 3514,
      "jinā": 3515,
      "śatru": 3516,
      "bindu": 3517,
      "āha": 3518,
      "अपा": 3519,
      "ददा": 3520,
      "यद्य": 3521,
      "ाने": 3522,
      "विन": 3523,
      "विशा": 3524,
      "विनिर्": 3525,
      "न्धा": 3526,
      "ना̍": 3527,
      "bhūtaṃ": 3528,
      "a̱g": 3529,
      "र्णं": 3530,
      "rājan": 3531,
      "vraja": 3532,
      "patti": 3533,
      "तृती": 3534,
      "कुरुते": 3535,
      "kurute": 3536,
      "अभ": 3537,
      "कपि": 3538,
      "यच्": 3539,
      "्वि": 3540,
      "parī": 3541,
      "yās": 3542,
      "ṇas": 3543,
      "dhanu": 3544,
      "श्रू": 3545,
      "चिन्": 3546,
      "ब्रु": 3547,
      "ddhaṃ": 3548,
      "निर्वा": 3549,
      "lakṣmī": 3550,
      "तन्त्र": 3551,
      "धौ": 3552,
      "धनु": 3553,
      "बलं": 3554,
      "रित": 3555,
      "tapo": 3556,
      "vaśā": 3557,
      "nair": 3558,
      "mā̍": 3559,
      "नाद": 3560,
      "नाव": 3561,
      "क्षण": 3562,
      "ताल": 3563,
      "संसा": 3564,
      "kṛ̱": 3565,
      "मेन": 3566,
      "balaṃ": 3567,
      "ntara": 3568,
      "bru": 3569,
      "गते": 3570,
      "नमे": 3571,
      "रश्": 3572,
      "ैवा": 3573,
      "yato": 3574,
      "varaṃ": 3575,
      "वासि": 3576,
      "पार्थि": 3577,
      "देहि": 3578,
      "dehi": 3579,
      "पिब": 3580,
      "ज्ञः": 3581,
      "ndo": 3582,
      "चार्य": 3583,
      "trāṇi": 3584,
      "jñaḥ": 3585,
      "विश्वं": 3586,
      "बिन्दु": 3587,
      "viśvaṃ": 3588,
      "vacaḥ": 3589,
      "pārthi": 3590,
      "jvala": 3591,
      "ऋषि": 3592,
      "यान्ति": 3593,
      "ra̍": 3594,
      "vikalpa": 3595,
      "māya": 3596,
      "nās": 3597,
      "मुच्यते": 3598,
      "mucyate": 3599,
      "मानम्": 3600,
      "bhagava": 3601,
      "ततस्": 3602,
      "vāyu": 3603,
      "gatam": 3604,
      "ri̍": 3605,
      "divyā": 3606,
      "दिव": 3607,
      "neka": 3608,
      "ivaṃ": 3609,
      "किल": 3610,
      "moda": 3611,
      "पीठ": 3612,
      "द्वादश": 3613,
      "लक्षण": 3614,
      "क्रुद्ध": 3615,
      "..": 3616,
      "अम": 3617,
      "चरण": 3618,
      "तपो": 3619,
      "पठ": 3620,
      "यश्च": 3621,
      "शान्ति": 3622,
      "सेन": 3623,
      "र्द": 3624,
      "vija": 3625,
      "स्य̍": 3626,
      "saṃjñā": 3627,
      "च्छ्र": 3628,
      "mṛga": 3629,
      "ṇḍī": 3630,
      "lamba": 3631,
      "वचः": 3632,
      "aṣṭa": 3633,
      "th": 3634,
      "śma": 3635,
      "तैर्": 3636,
      "नस्": 3637,
      "नदी": 3638,
      "पत्ति": 3639,
      "म्र": 3640,
      "…)": 3641,
      "vasi": 3642,
      "प्रणि": 3643,
      "praṇi": 3644,
      "रात्र": 3645,
      "sāma": 3646,
      "भिन्": 3647,
      "व्य्": 3648,
      "bhavad": 3649,
      "ttamaḥ": 3650,
      "पृष्ठ": 3651,
      "अनन्त": 3652,
      "namāmyaham": 3653,
      "नमाम्यहम्": 3654,
      "वक्त्र": 3655,
      "lyā": 3656,
      "spar": 3657,
      "̱वा": 3658,
      "अह": 3659,
      "ययौ": 3660,
      "हति": 3661,
      "sān": 3662,
      "mena": 3663,
      "śānti": 3664,
      "हिं": 3665,
      "strā": 3666,
      "gāḥ": 3667,
      "सो̍": 3668,
      "गाः": 3669,
      "ञ्जलि": 3670,
      "दित्य": 3671,
      "लक्ष्मी": 3672,
      "(…)": 3673,
      "eko": 3674,
      "my": 3675,
      "आत्मा": 3676,
      "एको": 3677,
      "यज": 3678,
      "rakṣā": 3679,
      "प्रकीर्त": 3680,
      "nāda": 3681,
      "मा̱": 3682,
      "gatāḥ": 3683,
      "क्ष्ण": 3684,
      "mita": 3685,
      "reṣu": 3686,
      "puṃ": 3687,
      "ष्टु": 3688,
      "aśva": 3689,
      "id": 3690,
      "jvā": 3691,
      "सत्व": 3692,
      "sana": 3693,
      "nāmā": 3694,
      "prakīrti": 3695,
      "वाम": 3696,
      "ṣam": 3697,
      "pāḥ": 3698,
      "pādā": 3699,
      "पाश": 3700,
      "तुल": 3701,
      "ditā": 3702,
      "yuga": 3703,
      "क्रमात्": 3704,
      "śvaram": 3705,
      "समं": 3706,
      "kramāt": 3707,
      "samaṃ": 3708,
      "darśi": 3709,
      "रूपेण": 3710,
      "kram": 3711,
      "vyam": 3712,
      "śrū": 3713,
      "̍न": 3714,
      "ख्यं": 3715,
      "गताः": 3716,
      "da̱": 3717,
      "ja̱": 3718,
      "midaṃ": 3719,
      "ditaṃ": 3720,
      "मिदं": 3721,
      "varū": 3722,
      "भोज": 3723,
      "स्मृतः": 3724,
      "smṛtaḥ": 3725,
      "dṛśyate": 3726,
      "दृश्यते": 3727,
      "वाक्यं": 3728,
      "rūpeṇa": 3729,
      "nyaṃ": 3730,
      "कम": 3731,
      "चु": 3732,
      "रसं": 3733,
      "शरण": 3734,
      "हितः": 3735,
      "ानन्द": 3736,
      "karaḥ": 3737,
      "dadhā": 3738,
      "kārya": 3739,
      "कृ̱": 3740,
      "cāru": 3741,
      "सिन्ध": 3742,
      "चारु": 3743,
      "duṣ": 3744,
      "cet": 3745,
      "अव्य": 3746,
      "तत्त": 3747,
      "शरणं": 3748,
      "ऽप्य्": 3749,
      "ravi": 3750,
      "vare": 3751,
      "kālaṃ": 3752,
      "कामा": 3753,
      "कालं": 3754,
      "dāru": 3755,
      "साह": 3756,
      "mudā": 3757,
      "mudrā": 3758,
      "द्धृ": 3759,
      "kulā": 3760,
      "hena": 3761,
      "varca": 3762,
      "केव": 3763,
      "yuktā": 3764,
      "---": 3765,
      "śaraṇaṃ": 3766,
      "tvo": 3767,
      "अने": 3768,
      "कान्": 3769,
      "गतम्": 3770,
      "धरा": 3771,
      "ऽन": 3772,
      "ṇy": 3773,
      "yai": 3774,
      "rasaṃ": 3775,
      "yāna": 3776,
      "vipu": 3777,
      "स्पर्": 3778,
      "śaya": 3779,
      "क्ल": 3780,
      "नात्र": 3781,
      "bha̍": 3782,
      "tu̱": 3783,
      "pāva": 3784,
      "ruci": 3785,
      "मुहु": 3786,
      "रुण": 3787,
      "द्वै": 3788,
      "vīta": 3789,
      "रणी": 3790,
      "jagad": 3791,
      "ṣeṇa": 3792,
      "वित्": 3793,
      "mūla": 3794,
      "antar": 3795,
      "ज्योति": 3796,
      "प्रभुः": 3797,
      "prabhuḥ": 3798,
      "amṛ": 3799,
      "nma": 3800,
      "खलु": 3801,
      "tavā": 3802,
      "ानी": 3803,
      "विपु": 3804,
      "nātra": 3805,
      "jape": 3806,
      "निज": 3807,
      "कारो": 3808,
      "स्य्": 3809,
      "पाव": 3810,
      "देशे": 3811,
      "मुञ्च": 3812,
      "यो̱": 3813,
      "सर्वसत्त्व": 3814,
      "त्वद्": 3815,
      "ndro": 3816,
      "पूर्वा": 3817,
      "न्य्": 3818,
      "karmaṇā": 3819,
      "sṛja": 3820,
      "̱तꣳ": 3821,
      "ऊर्ध्व": 3822,
      "द̱": 3823,
      "वश": 3824,
      "naga": 3825,
      "rād": 3826,
      "माण": 3827,
      "सु̍": 3828,
      "ṣṭho": 3829,
      "पाः": 3830,
      "dig": 3831,
      "दिव्या": 3832,
      "भास": 3833,
      "श्रव": 3834,
      "kuṇḍa": 3835,
      "स्थितो": 3836,
      "nopa": 3837,
      "श्वरम्": 3838,
      "नीं": 3839,
      "प्ति": 3840,
      "jñātvā": 3841,
      "ṇḍe": 3842,
      "sthito": 3843,
      "paśyati": 3844,
      "ज्ञात्वा": 3845,
      "व्रत": 3846,
      "कर्मणा": 3847,
      "पश्यति": 3848,
      "स्थिति": 3849,
      "?)": 3850,
      "be": 3851,
      "jyā": 3852,
      "rthi": 3853,
      "धेन": 3854,
      "ṅge": 3855,
      "yaccha": 3856,
      "paśu": 3857,
      "विष्ट": 3858,
      "teḥ": 3859,
      "gaga": 3860,
      "dhan": 3861,
      "kāro": 3862,
      "त्तर": 3863,
      "saro": 3864,
      "परमं": 3865,
      "नेत्र": 3866,
      "द्वेष": 3867,
      "varṇā": 3868,
      "prāpta": 3869,
      "वर्च": 3870,
      "वर्ति": 3871,
      "paramaṃ": 3872,
      "शोध": 3873,
      "धर्मं": 3874,
      "dharmaṃ": 3875,
      "मण्डल": 3876,
      "karuṇā": 3877,
      "vakṣyāmi": 3878,
      "pṛthak": 3879,
      "गग": 3880,
      "दक्ष": 3881,
      "धं": 3882,
      "न̍": 3883,
      "शक्र": 3884,
      "सन्त": 3885,
      "ऽस्ति": 3886,
      "ोः": 3887,
      "ras": 3888,
      "hito": 3889,
      "विक्र": 3890,
      "विवर्ज": 3891,
      "mādi": 3892,
      "yopa": 3893,
      "रुचि": 3894,
      "दुष्": 3895,
      "दुर्ग": 3896,
      "khalu": 3897,
      "so̍": 3898,
      "रूढ": 3899,
      "goca": 3900,
      "राजन्": 3901,
      "pratiṣṭhā": 3902,
      "वो̍": 3903,
      "lakṣaṇa": 3904,
      "ai": 3905,
      "dyaṃ": 3906,
      "ete": 3907,
      "rca": 3908,
      "अनि": 3909,
      "अमृ": 3910,
      "घट": 3911,
      "चल": 3912,
      "नान्य": 3913,
      "पशु": 3914,
      "हितं": 3915,
      "र्णा": 3916,
      "ित्वा": 3917,
      "विभूष": 3918,
      "bhayaṃ": 3919,
      "नि̱": 3920,
      "yo̍": 3921,
      "द्रि": 3922,
      "kṣaṇa": 3923,
      "स्वे": 3924,
      "भवद्": 3925,
      "देवीं": 3926,
      "मृत्यु": 3927,
      "śrava": 3928,
      "य̱ज्ञ": 3929,
      "devīṃ": 3930,
      "krodha": 3931,
      "jyoti": 3932,
      "वक्ष्यामि": 3933,
      "ā̍": 3934,
      "ज्ये": 3935,
      "शौ": 3936,
      "hasi": 3937,
      "sadṛ": 3938,
      "hiṃ": 3939,
      "dakṣa": 3940,
      "prasan": 3941,
      "cintā": 3942,
      "ṣṭaḥ": 3943,
      "puruṣā": 3944,
      "dattvā": 3945,
      "अस्मा": 3946,
      "इद्": 3947,
      "चक्ष": 3948,
      "नग": 3949,
      "पत्य": 3950,
      "यै": 3951,
      "ṣṇā": 3952,
      "vina": 3953,
      "kanyā": 3954,
      "प्रश": 3955,
      "ye̱": 3956,
      "dā̱": 3957,
      "ये̍": 3958,
      "कृतः": 3959,
      "kṛtaḥ": 3960,
      "bali": 3961,
      "पूज्य": 3962,
      "bhavaḥ": 3963,
      "स्यापि": 3964,
      "śobhi": 3965,
      "अ̱ग्नि": 3966,
      "vande": 3967,
      "tṛp": 3968,
      "dhyāna": 3969,
      "पीड": 3970,
      "युक्ता": 3971,
      "दत्त्वा": 3972,
      "श्राव": 3973,
      "त्रैलोक्य": 3974,
      "̱न्": 3975,
      "एते": 3976,
      "पञ्चा": 3977,
      "र̍": 3978,
      "वरे": 3979,
      "वशा": 3980,
      "yatāṃ": 3981,
      "rathā": 3982,
      "palā": 3983,
      "dhyate": 3984,
      "yeṇa": 3985,
      "सुन्द": 3986,
      "साद": 3987,
      "रेव": 3988,
      "तीं": 3989,
      "tattvaṃ": 3990,
      "viṣṇo": 3991,
      "khyātaṃ": 3992,
      "jet": 3993,
      "ख्यातं": 3994,
      "वन्दे": 3995,
      "bīja": 3996,
      "अश्वि": 3997,
      "adha": 3998,
      "nto": 3999,
      "āp": 4000,
      "अशेष": 4001,
      "आदि": 4002,
      "मङ्ग": 4003,
      "taṁ": 4004,
      "viprā": 4005,
      "स्त्य": 4006,
      "su̍": 4007,
      "sunda": 4008,
      "ve̱": 4009,
      "चोद": 4010,
      "gandharva": 4011,
      "करुणा": 4012,
      "अत": 4013,
      "प्या": 4014,
      "यस्मा": 4015,
      "षम्": 4016,
      "vikal": 4017,
      "ष्म": 4018,
      "kṛpā": 4019,
      "jñi": 4020,
      "रोच": 4021,
      "घोर": 4022,
      "जेत्": 4023,
      "iśvar": 4024,
      "puṇyaṃ": 4025,
      "पुण्यं": 4026,
      "̍द्": 4027,
      "गण्ड": 4028,
      "गङ्गा": 4029,
      "यानि": 4030,
      "tenā": 4031,
      "संज्ञ": 4032,
      "reva": 4033,
      "muñca": 4034,
      "roca": 4035,
      "भार्या": 4036,
      "stho": 4037,
      "महाबल": 4038,
      "ङ्गि": 4039,
      "khye": 4040,
      "गोच": 4041,
      "ṇīṃ": 4042,
      "śūnya": 4043,
      "खिल": 4044,
      "कस्": 4045,
      "कन्या": 4046,
      "खण्ड": 4047,
      "यव": 4048,
      "यतो": 4049,
      "हत": 4050,
      "ऽव": 4051,
      "yogena": 4052,
      "ru̱": 4053,
      "पिण्ड": 4054,
      "kule": 4055,
      "स्थो": 4056,
      "ैवं": 4057,
      "mantrā": 4058,
      "paści": 4059,
      "योगेन": 4060,
      "चिन्ता": 4061,
      "ananta": 4062,
      "dīrgha": 4063,
      "avya": 4064,
      "asmā": 4065,
      "̍न्": 4066,
      "ख्ये": 4067,
      "गम्य": 4068,
      "vācā": 4069,
      "niśā": 4070,
      "नाद्": 4071,
      "ri̱": 4072,
      "कुले": 4073,
      "lāṃ": 4074,
      "hema": 4075,
      "nīla": 4076,
      "kila": 4077,
      "ttara": 4078,
      "sena": 4079,
      "सिद्धा": 4080,
      "शङ्ख": 4081,
      "apra": 4082,
      "dga": 4083,
      "jyate": 4084,
      "ntī": 4085,
      "दधि": 4086,
      "यक्ष": 4087,
      "सक": 4088,
      "vasā": 4089,
      "ितैः": 4090,
      "संभव": 4091,
      "मुदा": 4092,
      "ष्टे": 4093,
      "मेघ": 4094,
      "बुद्धा": 4095,
      "जगद्": 4096,
      "विषय": 4097,
      "sahasrāṇi": 4098,
      "लभते": 4099,
      "labhate": 4100,
      "caret": 4101,
      "सहस्राणि": 4102,
      "babhūva": 4103,
      "atho": 4104,
      "ār": 4105,
      "नस्य": 4106,
      "पम्": 4107,
      "yada": 4108,
      "tadu": 4109,
      "tale": 4110,
      "paya": 4111,
      "kana": 4112,
      "kathā": 4113,
      "ter": 4114,
      "śa̱": 4115,
      "bhi̍ḥ": 4116,
      "ro̱": 4117,
      "भि̍ः": 4118,
      "धाव": 4119,
      "ṇḍu": 4120,
      "bhuvana": 4121,
      "tmanaḥ": 4122,
      "grahā": 4123,
      "phalam": 4124,
      "prakāśa": 4125,
      "चरेत्": 4126,
      "asti": 4127,
      "sthaṃ": 4128,
      "śrāva": 4129,
      "अज": 4130,
      "अस्या": 4131,
      "ण्य्": 4132,
      "वस्त्र": 4133,
      "ṅku": 4134,
      "kāryā": 4135,
      "कार्": 4136,
      "पादा": 4137,
      "sāda": 4138,
      "ditaḥ": 4139,
      "putro": 4140,
      "कृपा": 4141,
      "कुमा": 4142,
      "स्थे": 4143,
      "रि̍": 4144,
      "vīr": 4145,
      "र्थम्": 4146,
      "प्रार्थ": 4147,
      "gān": 4148,
      "लोकनाथ": 4149,
      "gṛhe": 4150,
      "दृष्टि": 4151,
      "sanni": 4152,
      "duḥkhā": 4153,
      "वृत्ति": 4154,
      "de̱va": 4155,
      "पृथक्": 4156,
      "अप्र": 4157,
      "कथा": 4158,
      "चान": 4159,
      "पन्न": 4160,
      "यश": 4161,
      "yatha": 4162,
      "yataḥ": 4163,
      "nataḥ": 4164,
      "sanā": 4165,
      "pam": 4166,
      "vibhā": 4167,
      "vijñe": 4168,
      "माल": 4169,
      "śau": 4170,
      "काञ्च": 4171,
      "साद्य": 4172,
      "dhāri": 4173,
      "kurva": 4174,
      "lok": 4175,
      "tīti": 4176,
      "रोह": 4177,
      "mahābala": 4178,
      "kiñ": 4179,
      "नील": 4180,
      "किञ्": 4181,
      "पृच्छ": 4182,
      "hṛdi": 4183,
      "हृदि": 4184,
      "चेत्": 4185,
      "पुरुषा": 4186,
      "चक्रे": 4187,
      "cintya": 4188,
      "syo": 4189,
      "अभू": 4190,
      "इच्छ": 4191,
      "करः": 4192,
      "जने": 4193,
      "तदु": 4194,
      "भेष": 4195,
      "्यः": 4196,
      "tāta": 4197,
      "विज्ञे": 4198,
      "कार्या": 4199,
      "mitrā": 4200,
      "दारु": 4201,
      "द्रष्ट": 4202,
      "सर्वेषां": 4203,
      "व्यम्": 4204,
      "शिर": 4205,
      "हाय": 4206,
      "paras": 4207,
      "sarveṣāṃ": 4208,
      "svāhā": 4209,
      "र्धं": 4210,
      "दे̱वा": 4211,
      "श्चापि": 4212,
      "सन्नि": 4213,
      "̱taṁ": 4214,
      "शत्रु": 4215,
      "jye": 4216,
      "̍ya": 4217,
      "तान": 4218,
      "पान": 4219,
      "मद्": 4220,
      "ह्या": 4221,
      "ेः": 4222,
      "varam": 4223,
      "harṣa": 4224,
      "sati": 4225,
      "viśu": 4226,
      "tāv": 4227,
      "māno": 4228,
      "काम्": 4229,
      "भावो": 4230,
      "cār": 4231,
      "मनी": 4232,
      "jita": 4233,
      "भुज": 4234,
      "हेम": 4235,
      "दशबल": 4236,
      "bhaved": 4237,
      "̍d": 4238,
      "इत्य": 4239,
      "दध": 4240,
      "दन्त": 4241,
      "दया": 4242,
      "शक्य": 4243,
      "ोत्": 4244,
      "hata": 4245,
      "payet": 4246,
      "vihā": 4247,
      "nija": 4248,
      "तात": 4249,
      "bhiś": 4250,
      "ṇād": 4251,
      "bhāvo": 4252,
      "bhāṣi": 4253,
      "kṣamā": 4254,
      "दुष्ट": 4255,
      "श्वरं": 4256,
      "śvaraṃ": 4257,
      "vyāgh": 4258,
      "क्षिप्र": 4259,
      "daśabala": 4260,
      "वित्र": 4261,
      "cchāmi": 4262,
      "gacchati": 4263,
      "uktvā": 4264,
      "mbho": 4265,
      "̍स्य": 4266,
      "जपे": 4267,
      "तवा": 4268,
      "मना": 4269,
      "यतां": 4270,
      "ैर्य": 4271,
      "ṣma": 4272,
      "vanaṃ": 4273,
      "र्क": 4274,
      "maya": 4275,
      "saṁ": 4276,
      "pavi": 4277,
      "vida": 4278,
      "tārā": 4279,
      "sār": 4280,
      "र्वी": 4281,
      "saṃsthā": 4282,
      "dita": 4283,
      "द्धर्म": 4284,
      "neṣu": 4285,
      "दानं": 4286,
      "dharme": 4287,
      "धर्मे": 4288,
      "गच्छति": 4289,
      "स्फुट": 4290,
      "cakre": 4291,
      "agra": 4292,
      "sye": 4293,
      "tyo": 4294,
      "̱ha": 4295,
      "ज̱": 4296,
      "थो": 4297,
      "पला": 4298,
      "पयेत्": 4299,
      "म्या": 4300,
      "सꣳ": 4301,
      "ह्ये": 4302,
      "ऽप्य": 4303,
      "taraṃ": 4304,
      "maṅga": 4305,
      "nane": 4306,
      "vāg": 4307,
      "dayā": 4308,
      "bhyu": 4309,
      "निशा": 4310,
      "संवि": 4311,
      "संज्ञा": 4312,
      "पुरं": 4313,
      "puraṃ": 4314,
      "ntar": 4315,
      "स्थः": 4316,
      "महात्मनः": 4317,
      "śubhe": 4318,
      "शील": 4319,
      "मुखं": 4320,
      "पुत्रो": 4321,
      "गर्भ": 4322,
      "mukhaṃ": 4323,
      "mahātmanaḥ": 4324,
      "वरम्": 4325,
      "म्भो": 4326,
      "vibhu": 4327,
      "विल": 4328,
      "स्प": 4329,
      "sādya": 4330,
      "bhāve": 4331,
      "ग्रहा": 4332,
      "बाध": 4333,
      "सृष्टि": 4334,
      "caraṇa": 4335,
      "अन्तर्": 4336,
      "मूर्ति": 4337,
      "kaṇṭ": 4338,
      "jagāma": 4339,
      "जगाम": 4340,
      "ccā": 4341,
      "ntaḥ": 4342,
      "̍र": 4343,
      "उक्त्वा": 4344,
      "चत्वा": 4345,
      "णस्य": 4346,
      "भयं": 4347,
      "भरण": 4348,
      "मतः": 4349,
      "ṛṣi": 4350,
      "catvā": 4351,
      "vivarji": 4352,
      "विभु": 4353,
      "विस्म": 4354,
      "thaḥ": 4355,
      "bhāvaṃ": 4356,
      "देवता": 4357,
      "dṛṣṭā": 4358,
      "ण्डु": 4359,
      "vrata": 4360,
      "kvacit": 4361,
      "pannaṃ": 4362,
      "garbha": 4363,
      "पन्नं": 4364,
      "bṛhas": 4365,
      "yāmāsa": 4366,
      "मुनीन्द्र": 4367,
      "aṃ": 4368,
      "asyā": 4369,
      "aṅga": 4370,
      "eṣā": 4371,
      "hūr": 4372,
      "iccha": 4373,
      "चरा": 4374,
      "तमो": 4375,
      "तरं": 4376,
      "सना": 4377,
      "vanta": 4378,
      "saddha": 4379,
      "ानने": 4380,
      "vima": 4381,
      "māru": 4382,
      "प्रवर्तते": 4383,
      "मारु": 4384,
      "prayat": 4385,
      "pravartate": 4386,
      "janaṃ": 4387,
      "divā": 4388,
      "युर्": 4389,
      "ेषा": 4390,
      "devatā": 4391,
      "सेत्": 4392,
      "सीद": 4393,
      "समुद्": 4394,
      "क्वचित्": 4395,
      "स्वाहा": 4396,
      "tvena": 4397,
      "वह्नि": 4398,
      "udā": 4399,
      "अस्ति": 4400,
      "पव": 4401,
      "यन्ते": 4402,
      "शꣳ": 4403,
      "val": 4404,
      "mataḥ": 4405,
      "rādha": 4406,
      "प्रयत्": 4407,
      "śaṁ": 4408,
      "वाचा": 4409,
      "rita": 4410,
      "साः": 4411,
      "दा̱": 4412,
      "दाः": 4413,
      "ष्टः": 4414,
      "रु̱": 4415,
      "yukta": 4416,
      "णाय": 4417,
      "सर्वभूत": 4418,
      "स्वर्": 4419,
      "ान्तर": 4420,
      "ग्रे": 4421,
      "śikha": 4422,
      "सहसा": 4423,
      "kṣipra": 4424,
      "ध्यते": 4425,
      "gṛhā": 4426,
      "कथम्": 4427,
      "sahasā": 4428,
      "सरस्व": 4429,
      "दक्षिणे": 4430,
      "dakṣiṇe": 4431,
      "katham": 4432,
      "śaṅkha": 4433,
      "बृहस्": 4434,
      "vahni": 4435,
      "cūr": 4436,
      "gna": 4437,
      "tti": 4438,
      "फला": 4439,
      "मयं": 4440,
      "शङ्क": 4441,
      "सति": 4442,
      "ेत्": 4443,
      "vala": 4444,
      "sas": 4445,
      "sahā": 4446,
      "yāda": 4447,
      "vila": 4448,
      "kare": 4449,
      "निश": 4450,
      "kālā": 4451,
      "यामास": 4452,
      "तु̱": 4453,
      "diva": 4454,
      "ṇāya": 4455,
      "tvaṁ": 4456,
      "त्वि": 4457,
      "nuyāt": 4458,
      "कुट": 4459,
      "स्थानं": 4460,
      "varṣā": 4461,
      "manda": 4462,
      "पेक्ष": 4463,
      "nyasya": 4464,
      "मुखा": 4465,
      "viśvā̍": 4466,
      "grāha": 4467,
      "sarasva": 4468,
      "bandhu": 4469,
      "क्रीड": 4470,
      "ch": 4471,
      "खड्": 4472,
      "vaya": 4473,
      "र्षि": 4474,
      "vāya": 4475,
      "carā": 4476,
      "hi̱": 4477,
      "hitam": 4478,
      "nive": 4479,
      "वाय": 4480,
      "तारा": 4481,
      "sāḥ": 4482,
      "पुट": 4483,
      "क्तम्": 4484,
      "ṇāni": 4485,
      "jā̱": 4486,
      "श्वर्य": 4487,
      "vṛtaḥ": 4488,
      "khaḍ": 4489,
      "सूत्र": 4490,
      "समुत्": 4491,
      "प्रिया": 4492,
      "kuryāt": 4493,
      "iṣa": 4494,
      "उद्य": 4495,
      "एषा": 4496,
      "नान्": 4497,
      "वन्द": 4498,
      "ऽस्य": 4499,
      "ṇyā": 4500,
      "taru": 4501,
      "्यु": 4502,
      "vati": 4503,
      "vanti": 4504,
      "विस्त": 4505,
      "विज्ञा": 4506,
      "daiva": 4507,
      "या̱": 4508,
      "dāt": 4509,
      "cida": 4510,
      "कृप": 4511,
      "त्वꣳ": 4512,
      "bhūt": 4513,
      "धारा": 4514,
      "मोच": 4515,
      "ेष्व्": 4516,
      "ṣṭam": 4517,
      "bhuja": 4518,
      "gran": 4519,
      "स्मान्": 4520,
      "sīda": 4521,
      "ज्यते": 4522,
      "दिति": 4523,
      "आहु": 4524,
      "ऋष": 4525,
      "पल": 4526,
      "वल्": 4527,
      "ऽहम्": 4528,
      "ेर्": 4529,
      "ṅgī": 4530,
      "santi": 4531,
      "cala": 4532,
      "rāṣṭ": 4533,
      "विचित्र": 4534,
      "daya": 4535,
      "niha": 4536,
      "भिश्": 4537,
      "ङ्कु": 4538,
      "स्थितं": 4539,
      "guro": 4540,
      "guṇo": 4541,
      "गुरो": 4542,
      "गुणो": 4543,
      "pari̍": 4544,
      "परि̍": 4545,
      "sthitaṃ": 4546,
      "śodha": 4547,
      "smai": 4548,
      "राक्षस": 4549,
      "ivo": 4550,
      "myaṃ": 4551,
      "rci": 4552,
      "̍na": 4553,
      "कश्चि": 4554,
      "नख": 4555,
      "पश्चि": 4556,
      "फलम्": 4557,
      "भक्ष": 4558,
      "मर": 4559,
      "ऽस्मिन्": 4560,
      "ेन्द्र": 4561,
      "vaś": 4562,
      "ित्र": 4563,
      "mātrā": 4564,
      "नामा": 4565,
      "तेना": 4566,
      "तुल्य": 4567,
      "परस्": 4568,
      "kṛpa": 4569,
      "धिष्ठ": 4570,
      "भूयो": 4571,
      "चिद": 4572,
      "bhuvi": 4573,
      "दीप": 4574,
      "गोप": 4575,
      "गृहे": 4576,
      "jagan": 4577,
      "svāmi": 4578,
      "śrīmān": 4579,
      "श्रीमान्": 4580,
      "प्नुयात्": 4581,
      "itya": 4582,
      "stam": 4583,
      "ṛṣa": 4584,
      "vaha": 4585,
      "vadā": 4586,
      "pava": 4587,
      "vāsu": 4588,
      "vikra": 4589,
      "viśuddha": 4590,
      "nimit": 4591,
      "dhat": 4592,
      "त्ते": 4593,
      "मिथ": 4594,
      "दि̍": 4595,
      "śār": 4596,
      "bhūyo": 4597,
      "द्वय": 4598,
      "vṛddhi": 4599,
      "ग्रन्": 4600,
      "देवस्य": 4601,
      "न्यो": 4602,
      "ṭaṃ": 4603,
      "कर्ता": 4604,
      "जगन्": 4605,
      "वित्त": 4606,
      "पुरुषो": 4607,
      "puruṣo": 4608,
      "vṛtti": 4609,
      "itye": 4610,
      "śreṣṭha": 4611,
      "प्रमाण": 4612,
      "sy": 4613,
      "vyaḥ": 4614,
      "ज्वा": 4615,
      "तले": 4616,
      "ददर्श": 4617,
      "रवि": 4618,
      "श̱": 4619,
      "सन्ति": 4620,
      "ह्वा": 4621,
      "ऽत्र": 4622,
      "ṭo": 4623,
      "rāmaṃ": 4624,
      "jarā": 4625,
      "di̍": 4626,
      "कृतो": 4627,
      "कुम्भ": 4628,
      "devasya": 4629,
      "yathe": 4630,
      "kartā": 4631,
      "क्षिप्त": 4632,
      "gṛha": 4633,
      "tmānaṃ": 4634,
      "अथो": 4635,
      "चिन्त्य": 4636,
      "gambhī": 4637,
      "गम्भी": 4638,
      "artha": 4639,
      "anena": 4640,
      "tvi": 4641,
      "अनेन": 4642,
      "उत": 4643,
      "यद": 4644,
      "वस्य": 4645,
      "सदृ": 4646,
      "vām": 4647,
      "vividhā": 4648,
      "rāṇāṃ": 4649,
      "विप्रा": 4650,
      "dadarśa": 4651,
      "mād": 4652,
      "lau": 4653,
      "ṇaiḥ": 4654,
      "सुत": 4655,
      "सुहृ": 4656,
      "suhṛ": 4657,
      "rudrā": 4658,
      "मुद्रा": 4659,
      "द्रो": 4660,
      "द्रव्य": 4661,
      "kṛto": 4662,
      "sin": 4663,
      "kumā": 4664,
      "जाल": 4665,
      "nīya": 4666,
      "गुह्य": 4667,
      "न्यं": 4668,
      "moca": 4669,
      "भुवि": 4670,
      "शोक": 4671,
      "प्रतिष्ठा": 4672,
      "vidyu": 4673,
      "ghna": 4674,
      "priyā": 4675,
      "lakṣaṇam": 4676,
      "tiṣṭhati": 4677,
      "sthaḥ": 4678,
      "विद्यु": 4679,
      "रूपाय": 4680,
      "स्फुर": 4681,
      "samyak": 4682,
      "asau": 4683,
      "असौ": 4684,
      "आ̍": 4685,
      "करे": 4686,
      "णौ": 4687,
      "धाना": 4688,
      "नभ": 4689,
      "vita": 4690,
      "tāvat": 4691,
      "मात्रा": 4692,
      "रामं": 4693,
      "dharo": 4694,
      "याद": 4695,
      "dāḥ": 4696,
      "bhāsa": 4697,
      "कुला": 4698,
      "द्यौ": 4699,
      "ūrdhva": 4700,
      "vṛ̍": 4701,
      "ञ्छ": 4702,
      "देवः": 4703,
      "devaḥ": 4704,
      "मित्रा": 4705,
      "sū̱": 4706,
      "स्वामि": 4707,
      "padyate": 4708,
      "maṇḍala": 4709,
      "trailokya": 4710,
      "पद्यते": 4711,
      "समन्ततः": 4712,
      "samantataḥ": 4713,
      "adh": 4714,
      "abhya": 4715,
      "ityā": 4716,
      "कमल": 4717,
      "खल": 4718,
      "तꣳ": 4719,
      "लौ": 4720,
      "ऽति": 4721,
      "rapi": 4722,
      "nanu": 4723,
      "vividha": 4724,
      "mātṛ": 4725,
      "śa̍": 4726,
      "वासु": 4727,
      "राद्": 4728,
      "pān": 4729,
      "रुद्ध": 4730,
      "jātā": 4731,
      "guṇaṃ": 4732,
      "शु̱": 4733,
      "शिरो": 4734,
      "शिष्य": 4735,
      "वृ̍": 4736,
      "पू̱": 4737,
      "गुणं": 4738,
      "tmanā": 4739,
      "śoka": 4740,
      "karṇa": 4741,
      "devāḥ": 4742,
      "देवाः": 4743,
      "विश्वा̍": 4744,
      "labdha": 4745,
      "कुर्यात्": 4746,
      "dbhava": 4747,
      "gre": 4748,
      "hyam": 4749,
      "ntam": 4750,
      "ū̱": 4751,
      "थे": 4752,
      "मयो": 4753,
      "rasi": 4754,
      "mayaṃ": 4755,
      "saka": 4756,
      "vibhūṣi": 4757,
      "विम": 4758,
      "मालि": 4759,
      "मातृ": 4760,
      "gaṇā": 4761,
      "jaṭā": 4762,
      "yogī": 4763,
      "सुग": 4764,
      "संवर": 4765,
      "kṛti": 4766,
      "द्यः": 4767,
      "वृद्धि": 4768,
      "नीय": 4769,
      "स्यां": 4770,
      "koṭ": 4771,
      "yantī": 4772,
      "सू̱": 4773,
      "दीप्त": 4774,
      "सर्ग": 4775,
      "śīr": 4776,
      "upa̍": 4777,
      "yukto": 4778,
      "dvand": 4779,
      "मुक्ता": 4780,
      "mārge": 4781,
      "वि̱श्व": 4782,
      "विनाश": 4783,
      "ato": 4784,
      "ndā": 4785,
      "tthā": 4786,
      "vu": 4787,
      "̍ना": 4788,
      "̱व": 4789,
      "अतो": 4790,
      "इत्या": 4791,
      "ग्य": 4792,
      "घन": 4793,
      "जाना": 4794,
      "भ̱": 4795,
      "ṇyaṃ": 4796,
      "र्ह": 4797,
      "nabha": 4798,
      "yāvat": 4799,
      "hima": 4800,
      "yen": 4801,
      "traya": 4802,
      "pit": 4803,
      "कृति": 4804,
      "जाता": 4805,
      "हिम": 4806,
      "ान्तरे": 4807,
      "śu̱": 4808,
      "ṇīm": 4809,
      "śīgh": 4810,
      "भवेद्": 4811,
      "भ्रम": 4812,
      "bodhisattvā": 4813,
      "dṛṣṭi": 4814,
      "मर्त्य": 4815,
      "तत्त्वं": 4816,
      "kho": 4817,
      "rda": 4818,
      "̱s": 4819,
      "̱ते": 4820,
      "दद": 4821,
      "नानि": 4822,
      "ष्ये": 4823,
      "ṅgo": 4824,
      "yatā": 4825,
      "saṅga": 4826,
      "śar": 4827,
      "ripu": 4828,
      "kānta": 4829,
      "त्तमः": 4830,
      "क्ते": 4831,
      "कृणु": 4832,
      "kṛṇu": 4833,
      "वे̱": 4834,
      "bar": 4835,
      "śāḥ": 4836,
      "śāstra": 4837,
      "tīkṣ": 4838,
      "हिरण्य": 4839,
      "श्वरी": 4840,
      "रिणी": 4841,
      "vī̱": 4842,
      "वर्णा": 4843,
      "शाः": 4844,
      "śikhā": 4845,
      "ेष्व": 4846,
      "śvarī": 4847,
      "न्ये": 4848,
      "yaty": 4849,
      "विश्वे": 4850,
      "उप̍": 4851,
      "चतुर": 4852,
      "दक्षिण": 4853,
      "janāḥ": 4854,
      "जनाः": 4855,
      "स्कन्ध": 4856,
      "सम्यक्": 4857,
      "ap": 4858,
      "imaṃ": 4859,
      "ktam": 4860,
      "ng": 4861,
      "̱t": 4862,
      "अध्व": 4863,
      "धरो": 4864,
      "लय": 4865,
      "सलि": 4866,
      "yakṣa": 4867,
      "sali": 4868,
      "vinda": 4869,
      "rāgā": 4870,
      "tād": 4871,
      "mānaḥ": 4872,
      "प्रह": 4873,
      "प्रका": 4874,
      "kāñca": 4875,
      "शिरसा": 4876,
      "śirasā": 4877,
      "नोप": 4878,
      "समस्त": 4879,
      "मन्त्रा": 4880,
      "योगी": 4881,
      "mahar": 4882,
      "dharmo": 4883,
      "त्थं": 4884,
      "nyo": 4885,
      "कश्च": 4886,
      "डि": 4887,
      "वसि": 4888,
      "māli": 4889,
      "तिल": 4890,
      "क्षमा": 4891,
      "dānaṃ": 4892,
      "veṇa": 4893,
      "saṃvara": 4894,
      "णाद्": 4895,
      "śām": 4896,
      "viśve": 4897,
      "लक्षणम्": 4898,
      "ghora": 4899,
      "hiraṇya": 4900,
      "stva": 4901,
      "̱मा": 4902,
      "अं": 4903,
      "अमु": 4904,
      "ज्या": 4905,
      "रपि": 4906,
      "रक्षा": 4907,
      "raṇe": 4908,
      "र्ति": 4909,
      "nakṣa": 4910,
      "vāñ": 4911,
      "kali": 4912,
      "tādṛ": 4913,
      "मामि": 4914,
      "मादि": 4915,
      "janam": 4916,
      "diti": 4917,
      "द्वन्": 4918,
      "वर्षा": 4919,
      "शुभे": 4920,
      "śilā": 4921,
      "सूर्या": 4922,
      "गृहा": 4923,
      "भावं": 4924,
      "doṣā": 4925,
      "mukhe": 4926,
      "तिष्ठति": 4927,
      "mūrti": 4928,
      "शरीर": 4929,
      "श्राद्ध": 4930,
      "nvi": 4931,
      "sve": 4932,
      "uta": 4933,
      "इमं": 4934,
      "क्वा": 4935,
      "चकार": 4936,
      "तश्": 4937,
      "बहू": 4938,
      "मꣳ": 4939,
      "रथा": 4940,
      "manā": 4941,
      "tāya": 4942,
      "विज्ञान": 4943,
      "dayaḥ": 4944,
      "नाति": 4945,
      "dhanaṃ": 4946,
      "निषे": 4947,
      "तास्": 4948,
      "kāṅ": 4949,
      "kālo": 4950,
      "कालो": 4951,
      "स्तथ": 4952,
      "pāśa": 4953,
      "sādh": 4954,
      "devyā": 4955,
      "divyaṃ": 4956,
      "पुरे": 4957,
      "ान्न": 4958,
      "bhāryā": 4959,
      "दिव्यं": 4960,
      "वेष्ट": 4961,
      "bahū": 4962,
      "स्व्": 4963,
      "jñānā": 4964,
      "सेव": 4965,
      "grahaḥ": 4966,
      "म̱रु": 4967,
      "viṣaya": 4968,
      "शृङ्ग": 4969,
      "bhrama": 4970,
      "ट्ट": 4971,
      "नित्यम्": 4972,
      "पतेः": 4973,
      "pateḥ": 4974,
      "nityam": 4975,
      "śarīra": 4976,
      "स्थाने": 4977,
      "rājyaṃ": 4978,
      "मूर्ध्": 4979,
      "amu": 4980,
      "uṣa": 4981,
      "̱तो": 4982,
      "गज": 4983,
      "जटा": 4984,
      "दयः": 4985,
      "सखा": 4986,
      "maṁ": 4987,
      "sakhā": 4988,
      "cakāra": 4989,
      "kava": 4990,
      "राणि": 4991,
      "काङ्": 4992,
      "मुद": 4993,
      "dhārā": 4994,
      "दिने": 4995,
      "śāṃ": 4996,
      "रोध": 4997,
      "श्वरो": 4998,
      "रिपु": 4999,
      "मन्ये": 5000,
      "śiṣ": 5001,
      "śvaro": 5002,
      "vairā": 5003,
      "triṃśa": 5004,
      "धर्मो": 5005,
      "प्यते": 5006,
      "parāya": 5007,
      "पराय": 5008,
      "वरानने": 5009,
      "puṣpā": 5010,
      "vidhinā": 5011,
      "varānane": 5012,
      "daitya": 5013,
      "प्रसाद": 5014,
      "yasmin": 5015,
      "̱या": 5016,
      "जरा": 5017,
      "तरु": 5018,
      "नक्ष": 5019,
      "सद्धर्म": 5020,
      "yaja": 5021,
      "yanta": 5022,
      "naraḥ": 5023,
      "rāmo": 5024,
      "rāje": 5025,
      "gami": 5026,
      "नात्म": 5027,
      "yeti": 5028,
      "pure": 5029,
      "दात्": 5030,
      "bhūr": 5031,
      "रो̍": 5032,
      "श्वि": 5033,
      "durā": 5034,
      "prāṇā": 5035,
      "शिला": 5036,
      "वृतः": 5037,
      "śiro": 5038,
      "a̱gni": 5039,
      "lokanātha": 5040,
      "विधान": 5041,
      "ग्रहः": 5042,
      "rūpāya": 5043,
      "sphuṭa": 5044,
      "aha": 5045,
      "mnā": 5046,
      "spa": 5047,
      "staṃ": 5048,
      "अत्य": 5049,
      "एत": 5050,
      "जप": 5051,
      "नरः": 5052,
      "सस्": 5053,
      "ṭu": 5054,
      "sapat": 5055,
      "māmi": 5056,
      "sāt": 5057,
      "dhāḥ": 5058,
      "सर्वथा": 5059,
      "त्वेन": 5060,
      "sarvathā": 5061,
      "sarvabhū": 5062,
      "stṛ": 5063,
      "स्थू": 5064,
      "mahāte": 5065,
      "माने": 5066,
      "litā": 5067,
      "न्ति̱": 5068,
      "bādha": 5069,
      "ब्ज": 5070,
      "जगति": 5071,
      "jagati": 5072,
      "इन्द्र̱": 5073,
      "मुखे": 5074,
      "स्थाप": 5075,
      "dvaya": 5076,
      "dvādaśa": 5077,
      "पुष्पा": 5078,
      "च्छामि": 5079,
      "इ̍न्द्र": 5080,
      "lyaṃ": 5081,
      "īśa": 5082,
      "चं": 5083,
      "तल": 5084,
      "धनं": 5085,
      "पङ्क": 5086,
      "भस्म": 5087,
      "वनम्": 5088,
      "शान": 5089,
      "सपत्": 5090,
      "हवि": 5091,
      "हस्ता": 5092,
      "tata": 5093,
      "mayo": 5094,
      "vārā": 5095,
      "cakṣa": 5096,
      "vir": 5097,
      "vilā": 5098,
      "visma": 5099,
      "karam": 5100,
      "न्दि": 5101,
      "garu": 5102,
      "वारा": 5103,
      "त्रय": 5104,
      "deśi": 5105,
      "dine": 5106,
      "भिर": 5107,
      "येषु": 5108,
      "dhānaṃ": 5109,
      "ntaraṃ": 5110,
      "sthū": 5111,
      "शाय": 5112,
      "शार्": 5113,
      "शिवः": 5114,
      "न्द्रो": 5115,
      "वीरा": 5116,
      "न्दो": 5117,
      "kalpi": 5118,
      "स्रो": 5119,
      "rathe": 5120,
      "kiṃcid": 5121,
      "बलेन": 5122,
      "indra̱": 5123,
      "śivaḥ": 5124,
      "gandhar": 5125,
      "विधिना": 5126,
      "पितामह": 5127,
      "आत्मानं": 5128,
      "ātmānaṃ": 5129,
      "rka": 5130,
      "āśra": 5131,
      "इत्यु": 5132,
      "तरा": 5133,
      "दह": 5134,
      "न̍ः": 5135,
      "rase": 5136,
      "na̍ḥ": 5137,
      "vive": 5138,
      "ितान्": 5139,
      "रामो": 5140,
      "स्तत्र": 5141,
      "sākṣā": 5142,
      "de̍": 5143,
      "pi̱": 5144,
      "balena": 5145,
      "जाति": 5146,
      "guhya": 5147,
      "ष्ठं": 5148,
      "राज्यं": 5149,
      "pena": 5150,
      "कम्प": 5151,
      "vrataṃ": 5152,
      "किंचिद्": 5153,
      "karaṇa": 5154,
      "samudra": 5155,
      "mahad": 5156,
      "भीष": 5157,
      "bhīṣa": 5158,
      "स̱ह": 5159,
      "indri": 5160,
      "muktā": 5161,
      "mukto": 5162,
      "मुक्तो": 5163,
      "यन्ती": 5164,
      "अर्ह": 5165,
      "yaset": 5166,
      "i̍ndra": 5167,
      "saddharma": 5168,
      "̱रा": 5169,
      "गरु": 5170,
      "ऽभू": 5171,
      "ya̍ḥ": 5172,
      "matā": 5173,
      "caṃ": 5174,
      "vibho": 5175,
      "vista": 5176,
      "kamala": 5177,
      "ितु": 5178,
      "ितौ": 5179,
      "विशि": 5180,
      "gatiḥ": 5181,
      "piba": 5182,
      "citrā": 5183,
      "tvād": 5184,
      "वेग": 5185,
      "ान्तः": 5186,
      "tathāpi": 5187,
      "śeṣā": 5188,
      "dravya": 5189,
      "प्लु": 5190,
      "nāmnā": 5191,
      "śīla": 5192,
      "नाम्ना": 5193,
      "----": 5194,
      "prīti": 5195,
      "varu̍": 5196,
      "stvaṃ": 5197,
      "yyā": 5198,
      "̱nā": 5199,
      "ननु": 5200,
      "vanam": 5201,
      "yātu": 5202,
      "viśi": 5203,
      "विभो": 5204,
      "daś": 5205,
      "प्रया": 5206,
      "प्रवर्त": 5207,
      "nānāṃ": 5208,
      "माहा": 5209,
      "gadā": 5210,
      "bhavo": 5211,
      "ताम": 5212,
      "bhāge": 5213,
      "bhāvena": 5214,
      "मि̱": 5215,
      "मि̱त्र": 5216,
      "भाति": 5217,
      "megha": 5218,
      "jām": 5219,
      "jāti": 5220,
      "स्वं": 5221,
      "svaṃ": 5222,
      "क्रू": 5223,
      "धिप": 5224,
      "द्वान्": 5225,
      "महाते": 5226,
      "khaṇḍa": 5227,
      "तथापि": 5228,
      "pūrvā": 5229,
      "व्रतं": 5230,
      "anu̍": 5231,
      "अनु̍": 5232,
      "दुःखा": 5233,
      "khila": 5234,
      "प्रीति": 5235,
      "svarga": 5236,
      "ccheda": 5237,
      "भावेन": 5238,
      "ava̍": 5239,
      "anyā": 5240,
      "aśeṣa": 5241,
      "avāp": 5242,
      "tsā": 5243,
      "अस्त": 5244,
      "अव̍": 5245,
      "उदा": 5246,
      "गतिः": 5247,
      "वदा": 5248,
      "व्रा": 5249,
      "हय": 5250,
      "हर्": 5251,
      "वाम्": 5252,
      "रात्रि": 5253,
      "ritā": 5254,
      "तावत्": 5255,
      "kānāṃ": 5256,
      "यावत्": 5257,
      "पां": 5258,
      "diśa": 5259,
      "ditam": 5260,
      "rodha": 5261,
      "ष्टौ": 5262,
      "दिभिः": 5263,
      "śāli": 5264,
      "प्राणि": 5265,
      "शालि": 5266,
      "ष्ठे": 5267,
      "बुध": 5268,
      "लेप": 5269,
      "समाश्र": 5270,
      "pṛccha": 5271,
      "व्याघ्र": 5272,
      "ghana": 5273,
      "sthāna": 5274,
      "dhunā": 5275,
      "ya̱jña": 5276,
      "indra̍": 5277,
      "vi̱śva": 5278,
      "भागे": 5279,
      "पृथिव्या": 5280,
      "रौद्र": 5281,
      "buddho": 5282,
      "krū": 5283,
      "stya": 5284,
      "अस्मि": 5285,
      "उग्र": 5286,
      "कश्": 5287,
      "भङ्ग": 5288,
      "yair": 5289,
      "masi": 5290,
      "sasya": 5291,
      "sabhā": 5292,
      "vidhe": 5293,
      "rātri": 5294,
      "स्ने": 5295,
      "gatiṃ": 5296,
      "न्त्य": 5297,
      "pātu": 5298,
      "पातु": 5299,
      "संघ": 5300,
      "re̱": 5301,
      "महद्": 5302,
      "योजन": 5303,
      "dhipa": 5304,
      "śāya": 5305,
      "tīrtha": 5306,
      "duṣṭa": 5307,
      "prāṇi": 5308,
      "nti̱": 5309,
      "प्तो": 5310,
      "tmani": 5311,
      "hasta": 5312,
      "dīpa": 5313,
      "sthāne": 5314,
      "बिभ्र": 5315,
      "दुःखं": 5316,
      "duḥkhaṃ": 5317,
      "snātvā": 5318,
      "ata": 5319,
      "avā": 5320,
      "asaṃ": 5321,
      "kte": 5322,
      "myā": 5323,
      "̍य̱": 5324,
      "जन्": 5325,
      "नतः": 5326,
      "मता": 5327,
      "यस्मिन्": 5328,
      "ल्या": 5329,
      "सरो": 5330,
      "ुप": 5331,
      "ेव": 5332,
      "ṛte": 5333,
      "tila": 5334,
      "विला": 5335,
      "त्सु": 5336,
      "śasya": 5337,
      "dhye": 5338,
      "pāpaṃ": 5339,
      "ropa": 5340,
      "यो̍": 5341,
      "kṣaṇam": 5342,
      "lān": 5343,
      "क्रमेण": 5344,
      "ttamāḥ": 5345,
      "krameṇa": 5346,
      "gopa": 5347,
      "बाण": 5348,
      "kāraṇa": 5349,
      "duḥkhi": 5350,
      "पश्यन्": 5351,
      "दूष": 5352,
      "guruḥ": 5353,
      "गुरुः": 5354,
      "पापं": 5355,
      "धृक्": 5356,
      "puṇyā": 5357,
      "kaṇṭha": 5358,
      "kurvan": 5359,
      "स्नात्वा": 5360,
      "yojayet": 5361,
      "ayam": 5362,
      "krān": 5363,
      "pto": 5364,
      "yy": 5365,
      "̍nā": 5366,
      "अग्": 5367,
      "अयम्": 5368,
      "कानां": 5369,
      "छ्र": 5370,
      "नरे": 5371,
      "मत": 5372,
      "यमा": 5373,
      "यतः": 5374,
      "शक": 5375,
      "सव": 5376,
      "र्मि": 5377,
      "yāvad": 5378,
      "nāthaṃ": 5379,
      "kāru": 5380,
      "साक्षा": 5381,
      "piśā": 5382,
      "bhi̱ḥ": 5383,
      "भि̱ः": 5384,
      "येन्": 5385,
      "meru": 5386,
      "सर्वज्ञ": 5387,
      "हि̱": 5388,
      "प्राणा": 5389,
      "तीर्": 5390,
      "ष्ठो": 5391,
      "ṣṭau": 5392,
      "परिकीर्त": 5393,
      "vyādhi": 5394,
      "syāpi": 5395,
      "a̱s": 5396,
      "kalpā": 5397,
      "dvijo": 5398,
      "द्विजो": 5399,
      "sthānaṃ": 5400,
      "jñaṃ": 5401,
      "धुना": 5402,
      "dhṛk": 5403,
      "दुर्लभ": 5404,
      "vināśa": 5405,
      "मर्द": 5406,
      "mūrdh": 5407,
      "कूट": 5408,
      "योजयेत्": 5409,
      "पार्श्व": 5410,
      "महाबलः": 5411,
      "mahābalaḥ": 5412,
      "asmi": 5413,
      "ihā": 5414,
      "īdṛ": 5415,
      "करम्": 5416,
      "गदा": 5417,
      "धानं": 5418,
      "पथि": 5419,
      "यता": 5420,
      "सस्य": 5421,
      "सन्ध": 5422,
      "ौघ": 5423,
      "yasi": 5424,
      "tamā": 5425,
      "vayam": 5426,
      "र्प": 5427,
      "विवे": 5428,
      "das": 5429,
      "प्रभृ": 5430,
      "न्धि": 5431,
      "tejo": 5432,
      "prabhṛ": 5433,
      "वाद": 5434,
      "bha̱": 5435,
      "bhayā": 5436,
      "काला": 5437,
      "yenā": 5438,
      "yoge": 5439,
      "सुरे": 5440,
      "sure": 5441,
      "पिशा": 5442,
      "dhār": 5443,
      "मेरु": 5444,
      "jāla": 5445,
      "कुलं": 5446,
      "kulaṃ": 5447,
      "व्यः": 5448,
      "yastu": 5449,
      "yantaṃ": 5450,
      "tyāḥ": 5451,
      "सूत": 5452,
      "बुद्धो": 5453,
      "ष्यन्ति": 5454,
      "कीर्ण": 5455,
      "समुपा": 5456,
      "anyo": 5457,
      "dvādaśā": 5458,
      "स्मृति": 5459,
      "स्मृतम्": 5460,
      "smṛti": 5461,
      "smṛtam": 5462,
      "अन्यो": 5463,
      "घात": 5464,
      "द्वीप": 5465,
      "bja": 5466,
      "pyate": 5467,
      "असं": 5468,
      "कलि": 5469,
      "चन्द": 5470,
      "ṣyanti": 5471,
      "pathi": 5472,
      "ानम्": 5473,
      "canda": 5474,
      "ितां": 5475,
      "स्मे": 5476,
      "gaja": 5477,
      "niści": 5478,
      "śakra": 5479,
      "वाक्": 5480,
      "jag": 5481,
      "क्तः": 5482,
      "sarga": 5483,
      "थाय": 5484,
      "bhira": 5485,
      "meti": 5486,
      "netra": 5487,
      "स्वस्ति": 5488,
      "svasti": 5489,
      "loko": 5490,
      "vṛddha": 5491,
      "ान्ता": 5492,
      "mantri": 5493,
      "चित्रा": 5494,
      "yatho": 5495,
      "त्मनि": 5496,
      "pū̱r": 5497,
      "pūjya": 5498,
      "त्राणि": 5499,
      "draṣṭu": 5500,
      "paśyanti": 5501,
      "ṣṭāḥ": 5502,
      "ष्टाः": 5503,
      "पश्यन्ति": 5504,
      "वक्त्रा": 5505,
      "परमार्थ": 5506,
      "भर्ता": 5507,
      "bhartā": 5508,
      "रूपिणी": 5509,
      "स्पर्श": 5510,
      "ataḥ": 5511,
      "atya": 5512,
      "ekaṃ": 5513,
      "ghaṃ": 5514,
      "̱yā": 5515,
      "अतः": 5516,
      "एकं": 5517,
      "कव": 5518,
      "चर्या": 5519,
      "पर्ण": 5520,
      "य̍ः": 5521,
      "षड्": 5522,
      "taj": 5523,
      "taye": 5524,
      "va̍ḥ": 5525,
      "manī": 5526,
      "nakha": 5527,
      "sami": 5528,
      "म्ना": 5529,
      "paṅka": 5530,
      "māda": 5531,
      "मात्रं": 5532,
      "prayā": 5533,
      "bhyām": 5534,
      "रामः": 5535,
      "ṣaṇ": 5536,
      "क्षणम्": 5537,
      "श्ल": 5538,
      "सुग्री": 5539,
      "sugrī": 5540,
      "bhis": 5541,
      "cinti": 5542,
      "कृष्णा": 5543,
      "मेति": 5544,
      "me̱": 5545,
      "sarvasattva": 5546,
      "prārtha": 5547,
      "manye": 5548,
      "vyāp": 5549,
      "त्रिंश": 5550,
      "rūpam": 5551,
      "yuktaḥ": 5552,
      "दर्शनम्": 5553,
      "sṛṣṭi": 5554,
      "द्वार": 5555,
      "darśanam": 5556,
      "पृथि̱": 5557,
      "pṛthi̱": 5558,
      "यथे": 5559,
      "भ्याम्": 5560,
      "kramya": 5561,
      "sne": 5562,
      "tpā": 5563,
      "thu": 5564,
      "śyā": 5565,
      "ंस्": 5566,
      "अन्ध": 5567,
      "करी": 5568,
      "गमि": 5569,
      "गणा": 5570,
      "नन्त": 5571,
      "सभा": 5572,
      "ह̍": 5573,
      "raso": 5574,
      "tala": 5575,
      "samo": 5576,
      "vāṅ": 5577,
      "vākya": 5578,
      "karī": 5579,
      "rāmaḥ": 5580,
      "hite": 5581,
      "ताव्": 5582,
      "dehe": 5583,
      "roha": 5584,
      "भिन्न": 5585,
      "दिवि": 5586,
      "kṣaḥ": 5587,
      "sid": 5588,
      "tīrthaṃ": 5589,
      "varṇi": 5590,
      "द्यते": 5591,
      "मनं": 5592,
      "tatho": 5593,
      "yantu": 5594,
      "भुव": 5595,
      "वैराग": 5596,
      "bhedā": 5597,
      "patiṃ": 5598,
      "तत्रैव": 5599,
      "tṛṣṇā": 5600,
      "रूपम्": 5601,
      "पतिं": 5602,
      "शूल": 5603,
      "चन्द्रा": 5604,
      "karmāṇi": 5605,
      "कर्माणि": 5606,
      "hra": 5607,
      "oṃ": 5608,
      "trya": 5609,
      "̍ṣu": 5610,
      "अग": 5611,
      "इहा": 5612,
      "कैर्": 5613,
      "नरो": 5614,
      "यच्छ": 5615,
      "लभ्य": 5616,
      "समान": 5617,
      "yatrā": 5618,
      "्रि": 5619,
      "nare": 5620,
      "kan": 5621,
      "danta": 5622,
      "mātraṃ": 5623,
      "प्रसन्": 5624,
      "pratyā": 5625,
      "labhe": 5626,
      "यातु": 5627,
      "यावद्": 5628,
      "pātā": 5629,
      "pāpā": 5630,
      "subha": 5631,
      "bhikṣu": 5632,
      "भिक्षु": 5633,
      "bhāti": 5634,
      "रुद्रा": 5635,
      "sitā": 5636,
      "भूमौ": 5637,
      "वृत्र": 5638,
      "न्यस्य": 5639,
      "parikīrti": 5640,
      "चेष्ट": 5641,
      "samupā": 5642,
      "khyātā": 5643,
      "ख्याता": 5644,
      "prāpto": 5645,
      "kṛṣṇā": 5646,
      "marda": 5647,
      "gandhā": 5648,
      "paramārtha": 5649,
      "krānta": 5650,
      "माहात्म": 5651,
      "nva": 5652,
      "अरि": 5653,
      "इत्ये": 5654,
      "गू": 5655,
      "दधा": 5656,
      "समो": 5657,
      "ऽधि": 5658,
      "ḍhaṃ": 5659,
      "satva": 5660,
      "vipā": 5661,
      "kair": 5662,
      "layā": 5663,
      "नादि": 5664,
      "ṣaḍa": 5665,
      "निष": 5666,
      "पुरी": 5667,
      "purī": 5668,
      "muku": 5669,
      "ज्ञां": 5670,
      "kumbha": 5671,
      "क्रम्य": 5672,
      "tyaktvā": 5673,
      "bhūmau": 5674,
      "vīrā": 5675,
      "र्यो": 5676,
      "dṛḍha": 5677,
      "budha": 5678,
      "yiṣyāmi": 5679,
      "राज्य": 5680,
      "bheṣa": 5681,
      "यिष्यामि": 5682,
      "priyaṃ": 5683,
      "प्रियं": 5684,
      "anye": 5685,
      "panthā": 5686,
      "jñeyā": 5687,
      "pūjayet": 5688,
      "गृहीत्वा": 5689,
      "(?)": 5690,
      "dbhu": 5691,
      "graṃ": 5692,
      "ājñā": 5693,
      "̍णा": 5694,
      "घ्रा": 5695,
      "तद्वि": 5696,
      "पदि": 5697,
      "रणा": 5698,
      "लता": 5699,
      "वरो": 5700,
      "ṣye": 5701,
      "raṇā": 5702,
      "mas": 5703,
      "madā": 5704,
      "ानो": 5705,
      "ान्या": 5706,
      "candrā": 5707,
      "tāvad": 5708,
      "विपा": 5709,
      "विराज": 5710,
      "dara": 5711,
      "niṣe": 5712,
      "śaṅka": 5713,
      "क्लि": 5714,
      "bhasma": 5715,
      "dham": 5716,
      "tubhyaṃ": 5717,
      "saṃvi": 5718,
      "minī": 5719,
      "divi": 5720,
      "पुरः": 5721,
      "puraḥ": 5722,
      "मुनिः": 5723,
      "muniḥ": 5724,
      "citā": 5725,
      "मिव": 5726,
      "मिनी": 5727,
      "वे̍": 5728,
      "balam": 5729,
      "neva": 5730,
      "सि̱": 5731,
      "धाः": 5732,
      "ङ्गी": 5733,
      "bhavam": 5734,
      "jitā": 5735,
      "गात्": 5736,
      "tasya̍": 5737,
      "प्स्य": 5738,
      "ध्वज": 5739,
      "kāraṇam": 5740,
      "जिह्वा": 5741,
      "patim": 5742,
      "त्यां": 5743,
      "पतिम्": 5744,
      "vajrā": 5745,
      "वज्रा": 5746,
      "mukho": 5747,
      "dvāra": 5748,
      "yamānaḥ": 5749,
      "प्राप्तो": 5750,
      "śabdā": 5751,
      "vaktrā": 5752,
      "pramāṇa": 5753,
      "aśvinā": 5754,
      "trailok": 5755,
      "कारणम्": 5756,
      "tejasā": 5757,
      "gṛhītvā": 5758,
      "bū": 5759,
      "gū": 5760,
      "̱ळ": 5761,
      "अन्": 5762,
      "ऊ̱": 5763,
      "नैर्": 5764,
      "लभे": 5765,
      "हितम्": 5766,
      "ऽभवत्": 5767,
      "vasū": 5768,
      "padi": 5769,
      "kac": 5770,
      "nidhi": 5771,
      "śaśi": 5772,
      "laya": 5773,
      "निवेश": 5774,
      "स्तव": 5775,
      "दे̍": 5776,
      "jātu": 5777,
      "सर्वलोक": 5778,
      "क्रतु": 5779,
      "जातु": 5780,
      "लाव": 5781,
      "धाम": 5782,
      "द्वयं": 5783,
      "vṛtra": 5784,
      "प्राह": 5785,
      "भवः": 5786,
      "शुक्ल": 5787,
      "शिखा": 5788,
      "षा̱": 5789,
      "sthiti": 5790,
      "श्रुति": 5791,
      "चतुष्": 5792,
      "catuṣ": 5793,
      "पुत्रं": 5794,
      "ma̱ru": 5795,
      "mātreṇa": 5796,
      "स्मृता": 5797,
      "smṛtā": 5798,
      "पूजयेत्": 5799,
      "dakṣiṇa": 5800,
      "प्रणमामि": 5801,
      "praṇamāmi": 5802,
      "bījaṃ": 5803,
      "बीजं": 5804,
      "vyoma": 5805,
      "च्छेद": 5806,
      "kli": 5807,
      "sv": 5808,
      "̍ति": 5809,
      "आकाश": 5810,
      "इवो": 5811,
      "कच्": 5812,
      "चौ": 5813,
      "चान्य": 5814,
      "नद": 5815,
      "प्ये": 5816,
      "बह": 5817,
      "बर्": 5818,
      "बलम्": 5819,
      "मञ्ज": 5820,
      "ोत्त": 5821,
      "naṁ": 5822,
      "hāri": 5823,
      "vār": 5824,
      "dama": 5825,
      "प्रविश": 5826,
      "gamya": 5827,
      "latā": 5828,
      "janaḥ": 5829,
      "रा̍": 5830,
      "tulya": 5831,
      "sutā": 5832,
      "तुभ्यं": 5833,
      "putraṃ": 5834,
      "द्रव": 5835,
      "dhā̱": 5836,
      "कृणो": 5837,
      "kṛṇo": 5838,
      "त्वय": 5839,
      "prāha": 5840,
      "देव्या": 5841,
      "रणम्": 5842,
      "kratu": 5843,
      "तस्य̍": 5844,
      "pratiṣṭhi": 5845,
      "व्याधि": 5846,
      "हंस": 5847,
      "sthāpa": 5848,
      "पुत्रः": 5849,
      "युक्तो": 5850,
      "स्मृताः": 5851,
      "smṛtāḥ": 5852,
      "प्रत्यक्ष": 5853,
      "putraḥ": 5854,
      "tapasā": 5855,
      "bṛha": 5856,
      "षोडश": 5857,
      "dyate": 5858,
      "imāṃ": 5859,
      "nyaḥ": 5860,
      "nyam": 5861,
      "nyas": 5862,
      "plu": 5863,
      "rnam": 5864,
      "̍va": 5865,
      "अश्": 5866,
      "इमां": 5867,
      "एता": 5868,
      "चरि": 5869,
      "जनं": 5870,
      "ददौ": 5871,
      "ṇiḥ": 5872,
      "mayī": 5873,
      "sap": 5874,
      "paryā": 5875,
      "dadau": 5876,
      "प्रेष": 5877,
      "प्रत्या": 5878,
      "ga̍": 5879,
      "prasū": 5880,
      "layaṃ": 5881,
      "japa": 5882,
      "रात्म": 5883,
      "ritaṃ": 5884,
      "क्षया": 5885,
      "कारणं": 5886,
      "स्तू": 5887,
      "सुता": 5888,
      "trayo": 5889,
      "miva": 5890,
      "dibhiḥ": 5891,
      "महं": 5892,
      "bhār": 5893,
      "dhāma": 5894,
      "kum": 5895,
      "जा̱": 5896,
      "ndraṃ": 5897,
      "रेषु": 5898,
      "ghaṭa": 5899,
      "kāraṇaṃ": 5900,
      "dhīyate": 5901,
      "धीयते": 5902,
      "क्षेप": 5903,
      "muktaḥ": 5904,
      "मुक्तः": 5905,
      "panna": 5906,
      "दूर": 5907,
      "proktaṃ": 5908,
      "प्रोक्तं": 5909,
      "तेजसा": 5910,
      "जगन्नाथ": 5911,
      "ghe": 5912,
      "liḥ": 5913,
      "pye": 5914,
      "sro": 5915,
      "ñjana": 5916,
      "ñju": 5917,
      "̱स्": 5918,
      "चिता": 5919,
      "जनः": 5920,
      "मसि": 5921,
      "शशि": 5922,
      "सख": 5923,
      "rakṣi": 5924,
      "र्नम्": 5925,
      "matha": 5926,
      "patha": 5927,
      "vicāra": 5928,
      "विद्": 5929,
      "विचार": 5930,
      "त्मानं": 5931,
      "gacche": 5932,
      "वाग्": 5933,
      "तेजो": 5934,
      "pāṃ": 5935,
      "देहो": 5936,
      "deho": 5937,
      "सामान": 5938,
      "सार्धं": 5939,
      "मुहू": 5940,
      "वेदा": 5941,
      "श्रम": 5942,
      "ntarā": 5943,
      "ञ्जन": 5944,
      "शाक्य": 5945,
      "śuddhā": 5946,
      "bhavaṃ": 5947,
      "vaiṣṇa": 5948,
      "अ̱ग्निर्": 5949,
      "paśyāmi": 5950,
      "mūḍha": 5951,
      "bibhra": 5952,
      "ैरपि": 5953,
      "ज्ञेया": 5954,
      "तपसा": 5955,
      "पश्यामि": 5956,
      "शैल": 5957,
      "a̱gnir": 5958,
      "रश्मि": 5959,
      "jvālā": 5960,
      "sārdhaṃ": 5961,
      "ajā": 5962,
      "alaṃ": 5963,
      "̍णो": 5964,
      "ऋते": 5965,
      "जग्": 5966,
      "पक्षि": 5967,
      "रैः": 5968,
      "रसे": 5969,
      "हन्त": 5970,
      "ोद्": 5971,
      "varo": 5972,
      "patya": 5973,
      "pakṣi": 5974,
      "caryā": 5975,
      "dadha": 5976,
      "praṇam": 5977,
      "bhyas": 5978,
      "निधि": 5979,
      "kānti": 5980,
      "yojanā": 5981,
      "सुः": 5982,
      "पाता": 5983,
      "पात्र": 5984,
      "tor": 5985,
      "muhūr": 5986,
      "भिस्": 5987,
      "tvā̍": 5988,
      "yug": 5989,
      "yuṣ": 5990,
      "त्यक्त्वा": 5991,
      "si̱": 5992,
      "नेषु": 5993,
      "sarvajña": 5994,
      "महाराज": 5995,
      "ṣā̱": 5996,
      "gāt": 5997,
      "lepa": 5998,
      "tmajaḥ": 5999,
      "grahe": 6000,
      "bālā": 6001,
      "ceti": 6002,
      "दोषा": 6003,
      "śruti": 6004,
      "भ्रू": 6005,
      "तृष्णा": 6006,
      "dvayaṃ": 6007,
      "pannā": 6008,
      "kīrta": 6009,
      "ghāta": 6010,
      "ñjali": 6011,
      "irapi": 6012,
      "vidhaṃ": 6013,
      "pārśva": 6014,
      "sanāta": 6015,
      "द्वन्द्व": 6016,
      "ari": 6017,
      "ktaḥ": 6018,
      "tūr": 6019,
      "दम": 6020,
      "ददृ": 6021,
      "लयं": 6022,
      "श̍": 6023,
      "सहा": 6024,
      "स̱ꣳ": 6025,
      "sa̱ṁ": 6026,
      "paṅ": 6027,
      "viru": 6028,
      "vicitra": 6029,
      "kaṭā": 6030,
      "rām": 6031,
      "daha": 6032,
      "प्रसू": 6033,
      "bhrū": 6034,
      "bhaṅga": 6035,
      "क्षान्ति": 6036,
      "sya̍": 6037,
      "सुगत": 6038,
      "पारम": 6039,
      "साध्य": 6040,
      "ष्टम्": 6041,
      "kṣayā": 6042,
      "वेन": 6043,
      "śākya": 6044,
      "ūrdhvaṃ": 6045,
      "ṣu̍": 6046,
      "न्यः": 6047,
      "haṃsa": 6048,
      "तथागत": 6049,
      "kṣānti": 6050,
      "सौम्य": 6051,
      "ratho": 6052,
      "कथितं": 6053,
      "patnī": 6054,
      "ज्ञेयं": 6055,
      "hariḥ": 6056,
      "dakṣiṇā": 6057,
      "पन्ना": 6058,
      "janārda": 6059,
      "हरिः": 6060,
      "शुभम्": 6061,
      "śubham": 6062,
      "जनार्द": 6063,
      "samanvitam": 6064,
      "kathitaṃ": 6065,
      "ama": 6066,
      "nty": 6067,
      "upe": 6068,
      "कान्ति": 6069,
      "तस्थ": 6070,
      "दग्": 6071,
      "समि": 6072,
      "सन्तु": 6073,
      "े̱": 6074,
      "yayā": 6075,
      "naivā": 6076,
      "sakṛ": 6077,
      "padya": 6078,
      "car": 6079,
      "virā": 6080,
      "विक": 6081,
      "dadṛ": 6082,
      "māhāt": 6083,
      "्यात्": 6084,
      "pratyu": 6085,
      "bhakta": 6086,
      "राणां": 6087,
      "सुतः": 6088,
      "suḥ": 6089,
      "sutaḥ": 6090,
      "toḥ": 6091,
      "मह्यं": 6092,
      "bhinna": 6093,
      "tvā̱": 6094,
      "वेण": 6095,
      "च्चा": 6096,
      "tīva": 6097,
      "भूते": 6098,
      "gām": 6099,
      "guhā": 6100,
      "tathāgata": 6101,
      "ण्डे": 6102,
      "वैष्ण": 6103,
      "विश्वे̍": 6104,
      "a̍gne": 6105,
      "अ̍ग्ने": 6106,
      "viśve̍": 6107,
      "घोष": 6108,
      "khilaṃ": 6109,
      "ग्राम": 6110,
      "jñeyaṃ": 6111,
      "दक्षिणा": 6112,
      "खिलं": 6113,
      "pitāmaha": 6114,
      "bandho": 6115,
      "मात्रेण": 6116,
      "brāhmaṇa": 6117,
      "पत्नी": 6118,
      "कैके": 6119,
      "समन्वितम्": 6120,
      "kaike": 6121,
      "raśmi": 6122,
      "aja": 6123,
      "āśri": 6124,
      "̍sā": 6125,
      "̍सा": 6126,
      "̱रे": 6127,
      "तयो": 6128,
      "पम": 6129,
      "यत्रा": 6130,
      "रव": 6131,
      "लां": 6132,
      "वयम्": 6133,
      "vaco": 6134,
      "matiḥ": 6135,
      "mahyaṃ": 6136,
      "sari": 6137,
      "vis": 6138,
      "tirya": 6139,
      "datta": 6140,
      "प्रभाव": 6141,
      "तिर्य": 6142,
      "game": 6143,
      "ni̍": 6144,
      "तात्": 6145,
      "त्रयो": 6146,
      "pāti": 6147,
      "ditya": 6148,
      "मुद्र": 6149,
      "महर्ष": 6150,
      "पर्या": 6151,
      "पिङ्ग": 6152,
      "kṣam": 6153,
      "मे̍": 6154,
      "jānu": 6155,
      "baha": 6156,
      "रोद": 6157,
      "त्वा̍": 6158,
      "vīryā": 6159,
      "vṛkṣā": 6160,
      "देवानां": 6161,
      "tathe": 6162,
      "सोम̍": 6163,
      "soma̍": 6164,
      "न्दं": 6165,
      "ष्णी": 6166,
      "brahman": 6167,
      "kārayet": 6168,
      "śrama": 6169,
      "dhyātvā": 6170,
      "मांस": 6171,
      "द्वादशा": 6172,
      "सर्वार्थ": 6173,
      "̱तये̍": 6174,
      "sahasraṃ": 6175,
      "devānāṃ": 6176,
      "proktā": 6177,
      "मण्डलम्": 6178,
      "सहस्रं": 6179,
      "यितुं": 6180,
      "rāmasya": 6181,
      "̱taye̍": 6182,
      "vaktra": 6183,
      "रामस्य": 6184,
      "वतीं": 6185,
      "hṛdayaṃ": 6186,
      "ṣoḍaśa": 6187,
      "tsu": 6188,
      "āpo": 6189,
      "̍ra": 6190,
      "̱त्": 6191,
      "आपो": 6192,
      "थु": 6193,
      "दꣳ": 6194,
      "मघ": 6195,
      "मतिः": 6196,
      "सकृ": 6197,
      "ऽयम्": 6198,
      "yadu": 6199,
      "varaḥ": 6200,
      "mata": 6201,
      "vāda": 6202,
      "cau": 6203,
      "rātra": 6204,
      "daṁ": 6205,
      "dada": 6206,
      "प्रवक्ष्यामि": 6207,
      "nāgā": 6208,
      "pravakṣyāmi": 6209,
      "dha̱": 6210,
      "dharaḥ": 6211,
      "dhyati": 6212,
      "syati": 6213,
      "साय": 6214,
      "mupā": 6215,
      "परित्य": 6216,
      "द्धो": 6217,
      "citraṃ": 6218,
      "dhāt": 6219,
      "lāva": 6220,
      "रोग": 6221,
      "रि̱": 6222,
      "शुष्": 6223,
      "paritya": 6224,
      "koṭī": 6225,
      "vaiś": 6226,
      "sthite": 6227,
      "yituṃ": 6228,
      "sattvo": 6229,
      "हेतो": 6230,
      "कारयेत्": 6231,
      "śraddhā": 6232,
      "मुखः": 6233,
      "santu": 6234,
      "indrā̍": 6235,
      "बन्धु": 6236,
      "ध्यात्वा": 6237,
      "mukhaḥ": 6238,
      "maṇḍalam": 6239,
      "samyag": 6240,
      "viṃśati": 6241,
      "गृह्ण": 6242,
      "कनक": 6243,
      "aṣṭā": 6244,
      "jjva": 6245,
      "ttha": 6246,
      "ñjā": 6247,
      "अलं": 6248,
      "आदाय": 6249,
      "भ̍": 6250,
      "यदु": 6251,
      "viduḥ": 6252,
      "प्रभ": 6253,
      "laghu": 6254,
      "वा̍ꣳ": 6255,
      "नि̍": 6256,
      "क्षय": 6257,
      "suta": 6258,
      "र्वृ": 6259,
      "मुच्य": 6260,
      "roda": 6261,
      "ṇā̱": 6262,
      "भास्व": 6263,
      "मे̱": 6264,
      "कुतो": 6265,
      "kuto": 6266,
      "क्रमम्": 6267,
      "जातं": 6268,
      "tīnāṃ": 6269,
      "भूर्": 6270,
      "stū": 6271,
      "mahārāja": 6272,
      "त्वा̱": 6273,
      "युध": 6274,
      "तीक्ष्ण": 6275,
      "ण्ट": 6276,
      "huṃ": 6277,
      "गाम्": 6278,
      "चित्रं": 6279,
      "kramam": 6280,
      "pṛṣṭha": 6281,
      "निर्वि": 6282,
      "द्विष": 6283,
      "स्रु": 6284,
      "णीं": 6285,
      "दृष्टा": 6286,
      "ratnā": 6287,
      "युक्तः": 6288,
      "antaḥ": 6289,
      "स्थिते": 6290,
      "हिते": 6291,
      "अन्तः": 6292,
      "śaktir": 6293,
      "bharaṇa": 6294,
      "nātho": 6295,
      "सूक्ष्म": 6296,
      "bahir": 6297,
      "सनात": 6298,
      "ast": 6299,
      "vyāṃ": 6300,
      "āru": 6301,
      "īśā": 6302,
      "अती": 6303,
      "अस्म": 6304,
      "गल": 6305,
      "गमे": 6306,
      "गतिं": 6307,
      "जानु": 6308,
      "नश्य": 6309,
      "पत्र": 6310,
      "पण्ड": 6311,
      "मदा": 6312,
      "ीत": 6313,
      "yava": 6314,
      "tave": 6315,
      "hatā": 6316,
      "caṇḍā": 6317,
      "viva": 6318,
      "viśru": 6319,
      "विश्रु": 6320,
      "nārī": 6321,
      "nānu": 6322,
      "स्नान": 6323,
      "tendri": 6324,
      "नारी": 6325,
      "kāre": 6326,
      "kāśaṃ": 6327,
      "काशं": 6328,
      "saṃbodhi": 6329,
      "diṣu": 6330,
      "ditāḥ": 6331,
      "मुपा": 6332,
      "दिषु": 6333,
      "dhipaḥ": 6334,
      "भवतु": 6335,
      "bhavatu": 6336,
      "न्यसेत्": 6337,
      "vaide": 6338,
      "dviṣa": 6339,
      "bāṇa": 6340,
      "statra": 6341,
      "सीता": 6342,
      "sītā": 6343,
      "मुख्य": 6344,
      "tāny": 6345,
      "पितॄ": 6346,
      "विधं": 6347,
      "sarvārtha": 6348,
      "viśya": 6349,
      "sa̱has": 6350,
      "न्तुं": 6351,
      "yamāno": 6352,
      "प्रोक्ता": 6353,
      "vatīṃ": 6354,
      "हृदयं": 6355,
      "व्योम": 6356,
      "paścāt": 6357,
      "śukla": 6358,
      "cū": 6359,
      "ādāya": 6360,
      "̍t": 6361,
      "तज्": 6362,
      "दस्य": 6363,
      "दनु": 6364,
      "बलो": 6365,
      "मते": 6366,
      "मये": 6367,
      "रसो": 6368,
      "लब्": 6369,
      "सानु": 6370,
      "raga": 6371,
      "tayo": 6372,
      "same": 6373,
      "tiṁ": 6374,
      "विदुः": 6375,
      "विमल": 6376,
      "gala": 6377,
      "praṇā": 6378,
      "रागा": 6379,
      "निष्ठ": 6380,
      "riti": 6381,
      "क्षत्रि": 6382,
      "kāraḥ": 6383,
      "न्तरं": 6384,
      "यास्": 6385,
      "कारु": 6386,
      "कारे": 6387,
      "कारः": 6388,
      "स्तन": 6389,
      "स्तेन": 6390,
      "sānu": 6391,
      "trayaṃ": 6392,
      "संबोधि": 6393,
      "piṇḍa": 6394,
      "ṇāti": 6395,
      "kṣaṇā": 6396,
      "kṣatri": 6397,
      "jāṃ": 6398,
      "balo": 6399,
      "ndī": 6400,
      "त्वाद्": 6401,
      "युग्": 6402,
      "varṇaṃ": 6403,
      "prāyaś": 6404,
      "तीर्थं": 6405,
      "गुहा": 6406,
      "वीर्या": 6407,
      "sthita": 6408,
      "yady": 6409,
      "जीवित": 6410,
      "saumi": 6411,
      "vrate": 6412,
      "pīṭ": 6413,
      "pīṭha": 6414,
      "पीत": 6415,
      "agre": 6416,
      "वंश": 6417,
      "विधे": 6418,
      "नाथं": 6419,
      "घोरं": 6420,
      "lokeṣu": 6421,
      "bhaviṣyanti": 6422,
      "विशेषतः": 6423,
      "स्वप्न": 6424,
      "भविष्यन्ति": 6425,
      "चूर्ण": 6426,
      "सामर्थ": 6427,
      "sūkṣma": 6428,
      "यद्य्": 6429,
      "kanaka": 6430,
      "ज्वाला": 6431,
      "ane": 6432,
      "abhū": 6433,
      "asmin": 6434,
      "dro": 6435,
      "dvai": 6436,
      "jha": 6437,
      "seva": 6438,
      "yya": 6439,
      "̱vā": 6440,
      "अजा": 6441,
      "ग̍": 6442,
      "चक": 6443,
      "जघ": 6444,
      "धरः": 6445,
      "पङ्": 6446,
      "यया": 6447,
      "वधि": 6448,
      "ṇye": 6449,
      "hatvā": 6450,
      "savi": 6451,
      "sattama": 6452,
      "paṇḍi": 6453,
      "kapā": 6454,
      "danu": 6455,
      "प्रणा": 6456,
      "niśi": 6457,
      "pratye": 6458,
      "bhru": 6459,
      "देहे": 6460,
      "veti": 6461,
      "thāya": 6462,
      "diśo": 6463,
      "to̍": 6464,
      "muc": 6465,
      "bhiṣe": 6466,
      "ci̱d": 6467,
      "bhāg": 6468,
      "दिशो": 6469,
      "kṣata": 6470,
      "स्वरूप": 6471,
      "नेव": 6472,
      "धिपः": 6473,
      "हि̍": 6474,
      "ndraḥ": 6475,
      "धा̱": 6476,
      "द्युम्": 6477,
      "śuṣ": 6478,
      "ग्रं": 6479,
      "चि̱द्": 6480,
      "mantraṃ": 6481,
      "लोको": 6482,
      "चितं": 6483,
      "yann": 6484,
      "कोप": 6485,
      "vyati": 6486,
      "syāmi": 6487,
      "dīp": 6488,
      "pet": 6489,
      "cchan": 6490,
      "शीर्ष": 6491,
      "नृत्य": 6492,
      "मन्त्रं": 6493,
      "दर्शनं": 6494,
      "sarvāṇi": 6495,
      "सर्वाणि": 6496,
      "अन्व": 6497,
      "darśanaṃ": 6498,
      "बिम्ब": 6499,
      "śūla": 6500,
      "myahaṃ": 6501,
      "मात्मा": 6502,
      "प्रणम्य": 6503,
      "सत्तम": 6504,
      "कोटी": 6505,
      "viśeṣataḥ": 6506,
      "sindhu": 6507,
      "aga": 6508,
      "ayo": 6509,
      "llā": 6510,
      "अयो": 6511,
      "अर्ध": 6512,
      "आज्ञा": 6513,
      "पै": 6514,
      "मस्": 6515,
      "लेन": 6516,
      "वरः": 6517,
      "सनं": 6518,
      "हत्वा": 6519,
      "rava": 6520,
      "haya": 6521,
      "naro": 6522,
      "sate": 6523,
      "santa": 6524,
      "pathā": 6525,
      "viṣṭa": 6526,
      "त्पाद": 6527,
      "प्रभम्": 6528,
      "śaśva": 6529,
      "prabham": 6530,
      "क्थ": 6531,
      "वाङ्": 6532,
      "निन्द": 6533,
      "क्षत": 6534,
      "ताय": 6535,
      "kāni": 6536,
      "kāli": 6537,
      "स्यति": 6538,
      "pāri": 6539,
      "veṣa": 6540,
      "jātaṃ": 6541,
      "दुर": 6542,
      "vṛṣ": 6543,
      "भवं": 6544,
      "र्यते": 6545,
      "ग्र्य": 6546,
      "bhavatā": 6547,
      "ल्ला": 6548,
      "स्यामि": 6549,
      "dṛṣṭaṃ": 6550,
      "समन्ता": 6551,
      "daṃṣṭ": 6552,
      "sattvaṃ": 6553,
      "कल्पे": 6554,
      "kṣāṃ": 6555,
      "व्रते": 6556,
      "tatraiva": 6557,
      "सौमित्र": 6558,
      "दृष्टं": 6559,
      "योगे": 6560,
      "viśvarū": 6561,
      "dattaṃ": 6562,
      "दत्तं": 6563,
      "विंशति": 6564,
      "ब्रूहि": 6565,
      "brūhi": 6566,
      "sāmart": 6567,
      "andha": 6568,
      "gs": 6569,
      "pla": 6570,
      "ākāśa": 6571,
      "̍त्": 6572,
      "̍ya̱": 6573,
      "अप्": 6574,
      "अग्निर्": 6575,
      "इष": 6576,
      "घ्रं": 6577,
      "तानां": 6578,
      "पयो": 6579,
      "पव̍": 6580,
      "वसू": 6581,
      "वचो": 6582,
      "शश्व": 6583,
      "समृ": 6584,
      "nayā": 6585,
      "sanaṃ": 6586,
      "samṛ": 6587,
      "satyā": 6588,
      "paṭa": 6589,
      "pava̍": 6590,
      "vijñāna": 6591,
      "timi": 6592,
      "माध": 6593,
      "śayā": 6594,
      "prave": 6595,
      "jayā": 6596,
      "bhaktā": 6597,
      "तावद्": 6598,
      "कालि": 6599,
      "dehā": 6600,
      "dinaṃ": 6601,
      "मुण्ड": 6602,
      "cita": 6603,
      "bhāvaḥ": 6604,
      "ये̱": 6605,
      "दिवा": 6606,
      "ज्ज्व": 6607,
      "णाति": 6608,
      "tyaja": 6609,
      "ṣāḥ": 6610,
      "प्रायश्च": 6611,
      "ग्रहे": 6612,
      "kartuṃ": 6613,
      "क्षिपे": 6614,
      "सर्ज": 6615,
      "कर्तुं": 6616,
      "दानव": 6617,
      "agnir": 6618,
      "sarvāḥ": 6619,
      "सर्वाः": 6620,
      "स्थाय": 6621,
      "चक्रं": 6622,
      "शृण्व": 6623,
      "śṛṇ": 6624,
      "grāma": 6625,
      "śaraṇa": 6626,
      "śaraṇā": 6627,
      "स्फा": 6628,
      "शक्तिर्": 6629,
      "cakraṃ": 6630,
      "र̱यि": 6631,
      "करुण": 6632,
      "पुण्या": 6633,
      "sparśa": 6634,
      "(⟨": 6635,
      "eti": 6636,
      "in": 6637,
      "rti": 6638,
      "straṃ": 6639,
      "̍श्": 6640,
      "̱ṣa": 6641,
      "अष्टा": 6642,
      "अस्मिन्": 6643,
      "इत्थं": 6644,
      "कानि": 6645,
      "तश्च": 6646,
      "दर": 6647,
      "बान्ध": 6648,
      "मती": 6649,
      "व̍ः": 6650,
      "षष्टि": 6651,
      "ुत्वा": 6652,
      "ून्": 6653,
      "vaśī": 6654,
      "mate": 6655,
      "nada": 6656,
      "satvā": 6657,
      "payo": 6658,
      "pakṣe": 6659,
      "kasaṃ": 6660,
      "विहा": 6661,
      "nāsi": 6662,
      "स्न": 6663,
      "labh": 6664,
      "निवृत्त": 6665,
      "क्षणा": 6666,
      "तादृ": 6667,
      "pād": 6668,
      "पारि": 6669,
      "ret": 6670,
      "ciraṃ": 6671,
      "रुह्य": 6672,
      "dhānā": 6673,
      "दिग्": 6674,
      "kṛtyā": 6675,
      "jāmi": 6676,
      "ज्ञं": 6677,
      "kulam": 6678,
      "śāt": 6679,
      "जामि": 6680,
      "tīm": 6681,
      "mahātmā": 6682,
      "वर्णं": 6683,
      "शात्": 6684,
      "चिरं": 6685,
      "vopa": 6686,
      "yanty": 6687,
      "tasya̱": 6688,
      "त्मने": 6689,
      "bāndha": 6690,
      "statha": 6691,
      "cittam": 6692,
      "म्यहं": 6693,
      "कर्मणि": 6694,
      "karmaṇi": 6695,
      "bhāvanā": 6696,
      "mīti": 6697,
      "śūnyā": 6698,
      "लक्षणं": 6699,
      "प्रत्यु": 6700,
      "lakṣaṇaṃ": 6701,
      "मनुष्य": 6702,
      "martya": 6703,
      "itthaṃ": 6704,
      "tapas": 6705,
      "prajāḥ": 6706,
      "madhu̍": 6707,
      "maṇḍale": 6708,
      "śreṣṭhā": 6709,
      "नैवा": 6710,
      "प्रजाः": 6711,
      "brāhmaṇā": 6712,
      "buddhir": 6713,
      "gṛhṇa": 6714,
      "bruvan": 6715,
      "मुहूर्": 6716,
      "atrā": 6717,
      "e̍": 6718,
      "etā": 6719,
      "gdha": 6720,
      "grya": 6721,
      "pyā": 6722,
      "thya": 6723,
      "̍भिर्": 6724,
      "आर्": 6725,
      "तप्त": 6726,
      "समे": 6727,
      "है": 6728,
      "हानि": 6729,
      "ṇir": 6730,
      "yakṣ": 6731,
      "rab": 6732,
      "magha": 6733,
      "mait": 6734,
      "yāvan": 6735,
      "vā̍m": 6736,
      "viḥ": 6737,
      "rāś": 6738,
      "rājñā": 6739,
      "hi̍": 6740,
      "प्रधान": 6741,
      "teṣām": 6742,
      "माद": 6743,
      "gatim": 6744,
      "वाजि": 6745,
      "तेषाम्": 6746,
      "dharaṃ": 6747,
      "dhra": 6748,
      "स्तृ": 6749,
      "pāraṃ": 6750,
      "सुधा": 6751,
      "ṣṭir": 6752,
      "पारं": 6753,
      "ruṇa": 6754,
      "sāri": 6755,
      "piṅga": 6756,
      "mitya": 6757,
      "mut": 6758,
      "bhāgā": 6759,
      "दिन": 6760,
      "भावि": 6761,
      "स्वी": 6762,
      "कुलम्": 6763,
      "कुमार": 6764,
      "kumāra": 6765,
      "svara": 6766,
      "lokān": 6767,
      "दुरा": 6768,
      "युष्": 6769,
      "ङ्गो": 6770,
      "भवता": 6771,
      "शिरः": 6772,
      "śiraḥ": 6773,
      "मृतं": 6774,
      "vyāpi": 6775,
      "kramaḥ": 6776,
      "तस्य̱": 6777,
      "व्याप्त": 6778,
      "बाह्य": 6779,
      "पितरं": 6780,
      "kṣepa": 6781,
      "दे̱वे": 6782,
      "de̱ve": 6783,
      "मधु̍": 6784,
      "शुभं": 6785,
      "śubhaṃ": 6786,
      "दि̱वो": 6787,
      "di̱vo": 6788,
      "prasāda": 6789,
      "pitaraṃ": 6790,
      "त्पत्ति": 6791,
      "krīḍa": 6792,
      "चण्डा": 6793,
      "kruddha": 6794,
      "dhanur": 6795,
      "प्रायश्चित्त": 6796,
      "abh": 6797,
      "jyaṃ": 6798,
      "lū": 6799,
      "psi": 6800,
      "̱यम्": 6801,
      "अश": 6802,
      "आन": 6803,
      "णस्": 6804,
      "थः": 6805,
      "यैर्": 6806,
      "शर्म": 6807,
      "ḍho": 6808,
      "tavyaṃ": 6809,
      "्यै": 6810,
      "vaśi": 6811,
      "vaṇi": 6812,
      "manta": 6813,
      "sakalā": 6814,
      "nityā": 6815,
      "निवा": 6816,
      "त्र्य": 6817,
      "dhve": 6818,
      "स्यं": 6819,
      "yeṣāṃ": 6820,
      "sukhī": 6821,
      "sāya": 6822,
      "दाद्": 6823,
      "muna": 6824,
      "kṣaya": 6825,
      "me̍": 6826,
      "kub": 6827,
      "ांश्": 6828,
      "bhūtāni": 6829,
      "not": 6830,
      "द्वयम्": 6831,
      "vīraṃ": 6832,
      "महाभाग": 6833,
      "च्छति": 6834,
      "mṛtaṃ": 6835,
      "लोकान्": 6836,
      "र्णव": 6837,
      "gṛhaṃ": 6838,
      "गृहं": 6839,
      "मित्य": 6840,
      "sūta": 6841,
      "sūtra": 6842,
      "मुखो": 6843,
      "सुखी": 6844,
      "पित्र": 6845,
      "मन्त्रि": 6846,
      "भीम": 6847,
      "रत्ना": 6848,
      "अन्या": 6849,
      "बोधिसत्त्वा": 6850,
      "caran": 6851,
      "भूतानि": 6852,
      "रथं": 6853,
      "बन्धो": 6854,
      "dūra": 6855,
      "guruṃ": 6856,
      "गुरुं": 6857,
      "yogaṃ": 6858,
      "बृ̱ह": 6859,
      "dyum": 6860,
      "kuryād": 6861,
      "कर्तव्यं": 6862,
      "kartavyaṃ": 6863,
      "अनेक": 6864,
      "amī": 6865,
      "jṛ": 6866,
      "mbi": 6867,
      "vye": 6868,
      "ād": 6869,
      "अमी": 6870,
      "एति": 6871,
      "कवि": 6872,
      "चर्म": 6873,
      "दल": 6874,
      "मरी": 6875,
      "रन्ध": 6876,
      "वस्": 6877,
      "vadhi": 6878,
      "marī": 6879,
      "patan": 6880,
      "vāji": 6881,
      "विष्": 6882,
      "māne": 6883,
      "mānam": 6884,
      "प्रबोध": 6885,
      "न्ना": 6886,
      "तिमि": 6887,
      "dhair": 6888,
      "tula": 6889,
      "ताड": 6890,
      "संस्था": 6891,
      "द्रू": 6892,
      "सर्वतः": 6893,
      "svarūpa": 6894,
      "tīrthe": 6895,
      "भूयः": 6896,
      "bhūyaḥ": 6897,
      "sarvataḥ": 6898,
      "रोप": 6899,
      "tasyāḥ": 6900,
      "ṣu̱": 6901,
      "हास": 6902,
      "वीरं": 6903,
      "वैश्व": 6904,
      "hastā": 6905,
      "samasta": 6906,
      "से̱": 6907,
      "a̱smā": 6908,
      "अ̱स्मा": 6909,
      "kampa": 6910,
      "vidvān": 6911,
      "dher": 6912,
      "karaṇaṃ": 6913,
      "bodhisattva": 6914,
      "dhvaja": 6915,
      "siddhiṃ": 6916,
      "सिद्धिं": 6917,
      "शरणा": 6918,
      "देवेशि": 6919,
      "deveśi": 6920,
      "pāramitā": 6921,
      "अग्रे": 6922,
      "प्रभृति": 6923,
      "prabhṛti": 6924,
      "मञ्जु": 6925,
      "aśa": 6926,
      "aneka": 6927,
      "hlā": 6928,
      "jū": 6929,
      "kvā": 6930,
      "ryam": 6931,
      "rdhva": 6932,
      "आद्य": 6933,
      "आनन्द": 6934,
      "च्या": 6935,
      "तन्व": 6936,
      "धरं": 6937,
      "बे": 6938,
      "ब̱र्": 6939,
      "यस्व": 6940,
      "वन्ति": 6941,
      "ऽह": 6942,
      "ऽन्त": 6943,
      "ṛṣī": 6944,
      "tataś": 6945,
      "narma": 6946,
      "hāsa": 6947,
      "viro": 6948,
      "rājo": 6949,
      "hitāḥ": 6950,
      "tāma": 6951,
      "śarma": 6952,
      "निर्या": 6953,
      "kāmaṃ": 6954,
      "कामं": 6955,
      "suga": 6956,
      "पाट": 6957,
      "मुत्तमम्": 6958,
      "mukhī": 6959,
      "muttamam": 6960,
      "citaṃ": 6961,
      "येत": 6962,
      "येना": 6963,
      "bad": 6964,
      "ba̱r": 6965,
      "स्वर": 6966,
      "कुतः": 6967,
      "kutaḥ": 6968,
      "क्रमः": 6969,
      "रेत्": 6970,
      "mahābalā": 6971,
      "vīṃ": 6972,
      "व्यति": 6973,
      "शुक्र": 6974,
      "ह्ला": 6975,
      "लोकेषु": 6976,
      "सोमो": 6977,
      "somo": 6978,
      "दीनां": 6979,
      "dīnāṃ": 6980,
      "a̱r": 6981,
      "बुद्धिर्": 6982,
      "निर्विकल्प": 6983,
      "dvijā": 6984,
      "senā": 6985,
      "tenaiva": 6986,
      "प्ल": 6987,
      "nṛtya": 6988,
      "सत्त्वं": 6989,
      "ghoraṃ": 6990,
      "यन्त्र": 6991,
      "उत्तमम्": 6992,
      "varāro": 6993,
      "uttamam": 6994,
      "चतुर्दश": 6995,
      "र्ध्वं": 6996,
      "ṣyasi": 6997,
      "sphura": 6998,
      "ज̍सा": 6999,
      "ja̍sā": 7000,
      "चक्षुषा": 7001,
      "cakṣuṣā": 7002,
      "तर्प": 7003,
      "सम्यग्": 7004,
      "krīḍā": 7005,
      "बहिर्": 7006,
      "कुसुम": 7007,
      "jihvā": 7008,
      "अश्विना": 7009,
      "ara": 7010,
      "chu": 7011,
      "un": 7012,
      "̍ष": 7013,
      "इत्": 7014,
      "कन्द": 7015,
      "ग्व": 7016,
      "चत": 7017,
      "दग्ध": 7018,
      "पक्षे": 7019,
      "मभि": 7020,
      "वति": 7021,
      "वशी": 7022,
      "सते": 7023,
      "rasaḥ": 7024,
      "raud": 7025,
      "rakṣo": 7026,
      "vatā": 7027,
      "mañju": 7028,
      "pado": 7029,
      "ान्ये": 7030,
      "vā̍ṁ": 7031,
      "विह": 7032,
      "विश्र": 7033,
      "विदु": 7034,
      "तिꣳ": 7035,
      "माल्य": 7036,
      "nirī": 7037,
      "jale": 7038,
      "निरी": 7039,
      "sudhā": 7040,
      "rutvā": 7041,
      "sāmā": 7042,
      "devān": 7043,
      "vedi": 7044,
      "पुण्ड": 7045,
      "ष्ट्या": 7046,
      "दिनं": 7047,
      "भाज": 7048,
      "yuge": 7049,
      "yujyate": 7050,
      "कृत्या": 7051,
      "kṛ̍": 7052,
      "जाम्": 7053,
      "bhūri": 7054,
      "ग्स्": 7055,
      "ग्ना": 7056,
      "शिनी": 7057,
      "tattvā": 7058,
      "च्छया": 7059,
      "yasī": 7060,
      "niryā": 7061,
      "शोण": 7062,
      "पृ̱": 7063,
      "ध्यानं": 7064,
      "बुद्धानां": 7065,
      "ष्यसि": 7066,
      "cchayā": 7067,
      "कल्पा": 7068,
      "ced": 7069,
      "हृष्ट": 7070,
      "शीर्": 7071,
      "pary": 7072,
      "क्वचिद": 7073,
      "kvacida": 7074,
      "भ्रु": 7075,
      "सृज्य": 7076,
      "manas": 7077,
      "coda": 7078,
      "शून्या": 7079,
      "indro": 7080,
      "devāya": 7081,
      "u̱ṣa": 7082,
      "puruṣaṃ": 7083,
      "prāptaṃ": 7084,
      "bahudhā": 7085,
      "देवाय": 7086,
      "प्रत्ये": 7087,
      "प्राप्तं": 7088,
      "प्राप्ता": 7089,
      "मण्डले": 7090,
      "दक्षिणं": 7091,
      "dakṣiṇaṃ": 7092,
      "tapaḥ": 7093,
      "śaktyā": 7094,
      "वरुणा": 7095,
      "पुरुषं": 7096,
      "द्रुम": 7097,
      "buddhānāṃ": 7098,
      "bhārata": 7099,
      "नारद": 7100,
      "सिन्धु": 7101,
      "मूर्ध्नि": 7102,
      "aṅgu": 7103,
      "gro": 7104,
      "vyū": 7105,
      "अङ्गु": 7106,
      "कस्मा": 7107,
      "चः": 7108,
      "तवे": 7109,
      "मव": 7110,
      "यान्त": 7111,
      "रस्": 7112,
      "शस्त्र": 7113,
      "हव": 7114,
      "हन्": 7115,
      "ऽभ्य": 7116,
      "ीम्": 7117,
      "ṣṇu": 7118,
      "yakṣā": 7119,
      "hasya": 7120,
      "mag": 7121,
      "yāca": 7122,
      "vidu": 7123,
      "विभाव": 7124,
      "nāḍ": 7125,
      "jajñe": 7126,
      "निवे": 7127,
      "क्षः": 7128,
      "स्ततः": 7129,
      "ruk": 7130,
      "rudhi": 7131,
      "ved": 7132,
      "diśi": 7133,
      "diśaḥ": 7134,
      "diṣṭaṃ": 7135,
      "मिश्र": 7136,
      "दिशः": 7137,
      "yuddha": 7138,
      "त्यज": 7139,
      "सर्वपाप": 7140,
      "श्रद्धा": 7141,
      "जातो": 7142,
      "लोल": 7143,
      "loki": 7144,
      "युज्यते": 7145,
      "vīryaṃ": 7146,
      "भवो": 7147,
      "न्यम्": 7148,
      "स्याः": 7149,
      "वी̱": 7150,
      "samāhitaḥ": 7151,
      "समाहितः": 7152,
      "षु̍": 7153,
      "ṇḍarī": 7154,
      "hīnā": 7155,
      "सर्वि": 7156,
      "इन्द्रो": 7157,
      "तेनैव": 7158,
      "nṛpaḥ": 7159,
      "कल्पयेत्": 7160,
      "परां": 7161,
      "नृपः": 7162,
      "dhyānaṃ": 7163,
      "स्वाद": 7164,
      "bhīma": 7165,
      "चित्तम्": 7166,
      "muktaṃ": 7167,
      "मुक्तं": 7168,
      "kalpayet": 7169,
      "vi̱tā": 7170,
      "अन्ये": 7171,
      "तपः": 7172,
      "म्बू": 7173,
      "maṇḍalā": 7174,
      "बृह̱": 7175,
      "bṛha̱": 7176,
      "mahi̱": 7177,
      "प्रमाणं": 7178,
      "pramāṇaṃ": 7179,
      "स्तोत्र": 7180,
      "चेतसः": 7181,
      "kleśā": 7182,
      "cetasaḥ": 7183,
      "भारत": 7184,
      "सरस्वती": 7185,
      "praṇamya": 7186,
      "ekam": 7187,
      "jjā": 7188,
      "śvāsa": 7189,
      "कसं": 7190,
      "घं": 7191,
      "छु": 7192,
      "जज्ञे": 7193,
      "तमः": 7194,
      "धान्य": 7195,
      "नर्म": 7196,
      "लघु": 7197,
      "सान्": 7198,
      "ैष": 7199,
      "ṣṇī": 7200,
      "tamaḥ": 7201,
      "vaṁ": 7202,
      "vimala": 7203,
      "विरो": 7204,
      "त्सा": 7205,
      "स्नि": 7206,
      "तिथ": 7207,
      "nimi": 7208,
      "praty": 7209,
      "prabhāva": 7210,
      "स्तदा": 7211,
      "pā̱": 7212,
      "dānava": 7213,
      "देहं": 7214,
      "dehaṃ": 7215,
      "sarvi": 7216,
      "द्धर्": 7217,
      "येषां": 7218,
      "दिष्टं": 7219,
      "भागा": 7220,
      "baddhā": 7221,
      "श्रद्ध": 7222,
      "kut": 7223,
      "रे̱": 7224,
      "रोहे": 7225,
      "महाय": 7226,
      "वर्ग": 7227,
      "पूर्": 7228,
      "चेति": 7229,
      "samupa": 7230,
      "va̱yaṁ": 7231,
      "तृप्त": 7232,
      "म̱घ": 7233,
      "व̱यꣳ": 7234,
      "वि̱ता": 7235,
      "विष्णो": 7236,
      "dūṣa": 7237,
      "प्रथमं": 7238,
      "prathamaṃ": 7239,
      "ra̱yi": 7240,
      "pārami": 7241,
      "वीर्यं": 7242,
      "शक्त्या": 7243,
      "dveṣa": 7244,
      "घ्रि": 7245,
      "pṛthag": 7246,
      "śaila": 7247,
      "kusuma": 7248,
      "खड्ग": 7249,
      "स्तथैव": 7250,
      "vairāg": 7251,
      "mahātejā": 7252,
      "महातेजा": 7253,
      "sni": 7254,
      "stasya": 7255,
      "vyu": 7256,
      "उन्": 7257,
      "ऋषी": 7258,
      "एकम्": 7259,
      "कान": 7260,
      "करणं": 7261,
      "रग": 7262,
      "रसः": 7263,
      "रजो": 7264,
      "लया": 7265,
      "शस्य": 7266,
      "शयः": 7267,
      "सद्यः": 7268,
      "हता": 7269,
      "ेत": 7270,
      "ṅgh": 7271,
      "yaśca": 7272,
      "vastra": 7273,
      "hanta": 7274,
      "carma": 7275,
      "māp": 7276,
      "mādha": 7277,
      "gatir": 7278,
      "śaśā": 7279,
      "śayaḥ": 7280,
      "नाड": 7281,
      "bhakṣa": 7282,
      "निम": 7283,
      "क्षम्": 7284,
      "kāna": 7285,
      "pāna": 7286,
      "pāṇḍu": 7287,
      "संश्र": 7288,
      "saṃkhyā": 7289,
      "saṃghā": 7290,
      "महोद": 7291,
      "भिश्च": 7292,
      "दिशि": 7293,
      "yugā": 7294,
      "kṛṇ": 7295,
      "सर्वस्य": 7296,
      "सर्वशः": 7297,
      "कुब्": 7298,
      "क्रमा": 7299,
      "lokam": 7300,
      "भूरि": 7301,
      "sarvasya": 7302,
      "sarvaśaḥ": 7303,
      "युगे": 7304,
      "vṛtā": 7305,
      "tasmān": 7306,
      "शिशु": 7307,
      "पूर्णा": 7308,
      "śiśu": 7309,
      "देवान्": 7310,
      "देवताः": 7311,
      "jitaṃ": 7312,
      "बुध्य": 7313,
      "्येत": 7314,
      "devatāḥ": 7315,
      "sthāya": 7316,
      "saumya": 7317,
      "anu̱": 7318,
      "kṣetre": 7319,
      "कालः": 7320,
      "vacanam": 7321,
      "yū̱": 7322,
      "शेषं": 7323,
      "kālaḥ": 7324,
      "rākṣasā": 7325,
      "sadyaḥ": 7326,
      "भैरव": 7327,
      "cakṣur": 7328,
      "prakṛti": 7329,
      "svapne": 7330,
      "स्वप्ने": 7331,
      "पश्चात्": 7332,
      "nirvāṇa": 7333,
      "पारमिता": 7334,
      "mni": 7335,
      "phu": 7336,
      "̱to": 7337,
      "अचि": 7338,
      "ग्वि": 7339,
      "ण्या": 7340,
      "ध̱": 7341,
      "पदो": 7342,
      "भया": 7343,
      "यदी": 7344,
      "वरण": 7345,
      "शशा": 7346,
      "सिता": 7347,
      "ेदं": 7348,
      "ज़्": 7349,
      "yajñā": 7350,
      "yatām": 7351,
      "pama": 7352,
      "hāya": 7353,
      "cam": 7354,
      "caḥ": 7355,
      "kanda": 7356,
      "kath": 7357,
      "द्भिर्": 7358,
      "वाज": 7359,
      "kāmo": 7360,
      "कामो": 7361,
      "pālā": 7362,
      "तुभ्य": 7363,
      "देही": 7364,
      "dito": 7365,
      "मुत्": 7366,
      "mukhyā": 7367,
      "dhiṣṭhi": 7368,
      "medhā": 7369,
      "netrā": 7370,
      "nur": 7371,
      "śāntā": 7372,
      "श्चर्य": 7373,
      "sarvapāpa": 7374,
      "दुर्म": 7375,
      "धाता": 7376,
      "द्वौ": 7377,
      "चास्य": 7378,
      "महाबला": 7379,
      "महात्मना": 7380,
      "मानसः": 7381,
      "śuddhi": 7382,
      "शिक्ष": 7383,
      "तीव्र": 7384,
      "लोकम्": 7385,
      "परि̱": 7386,
      "षाः": 7387,
      "kṣip": 7388,
      "haste": 7389,
      "हुं": 7390,
      "पृत": 7391,
      "bhoja": 7392,
      "बाला": 7393,
      "भावना": 7394,
      "jīvan": 7395,
      "śīta": 7396,
      "ब्रह्मन्": 7397,
      "kiṃcit": 7398,
      "किंचित्": 7399,
      "अनु̱": 7400,
      "mānasaḥ": 7401,
      "dvau": 7402,
      "dvayam": 7403,
      "बहुधा": 7404,
      "pādau": 7405,
      "शान्ता": 7406,
      "भद्रं": 7407,
      "मार्गे": 7408,
      "कुर्याद्": 7409,
      "mahātmanā": 7410,
      "svapna": 7411,
      "nārada": 7412,
      "bhadraṃ": 7413,
      "प्रकृति": 7414,
      "क्षिप्रं": 7415,
      "kṣipraṃ": 7416,
      "granthi": 7417,
      "au": 7418,
      "ddhṛ": 7419,
      "eta": 7420,
      "ikā": 7421,
      "iyaṃ": 7422,
      "udya": 7423,
      "vyas": 7424,
      "̍ता": 7425,
      "̍ष्ठ": 7426,
      "̍षु": 7427,
      "̍bhir": 7428,
      "इयं": 7429,
      "ए̱": 7430,
      "चम्": 7431,
      "जू": 7432,
      "जले": 7433,
      "रक्ता": 7434,
      "शर्व": 7435,
      "शेन": 7436,
      "सत्या": 7437,
      "ऽग्र": 7438,
      "ṭṭa": 7439,
      "yasva": 7440,
      "rathaṃ": 7441,
      "vase": 7442,
      "paṭha": 7443,
      "yātma": 7444,
      "caṇḍa": 7445,
      "vidya": 7446,
      "विभाग": 7447,
      "प्रसीद": 7448,
      "gaṇḍī": 7449,
      "nivṛt": 7450,
      "pra̍": 7451,
      "prasīda": 7452,
      "jalā": 7453,
      "राशि": 7454,
      "kāntā": 7455,
      "काष्ठ": 7456,
      "स्यान्": 7457,
      "ṣṭī": 7458,
      "पात्": 7459,
      "sāhas": 7460,
      "mitaṃ": 7461,
      "मुन": 7462,
      "bhāḥ": 7463,
      "dhātā": 7464,
      "भाः": 7465,
      "त्यक्त": 7466,
      "मेध": 7467,
      "bale": 7468,
      "स्वच्छ": 7469,
      "कुत्र": 7470,
      "लोचन": 7471,
      "tyai": 7472,
      "लाघ": 7473,
      "tastha": 7474,
      "भवन्तु": 7475,
      "bhavantu": 7476,
      "ketu": 7477,
      "keṣu": 7478,
      "pari̱": 7479,
      "गाय": 7480,
      "dyair": 7481,
      "pūrṇā": 7482,
      "सर्प": 7483,
      "जीर्ण": 7484,
      "nṛpā": 7485,
      "samudrā": 7486,
      "durlabha": 7487,
      "yāmy": 7488,
      "prāptā": 7489,
      "śeṣaṃ": 7490,
      "गच्छा": 7491,
      "sattvān": 7492,
      "viṣṇur": 7493,
      "tarpa": 7494,
      "tīrthā": 7495,
      "कान्ता": 7496,
      "ruddho": 7497,
      "पश्ये": 7498,
      "yoginaḥ": 7499,
      "योगिनः": 7500,
      "राघव": 7501,
      "samanvitaḥ": 7502,
      "स्व̱स्ति": 7503,
      "sva̱sti": 7504,
      "kalyāṇaṃ": 7505,
      "कल्याणं": 7506,
      "निर्वाण": 7507,
      "pitṝ": 7508,
      "jagmu": 7509,
      "rnams": 7510,
      "र्नम्स्": 7511,
      "ala": 7512,
      "atī": 7513,
      "aparā": 7514,
      "̍स्य̱": 7515,
      "ंश्": 7516,
      "उपे": 7517,
      "यस्तु": 7518,
      "रान्": 7519,
      "वणि": 7520,
      "षण्": 7521,
      "ृम्भ": 7522,
      "ेद्": 7523,
      "yadī": 7524,
      "vata": 7525,
      "harī": 7526,
      "matī": 7527,
      "म्नि": 7528,
      "vika": 7529,
      "विमान": 7530,
      "māṇi": 7531,
      "स्मित": 7532,
      "माणि": 7533,
      "nibodha": 7534,
      "śamya": 7535,
      "निबोध": 7536,
      "याच": 7537,
      "yot": 7538,
      "पा̱": 7539,
      "पाद्य": 7540,
      "rur": 7541,
      "संस्थिता": 7542,
      "miha": 7543,
      "dinā": 7544,
      "मुमु": 7545,
      "पर्य्": 7546,
      "roda̍": 7547,
      "ci̱": 7548,
      "रुधि": 7549,
      "मिह": 7550,
      "मेष": 7551,
      "jānāti": 7552,
      "त्वत्त": 7553,
      "cān": 7554,
      "cāsya": 7555,
      "śāśva": 7556,
      "रोद̍": 7557,
      "युत": 7558,
      "शाम्": 7559,
      "शाश्व": 7560,
      "वृता": 7561,
      "न्द्रिया": 7562,
      "किम": 7563,
      "litaṃ": 7564,
      "jitaḥ": 7565,
      "mokṣā": 7566,
      "केतु": 7567,
      "सूद": 7568,
      "vyāḥ": 7569,
      "राजो": 7570,
      "pṛthu": 7571,
      "तस्मान्": 7572,
      "अ̱स्मे": 7573,
      "व्यापि": 7574,
      "vaṃśa": 7575,
      "madhyas": 7576,
      "ध्वम्": 7577,
      "भ्रान्त": 7578,
      "मन्त्रेण": 7579,
      "padmā": 7580,
      "कालेन": 7581,
      "वचनम्": 7582,
      "विष्णुर्": 7583,
      "sattvānāṃ": 7584,
      "pratyakṣa": 7585,
      "antari": 7586,
      "जीवति": 7587,
      "महि̱": 7588,
      "kṛts": 7589,
      "jīvati": 7590,
      "कुशल": 7591,
      "karuṇa": 7592,
      "skan": 7593,
      "त्पल": 7594,
      "पटु": 7595,
      "धनुर्": 7596,
      "गरुड": 7597,
      "a̱sme": 7598,
      "ah": 7599,
      "dri": 7600,
      "gnir": 7601,
      "syāṃ": 7602,
      "uktaṃ": 7603,
      "ścāpi": 7604,
      "̱ḻ": 7605,
      "̱rā": 7606,
      "̱mā": 7607,
      "अरु": 7608,
      "ईदृ": 7609,
      "उक्तं": 7610,
      "कपाल": 7611,
      "तमा": 7612,
      "ध्वा": 7613,
      "भद्रा": 7614,
      "यक्ष्": 7615,
      "शम": 7616,
      "सती": 7617,
      "हते": 7618,
      "हरी": 7619,
      "tanā": 7620,
      "vate": 7621,
      "hanti": 7622,
      "sakhi": 7623,
      "patra": 7624,
      "vitam": 7625,
      "vigh": 7626,
      "विद्वान्": 7627,
      "प्रज्ञ": 7628,
      "्यादि": 7629,
      "pravarta": 7630,
      "नागा": 7631,
      "याय": 7632,
      "ṣṭyā": 7633,
      "bhāsva": 7634,
      "kṛcch": 7635,
      "sita": 7636,
      "varja": 7637,
      "ṣā̍": 7638,
      "शिवम्": 7639,
      "वृक्षा": 7640,
      "मोक्षा": 7641,
      "jñāne": 7642,
      "yasmāt": 7643,
      "sthitiḥ": 7644,
      "bhuktvā": 7645,
      "शोच": 7646,
      "अ̱स्य": 7647,
      "kartum": 7648,
      "भोति": 7649,
      "bhoti": 7650,
      "pūrvo": 7651,
      "stana": 7652,
      "भावः": 7653,
      "कर्तुम्": 7654,
      "sūda": 7655,
      "vantaṃ": 7656,
      "योगं": 7657,
      "nṛṇām": 7658,
      "नृणाम्": 7659,
      "दानीं": 7660,
      "pri̱": 7661,
      "हीना": 7662,
      "caranti": 7663,
      "चरन्ति": 7664,
      "भृशम्": 7665,
      "bhṛśam": 7666,
      "गिर": 7667,
      "स्थितिः": 7668,
      "पादौ": 7669,
      "ghoṣa": 7670,
      "ṭikā": 7671,
      "kriyate": 7672,
      "śivam": 7673,
      "अन्तरि": 7674,
      "प्रेत": 7675,
      "bījā": 7676,
      "kūṭa": 7677,
      "daityā": 7678,
      "kaṇṭa": 7679,
      "śatrū": 7680,
      "अग्ने̱": 7681,
      "agne̱": 7682,
      "क्रियते": 7683,
      "gaura": 7684,
      "समन्वितः": 7685,
      "न्द्रिय": 7686,
      "dvīpa": 7687,
      "oṣadhī": 7688,
      "लभ्यते": 7689,
      "जग्मु": 7690,
      "aru": 7691,
      "ttā": 7692,
      "ugha": 7693,
      "ñjī": 7694,
      "जड": 7695,
      "दाना": 7696,
      "पथा": 7697,
      "बले": 7698,
      "ल्व": 7699,
      "ṣū": 7700,
      "rajo": 7701,
      "्यर्थं": 7702,
      "vair": 7703,
      "papāta": 7704,
      "vāja": 7705,
      "ितानि": 7706,
      "niś": 7707,
      "prayaccha": 7708,
      "layam": 7709,
      "त्रयं": 7710,
      "सुप्त": 7711,
      "susaṃ": 7712,
      "suto": 7713,
      "पादे": 7714,
      "saṃta": 7715,
      "सा̍": 7716,
      "divaṃ": 7717,
      "पु̍": 7718,
      "ष्ट्रा": 7719,
      "दिवं": 7720,
      "tvama": 7721,
      "jāto": 7722,
      "सर्वतो": 7723,
      "धिः": 7724,
      "sarvato": 7725,
      "mahāya": 7726,
      "लाल": 7727,
      "व्यु": 7728,
      "durma": 7729,
      "prāg": 7730,
      "ञ्जी": 7731,
      "मानस्य": 7732,
      "gur": 7733,
      "kima": 7734,
      "हारि": 7735,
      "pariṇā": 7736,
      "kopa": 7737,
      "yanto": 7738,
      "रीम्": 7739,
      "yathā̍": 7740,
      "samāśri": 7741,
      "ानाम": 7742,
      "syān": 7743,
      "दीक्ष": 7744,
      "यथा̍": 7745,
      "śoca": 7746,
      "सेना": 7747,
      "graho": 7748,
      "ndrasya": 7749,
      "बुद्धं": 7750,
      "se̱": 7751,
      "कल्पना": 7752,
      "समुप": 7753,
      "नृपा": 7754,
      "लीं": 7755,
      "līṃ": 7756,
      "mānasya": 7757,
      "sṛjya": 7758,
      "priyam": 7759,
      "प्रियम्": 7760,
      "durla": 7761,
      "buddhaṃ": 7762,
      "u̱k": 7763,
      "चरन्": 7764,
      "dhvam": 7765,
      "prāpte": 7766,
      "रक्षो": 7767,
      "टिका": 7768,
      "वदन्ति": 7769,
      "उ̱ष": 7770,
      "vāsanā": 7771,
      "śaktiḥ": 7772,
      "vadanti": 7773,
      "i̱ha": 7774,
      "शक्तिः": 7775,
      "विशेषा": 7776,
      "इ̱ह": 7777,
      "vyavasthitaḥ": 7778,
      "पृथु": 7779,
      "हृदय": 7780,
      "praviśa": 7781,
      "गौर": 7782,
      "चक्षुर्": 7783,
      "bhairava": 7784,
      "लक्ष्मण": 7785,
      "यामसि": 7786,
      "ओषधी": 7787,
      "द्धृत्य": 7788,
      "iśvarya": 7789,
      "गण्डी": 7790,
      "ग्रन्थि": 7791,
      "ktu": 7792,
      "vrā": 7793,
      "ānanda": 7794,
      "āyur": 7795,
      "̍न्त": 7796,
      "इष्ट": 7797,
      "कपा": 7798,
      "केषु": 7799,
      "कण्ट": 7800,
      "पत्रा": 7801,
      "फु": 7802,
      "भानु": 7803,
      "वदे": 7804,
      "ेद": 7805,
      "ṅki": 7806,
      "vanā": 7807,
      "mayaḥ": 7808,
      "patta": 7809,
      "hārā": 7810,
      "vivā": 7811,
      "vikā": 7812,
      "vibhū": 7813,
      "rāgo": 7814,
      "tāsāṃ": 7815,
      "विस्ती": 7816,
      "māma": 7817,
      "nādaṃ": 7818,
      "prajña": 7819,
      "राम्": 7820,
      "क्षत्र": 7821,
      "सुतो": 7822,
      "traṁ": 7823,
      "संयुक्तं": 7824,
      "saṃyuktaṃ": 7825,
      "mikā": 7826,
      "puṇḍarī": 7827,
      "मुष्टि": 7828,
      "muhuḥ": 7829,
      "sarja": 7830,
      "परु": 7831,
      "पि̱": 7832,
      "भिषे": 7833,
      "रुक्": 7834,
      "भाण्ड": 7835,
      "yutaṃ": 7836,
      "वेदि": 7837,
      "neti": 7838,
      "rīm": 7839,
      "कुम्": 7840,
      "lot": 7841,
      "दुन्दु": 7842,
      "धात्": 7843,
      "धारि": 7844,
      "varga": 7845,
      "मनसि": 7846,
      "व्यू": 7847,
      "vṛtam": 7848,
      "hotā̍": 7849,
      "śuṣe": 7850,
      "शुषे": 7851,
      "ग्रहो": 7852,
      "मृता": 7853,
      "मृगा": 7854,
      "mṛgā": 7855,
      "परिणा": 7856,
      "षा̍": 7857,
      "samāna": 7858,
      "दीक्षा": 7859,
      "a̱sya": 7860,
      "nyatra": 7861,
      "धर्मः": 7862,
      "हृत": 7863,
      "dharmaḥ": 7864,
      "द्यापि": 7865,
      "चेद्": 7866,
      "होता̍": 7867,
      "brahmaṇā": 7868,
      "svāda": 7869,
      "चतुष्ट": 7870,
      "क्षेत्रे": 7871,
      "arhasi": 7872,
      "viṣam": 7873,
      "शृङ्गा": 7874,
      "śṛṅga": 7875,
      "śṛṅgā": 7876,
      "juhu": 7877,
      "preta": 7878,
      "प्राप्ते": 7879,
      "garbhaṃ": 7880,
      "जुहु": 7881,
      "मनुष्या": 7882,
      "गन्धर्वा": 7883,
      "गर्भं": 7884,
      "dattā": 7885,
      "तस्याः": 7886,
      "वासना": 7887,
      "tasminn": 7888,
      "śarīraṃ": 7889,
      "शरीरं": 7890,
      "yāmasi": 7891,
      "lokānāṃ": 7892,
      "skandha": 7893,
      "मानुष": 7894,
      "क्रीडा": 7895,
      "cāriṇaḥ": 7896,
      "rūpiṇī": 7897,
      "चारिणः": 7898,
      "मुहुः": 7899,
      "निशम्य": 7900,
      "अर्हसि": 7901,
      "mūrdhni": 7902,
      "vistīr": 7903,
      "baddhvā": 7904,
      "पुण्डरी": 7905,
      "roda̍sī": 7906,
      "रोद̍सी": 7907,
      "ubhau": 7908,
      "āhu": 7909,
      "̍नि": 7910,
      "पपात": 7911,
      "यत्त": 7912,
      "यन्तु": 7913,
      "रन्": 7914,
      "ैस्तु": 7915,
      "ैकं": 7916,
      "yaśas": 7917,
      "hate": 7918,
      "र्च्य": 7919,
      "vāru": 7920,
      "kani": 7921,
      "ितेन": 7922,
      "विभू": 7923,
      "प्रवे": 7924,
      "gaha": 7925,
      "niro": 7926,
      "laiḥ": 7927,
      "bhadrā": 7928,
      "tul": 7929,
      "tura": 7930,
      "kāśe": 7931,
      "काशे": 7932,
      "स्तत्": 7933,
      "pāt": 7934,
      "pāde": 7935,
      "सुवर्ण": 7936,
      "sukhi": 7937,
      "sugata": 7938,
      "पाण्डु": 7939,
      "संख्या": 7940,
      "pitur": 7941,
      "pu̍": 7942,
      "महता": 7943,
      "द्धं": 7944,
      "cira": 7945,
      "दिश्य": 7946,
      "सर्वेषु": 7947,
      "कुटि": 7948,
      "kutra": 7949,
      "svatan": 7950,
      "नेति": 7951,
      "नेत्रा": 7952,
      "भूय": 7953,
      "भूतो": 7954,
      "bhūto": 7955,
      "स्थाना": 7956,
      "vīro": 7957,
      "duṣṭā": 7958,
      "dundu": 7959,
      "र्य्": 7960,
      "jñānam": 7961,
      "गात्र": 7962,
      "khyo": 7963,
      "kṣitaḥ": 7964,
      "hṛṣṭa": 7965,
      "ध्यति": 7966,
      "ṇo̱": 7967,
      "stava": 7968,
      "जिह्व": 7969,
      "जगद्ध": 7970,
      "jagaddhi": 7971,
      "jīr": 7972,
      "ज्ञाने": 7973,
      "व्रजेत्": 7974,
      "शीत": 7975,
      "मुखम्": 7976,
      "कथ्यते": 7977,
      "vrajet": 7978,
      "pīḍi": 7979,
      "smaran": 7980,
      "sarveṣu": 7981,
      "māṃsa": 7982,
      "चतुः": 7983,
      "चतुर्थ": 7984,
      "catuḥ": 7985,
      "catura": 7986,
      "catuṣṭa": 7987,
      "yuktam": 7988,
      "शूद्र": 7989,
      "dyāpi": 7990,
      "भाग्य": 7991,
      "tiṣṭhate": 7992,
      "mukham": 7993,
      "दत्ता": 7994,
      "शब्दा": 7995,
      "rākṣasa": 7996,
      "guṇān": 7997,
      "बद्ध्वा": 7998,
      "त्रैलोक": 7999,
      "सागर": 8000,
      "rāghava": 8001,
      "naśyati": 8002,
      "कीर्ति": 8003,
      "mi̱tro": 8004,
      "viśeṣā": 8005,
      "śmaśā": 8006,
      "jagannātha": 8007,
      "मि̱त्रो": 8008,
      "kathyate": 8009,
      "āna": 8010,
      "̍ṣa": 8011,
      "̍thi": 8012,
      "̍थि": 8013,
      "अत्रा": 8014,
      "अश्वा": 8015,
      "गह": 8016,
      "गङ्ग": 8017,
      "जनो": 8018,
      "यक्षा": 8019,
      "रत": 8020,
      "लज्": 8021,
      "श्ये": 8022,
      "सकला": 8023,
      "हन्ति": 8024,
      "ीर्": 8025,
      "vade": 8026,
      "र्चित": 8027,
      "pai": 8028,
      "yāṇi": 8029,
      "rāśi": 8030,
      "ितुम्": 8031,
      "विविधा": 8032,
      "प्रमे": 8033,
      "nim": 8034,
      "prame": 8035,
      "वा̍म्": 8036,
      "jahi": 8037,
      "bhayam": 8038,
      "क्षर": 8039,
      "तासां": 8040,
      "pāram": 8041,
      "सुराः": 8042,
      "surāḥ": 8043,
      "ṣṭhī": 8044,
      "dān": 8045,
      "संवरम्": 8046,
      "saṃvaram": 8047,
      "mumu": 8048,
      "muhur": 8049,
      "yuta": 8050,
      "त्यो": 8051,
      "kṣara": 8052,
      "वेति": 8053,
      "स्वर्ण": 8054,
      "जाय": 8055,
      "लोह": 8056,
      "lokaḥ": 8057,
      "sarvaloka": 8058,
      "लाप": 8059,
      "युतं": 8060,
      "ग्नी": 8061,
      "शास्त्रा": 8062,
      "hutā": 8063,
      "मृदु": 8064,
      "ṇḍo": 8065,
      "वीत": 8066,
      "वीरो": 8067,
      "tadvi": 8068,
      "राजेन्द्र": 8069,
      "prati̍": 8070,
      "pratijñā": 8071,
      "प्रति̍": 8072,
      "kalpe": 8073,
      "इन्द्रि": 8074,
      "ब्रह्मणा": 8075,
      "भेदा": 8076,
      "शीघ्र": 8077,
      "pīta": 8078,
      "ma̱gha": 8079,
      "anyathā": 8080,
      "sahasrā": 8081,
      "kalpanā": 8082,
      "शुद्धा": 8083,
      "रक्षां": 8084,
      "bimba": 8085,
      "निःशेष": 8086,
      "धूम": 8087,
      "प्रविश्य": 8088,
      "ṣvapi": 8089,
      "varjitam": 8090,
      "dhruvam": 8091,
      "र्थाय": 8092,
      "प्रवृत्ति": 8093,
      "saṃyutam": 8094,
      "संयुतम्": 8095,
      "अ̱ग्निꣳ": 8096,
      "lauki": 8097,
      "लौकि": 8098,
      "a̱gniṁ": 8099,
      "क्वचिदपि": 8100,
      "kvacidapi": 8101,
      "che": 8102,
      "idā": 8103,
      "icchā": 8104,
      "lir": 8105,
      "ttvā": 8106,
      "āro": 8107,
      "āsādya": 8108,
      "̍sya": 8109,
      "̍ति̱": 8110,
      "आसाद्य": 8111,
      "नष्ट": 8112,
      "मतं": 8113,
      "मध्या": 8114,
      "य्य": 8115,
      "यच्च": 8116,
      "शता": 8117,
      "शची": 8118,
      "सक्त": 8119,
      "सखि": 8120,
      "yacca": 8121,
      "taśca": 8122,
      "vaiḥ": 8123,
      "vasan": 8124,
      "maye": 8125,
      "maṇḍi": 8126,
      "sane": 8127,
      "pakṣā": 8128,
      "yātrā": 8129,
      "vāhi": 8130,
      "vāgī": 8131,
      "kavi": 8132,
      "विर्": 8133,
      "विजान": 8134,
      "प्रकट": 8135,
      "nāhaṃ": 8136,
      "gaṇe": 8137,
      "nivā": 8138,
      "śatā": 8139,
      "śacī": 8140,
      "वागी": 8141,
      "jaghā": 8142,
      "jagrāha": 8143,
      "क्षिति": 8144,
      "तारं": 8145,
      "कारेण": 8146,
      "सुषु": 8147,
      "पाद्": 8148,
      "पादं": 8149,
      "dād": 8150,
      "sādhya": 8151,
      "देहा": 8152,
      "vetti": 8153,
      "साध्व": 8154,
      "dina": 8155,
      "दात": 8156,
      "topa": 8157,
      "bhiśca": 8158,
      "dhām": 8159,
      "त्यन्त": 8160,
      "kṣaṇaṃ": 8161,
      "kuṭi": 8162,
      "lola": 8163,
      "locana": 8164,
      "ान्तो": 8165,
      "ttamā": 8166,
      "mantrī": 8167,
      "liṅgā": 8168,
      "स्यास्य": 8169,
      "mṛtā": 8170,
      "koṭa": 8171,
      "sthitvā": 8172,
      "भुक्त्वा": 8173,
      "भुवने": 8174,
      "bhuvane": 8175,
      "go̱": 8176,
      "namastu": 8177,
      "śoṇi": 8178,
      "नमस्तु": 8179,
      "व्याप": 8180,
      "dyaur": 8181,
      "bāṣ": 8182,
      "ṇḍaṃ": 8183,
      "मूले": 8184,
      "बाष्": 8185,
      "viddhi": 8186,
      "स्रः": 8187,
      "śīrṣa": 8188,
      "कथयामि": 8189,
      "श्रुत": 8190,
      "पितुर्": 8191,
      "स̱प्त": 8192,
      "sa̱pta": 8193,
      "यन्न्": 8194,
      "चरितं": 8195,
      "स्थित्वा": 8196,
      "पन्था": 8197,
      "ṣṭiṃ": 8198,
      "karomi": 8199,
      "करोमि": 8200,
      "manuṣyā": 8201,
      "श्रेष्ठा": 8202,
      "kathayāmi": 8203,
      "pārśve": 8204,
      "तस्मिन्न्": 8205,
      "व्यवस्थितः": 8206,
      "श्वास": 8207,
      "पदार्थ": 8208,
      "न्द्रियः": 8209,
      "paścād": 8210,
      "paṭu": 8211,
      "dadāti": 8212,
      "ददाति": 8213,
      "स्थूल": 8214,
      "sthūla": 8215,
      "स̱हस्र": 8216,
      "labhyate": 8217,
      "ब̱र्हि": 8218,
      "ba̱rhi": 8219,
      "etan": 8220,
      "sru": 8221,
      "āt": 8222,
      "āsthitaḥ": 8223,
      "ūcu": 8224,
      "̍ś": 8225,
      "अद्रि": 8226,
      "आदित": 8227,
      "आस्थितः": 8228,
      "इन्दु": 8229,
      "उच्च": 8230,
      "एतन्": 8231,
      "गतिर्": 8232,
      "गन्धा": 8233,
      "जग्राह": 8234,
      "पश्च": 8235,
      "पक्व": 8236,
      "मतां": 8237,
      "लू": 8238,
      "वध": 8239,
      "वधू": 8240,
      "ैका": 8241,
      "ṛddhi": 8242,
      "yatu": 8243,
      "yadya": 8244,
      "tal": 8245,
      "mataṃ": 8246,
      "matāṃ": 8247,
      "paru": 8248,
      "विद्धि": 8249,
      "gaṇāḥ": 8250,
      "prahara": 8251,
      "नासि": 8252,
      "नाहं": 8253,
      "jano": 8254,
      "सुसं": 8255,
      "पाताल": 8256,
      "rupa": 8257,
      "सात्": 8258,
      "त्तमाः": 8259,
      "dinī": 8260,
      "रुप": 8261,
      "येत्त": 8262,
      "वेत्ति": 8263,
      "nod": 8264,
      "प्राप्नोति": 8265,
      "शाम्य": 8266,
      "चिर": 8267,
      "णिका": 8268,
      "mantreṇa": 8269,
      "budhaḥ": 8270,
      "बुधः": 8271,
      "mohā": 8272,
      "nirvi": 8273,
      "sthitau": 8274,
      "dīkṣā": 8275,
      "राजानं": 8276,
      "त्मनाम्": 8277,
      "hṛtam": 8278,
      "cittā": 8279,
      "ratnaṃ": 8280,
      "mahatā": 8281,
      "va̱ḥ": 8282,
      "दर्शन": 8283,
      "rthī": 8284,
      "रत्नं": 8285,
      "विषं": 8286,
      "manasi": 8287,
      "चित्ता": 8288,
      "viṣaṃ": 8289,
      "prāpnoti": 8290,
      "शृणो": 8291,
      "śṛṇo": 8292,
      "स्थितौ": 8293,
      "मनोरथ": 8294,
      "धेर्": 8295,
      "sūryā": 8296,
      "vināya": 8297,
      "rājānaṃ": 8298,
      "smād": 8299,
      "म्बर": 8300,
      "विनाय": 8301,
      "adhi̍": 8302,
      "pater": 8303,
      "vākyam": 8304,
      "अधि̍": 8305,
      "puras": 8306,
      "vyavahā": 8307,
      "वरुण": 8308,
      "prathama": 8309,
      "वर्जितम्": 8310,
      "rthāya": 8311,
      "lakṣmaṇa": 8312,
      "कैला": 8313,
      "vapuḥ": 8314,
      "kailā": 8315,
      "वाक्यम्": 8316,
      "saṃsāre": 8317,
      "द्भुत": 8318,
      "kevalaṃ": 8319,
      "संसारे": 8320,
      "साहस्र": 8321,
      "केवलं": 8322,
      "सकलं": 8323,
      "चत्वारि": 8324,
      "catvāri": 8325,
      "śārdū": 8326,
      "gambhīra": 8327,
      "द्यौर्": 8328,
      "sakalaṃ": 8329,
      "शार्दू": 8330,
      "पृथि̱वी": 8331,
      "pṛthi̱vī": 8332,
      "varārohe": 8333,
      "gnī": 8334,
      "ime": 8335,
      "ikaṃ": 8336,
      "jj": 8337,
      "nyaset": 8338,
      "rha": 8339,
      "rcya": 8340,
      "āra": 8341,
      "̍व̱": 8342,
      "आप": 8343,
      "इमे": 8344,
      "उभौ": 8345,
      "गतिम्": 8346,
      "चरी": 8347,
      "नया": 8348,
      "भयम्": 8349,
      "मवा": 8350,
      "यस्मि": 8351,
      "वट": 8352,
      "वय": 8353,
      "वन्त": 8354,
      "शश": 8355,
      "सने": 8356,
      "हस्ते": 8357,
      "ीय": 8358,
      "ोट": 8359,
      "ौष": 8360,
      "ṛṣ": 8361,
      "yaiḥ": 8362,
      "tarā": 8363,
      "vast": 8364,
      "vanda": 8365,
      "savitā": 8366,
      "sakhī": 8367,
      "ानः": 8368,
      "carī": 8369,
      "caivā": 8370,
      "vinī": 8371,
      "kapāla": 8372,
      "न्दे": 8373,
      "niśamya": 8374,
      "prabha": 8375,
      "वाहि": 8376,
      "वाद्य": 8377,
      "राष्ट्र": 8378,
      "ṣa̍": 8379,
      "ritam": 8380,
      "क्षणं": 8381,
      "kālena": 8382,
      "स्यते": 8383,
      "sukhe": 8384,
      "ṣṭvā": 8385,
      "पादो": 8386,
      "vega": 8387,
      "संहार": 8388,
      "dite": 8389,
      "dikṣu": 8390,
      "puṭa": 8391,
      "sarpa": 8392,
      "citam": 8393,
      "kṣaṇāt": 8394,
      "श्रिया": 8395,
      "lāla": 8396,
      "क्रमे": 8397,
      "tyanta": 8398,
      "nta̱": 8399,
      "bhūd": 8400,
      "bhūte": 8401,
      "mahābhāga": 8402,
      "धाम्": 8403,
      "मनन्त": 8404,
      "वृष्ण": 8405,
      "kin": 8406,
      "हारा": 8407,
      "लोकः": 8408,
      "लिख": 8409,
      "भुव̍": 8410,
      "bhuva̍": 8411,
      "स्तुति": 8412,
      "vyāpa": 8413,
      "vyākhyā": 8414,
      "krame": 8415,
      "शोष": 8416,
      "षु̱": 8417,
      "peṇa": 8418,
      "ghaṇ": 8419,
      "bhogā": 8420,
      "मूलं": 8421,
      "क्षिप्य": 8422,
      "जिनात्म": 8423,
      "हृतम्": 8424,
      "dhīrasya": 8425,
      "दर्प": 8426,
      "sīt": 8427,
      "धीरस्य": 8428,
      "rājaṃ": 8429,
      "विश्वम्": 8430,
      "पूर्वो": 8431,
      "मन्त्री": 8432,
      "म̱ह": 8433,
      "darśana": 8434,
      "viśvam": 8435,
      "अथवा": 8436,
      "yamānaṃ": 8437,
      "dhṛtvā": 8438,
      "śriyam": 8439,
      "pūrvavat": 8440,
      "athavā": 8441,
      "धूप": 8442,
      "naumi": 8443,
      "नौमि": 8444,
      "bhavāḥ": 8445,
      "भवाः": 8446,
      "varuṇa": 8447,
      "bhāvāt": 8448,
      "buddhyā": 8449,
      "स्पृश": 8450,
      "भाषत": 8451,
      "वरारोहे": 8452,
      "caritaṃ": 8453,
      "ित्त्वा": 8454,
      "bhāṣata": 8455,
      "मुहुर्": 8456,
      "khaḍga": 8457,
      "प्रतिष्ठाप्य": 8458,
      "सविता": 8459,
      "istu": 8460,
      "phā": 8461,
      "̍स्": 8462,
      "̍सः": 8463,
      "̱तम्": 8464,
      "आद": 8465,
      "आय": 8466,
      "कद": 8467,
      "गणे": 8468,
      "जहि": 8469,
      "पक्षा": 8470,
      "मतो": 8471,
      "मलि": 8472,
      "म्यां": 8473,
      "मयू": 8474,
      "रसि": 8475,
      "लयम्": 8476,
      "हतं": 8477,
      "ीति": 8478,
      "ṇṭ": 8479,
      "raktā": 8480,
      "rajaḥ": 8481,
      "hataṃ": 8482,
      "nad": 8483,
      "saca": 8484,
      "paśa": 8485,
      "विवा": 8486,
      "प्रपद्य": 8487,
      "माम": 8488,
      "nidrā": 8489,
      "pradī": 8490,
      "layaḥ": 8491,
      "वात्": 8492,
      "तेः": 8493,
      "निवेद": 8494,
      "क्ष्या": 8495,
      "kāyo": 8496,
      "कायो": 8497,
      "pātra": 8498,
      "pātre": 8499,
      "suṣu": 8500,
      "sā̍": 8501,
      "trayam": 8502,
      "diśya": 8503,
      "bhānu": 8504,
      "मिका": 8505,
      "दिष्ट": 8506,
      "दिक्षु": 8507,
      "dhiḥ": 8508,
      "सर्वेषा": 8509,
      "कुत्": 8510,
      "tyam": 8511,
      "tyarthaṃ": 8512,
      "दुहित": 8513,
      "mahābāhu": 8514,
      "ग्नौ": 8515,
      "महाबाहु": 8516,
      "ान्तरं": 8517,
      "वृतम्": 8518,
      "मोहा": 8519,
      "तीति": 8520,
      "khal": 8521,
      "rūpo": 8522,
      "kecit": 8523,
      "mantro": 8524,
      "mṛdu": 8525,
      "्येव": 8526,
      "सूत्रं": 8527,
      "hastaṃ": 8528,
      "हुता": 8529,
      "karṇi": 8530,
      "पेण": 8531,
      "द्याः": 8532,
      "dhīmān": 8533,
      "ज्ञानम्": 8534,
      "तवान्": 8535,
      "गुणान्": 8536,
      "duḥkhe": 8537,
      "पूर्वम्": 8538,
      "yukte": 8539,
      "yuktvā": 8540,
      "ghrā": 8541,
      "viśvā̱": 8542,
      "हीन": 8543,
      "indrā": 8544,
      "mūle": 8545,
      "भृगु": 8546,
      "प्रत्यय": 8547,
      "dhṛta": 8548,
      "यन्त्य्": 8549,
      "हित्वा": 8550,
      "अन्यथा": 8551,
      "pūrvam": 8552,
      "dhūma": 8553,
      "धृत्वा": 8554,
      "vidhiḥ": 8555,
      "śabdo": 8556,
      "शब्दो": 8557,
      "hitāya": 8558,
      "varuṇā": 8559,
      "यथो": 8560,
      "आत्मानम्": 8561,
      "ātmānam": 8562,
      "sāgara": 8563,
      "स्तीति": 8564,
      "वपुः": 8565,
      "श्रियम्": 8566,
      "दे̱वाना": 8567,
      "नारायण": 8568,
      "de̱vānā": 8569,
      "सैन्य": 8570,
      "dadyāt": 8571,
      "pratiṣṭhāpya": 8572,
      "ज्येष्ठ": 8573,
      "यस्मात्": 8574,
      "यशस्वि": 8575,
      "सर्वभूतानां": 8576,
      "dhatte": 8577,
      "sarvabhūtānāṃ": 8578,
      "ucca": 8579,
      "āpa": 8580,
      "̍ni": 8581,
      "̱नो": 8582,
      "आदित्य": 8583,
      "क̍": 8584,
      "खर": 8585,
      "धरणी": 8586,
      "धत्ते": 8587,
      "रङ्ग": 8588,
      "लयः": 8589,
      "ऽइ": 8590,
      "ैश्वर्य": 8591,
      "matta": 8592,
      "mayū": 8593,
      "sa̱m": 8594,
      "patī": 8595,
      "patrā": 8596,
      "hān": 8597,
      "tāraṃ": 8598,
      "विरुद्ध": 8599,
      "प्रच्छ": 8600,
      "प्रशान्त": 8601,
      "niveśa": 8602,
      "pramu": 8603,
      "praviśya": 8604,
      "वाञ्छ": 8605,
      "ritaḥ": 8606,
      "क्षये": 8607,
      "कारम्": 8608,
      "स्तम्": 8609,
      "स्तान्": 8610,
      "pāka": 8611,
      "supra": 8612,
      "saṃhṛ": 8613,
      "saṃgha": 8614,
      "saṃhāra": 8615,
      "kṣyā": 8616,
      "bhāska": 8617,
      "योष": 8618,
      "yutā": 8619,
      "मेधा": 8620,
      "त्वर": 8621,
      "tyaḥ": 8622,
      "tīha": 8623,
      "रो̱": 8624,
      "प्राप्नु": 8625,
      "शिवं": 8626,
      "तीनां": 8627,
      "न्द्रः": 8628,
      "नोद": 8629,
      "liṅgaṃ": 8630,
      "kṣiti": 8631,
      "kṣipta": 8632,
      "sattve": 8633,
      "kartṛ": 8634,
      "karṇya": 8635,
      "dvijāḥ": 8636,
      "pūrṇaṃ": 8637,
      "धर्मम्": 8638,
      "द्विजाः": 8639,
      "dhe̱": 8640,
      "dharmam": 8641,
      "sūtraṃ": 8642,
      "त्याः": 8643,
      "सीत्": 8644,
      "मुखी": 8645,
      "पूर्ववत्": 8646,
      "घोषं": 8647,
      "prāpnu": 8648,
      "ghoṣaṃ": 8649,
      "śivaṃ": 8650,
      "महेश": 8651,
      "महेश्वरः": 8652,
      "maheśvaraḥ": 8653,
      "śakyate": 8654,
      "विधिः": 8655,
      "ātmanā": 8656,
      "कौस": 8657,
      "bhrānti": 8658,
      "kausa": 8659,
      "पुरस्": 8660,
      "ब्रवीद्": 8661,
      "bravīd": 8662,
      "vaktraṃ": 8663,
      "देवेश": 8664,
      "ghṛta": 8665,
      "पूर्णं": 8666,
      "चेतसा": 8667,
      "लिङ्गं": 8668,
      "हिताय": 8669,
      "वृष̱": 8670,
      "dharaṇī": 8671,
      "कुर्वीत": 8672,
      "vṛṣa̱": 8673,
      "कर्ण्य": 8674,
      "पौरु": 8675,
      "कृत्स्": 8676,
      "pauru": 8677,
      "adbhu": 8678,
      "स्मरन्": 8679,
      "bhadre": 8680,
      "कल्याण": 8681,
      "āsīt": 8682,
      "पुंग": 8683,
      "puṃga": 8684,
      "vibhuḥ": 8685,
      "विभुः": 8686,
      "गम्भीर": 8687,
      "kāñcana": 8688,
      "adho": 8689,
      "vrī": 8690,
      "ū̱r": 8691,
      "अधो": 8692,
      "इच्छा": 8693,
      "ऊच": 8694,
      "कपो": 8695,
      "तल्": 8696,
      "पल्ल": 8697,
      "मतिर्": 8698,
      "रजः": 8699,
      "लैः": 8700,
      "वत्त": 8701,
      "वलोक": 8702,
      "वन्तं": 8703,
      "षष्ठ": 8704,
      "हनू": 8705,
      "ऽस्म": 8706,
      "yajñe": 8707,
      "raṁ": 8708,
      "vand": 8709,
      "matam": 8710,
      "palla": 8711,
      "vāsaṃ": 8712,
      "vibhāva": 8713,
      "tira": 8714,
      "kasyā": 8715,
      "kapo": 8716,
      "hitvā": 8717,
      "विवि": 8718,
      "विमुक्त": 8719,
      "प्रयोग": 8720,
      "nāmi": 8721,
      "bhraṃ": 8722,
      "राज्ञ": 8723,
      "निद्रा": 8724,
      "क्षणात्": 8725,
      "kāreṇa": 8726,
      "कारी": 8727,
      "pāhi": 8728,
      "pāli": 8729,
      "pāṇe": 8730,
      "suvarṇa": 8731,
      "पाहि": 8732,
      "पाणे": 8733,
      "sākṣi": 8734,
      "संत": 8735,
      "saṃsthitā": 8736,
      "महान": 8737,
      "bhidhā": 8738,
      "bhā̱": 8739,
      "भाव्य": 8740,
      "भास्क": 8741,
      "yuddhe": 8742,
      "कृतां": 8743,
      "kṛtāṃ": 8744,
      "kṣaye": 8745,
      "meghā": 8746,
      "jānī": 8747,
      "śākhā": 8748,
      "svadhā": 8749,
      "व्यक्त": 8750,
      "khara": 8751,
      "ddhar": 8752,
      "jitam": 8753,
      "samālokya": 8754,
      "केचित्": 8755,
      "yinī": 8756,
      "stuti": 8757,
      "समालोक्य": 8758,
      "pṛ̱": 8759,
      "गो̱": 8760,
      "गोत्र": 8761,
      "grataḥ": 8762,
      "graham": 8763,
      "ṣitā": 8764,
      "ceṣṭi": 8765,
      "dhehi": 8766,
      "कर्तृ": 8767,
      "हृत्य": 8768,
      "दशरथ": 8769,
      "यिनी": 8770,
      "gira": 8771,
      "भवेन्": 8772,
      "रूपः": 8773,
      "दानेन": 8774,
      "भ्रान्ति": 8775,
      "पोष": 8776,
      "अ̍स्य": 8777,
      "विधौ": 8778,
      "mārka": 8779,
      "लोकेश": 8780,
      "मैत्रे": 8781,
      "ātmanaḥ": 8782,
      "maitre": 8783,
      "bhrātā": 8784,
      "भद्रे": 8785,
      "svarṇa": 8786,
      "deveśa": 8787,
      "hṛdaye": 8788,
      "हृदये": 8789,
      "मन्थ": 8790,
      "आत्मनः": 8791,
      "पारमित": 8792,
      "kuśala": 8793,
      "ध्रुवम्": 8794,
      "पार्श्वे": 8795,
      "viśāra": 8796,
      "विशार": 8797,
      "sarasvatī": 8798,
      "namastubhyaṃ": 8799,
      "नमस्तुभ्यं": 8800,
      "dbhir": 8801,
      "ena": 8802,
      "krāma": 8803,
      "rta": 8804,
      "ugra": 8805,
      "ī̍": 8806,
      "̍ṣṭha": 8807,
      "अपश्य": 8808,
      "अमृत": 8809,
      "उरु": 8810,
      "ए̱वा": 8811,
      "कति": 8812,
      "कश्य": 8813,
      "ज्र": 8814,
      "दरि": 8815,
      "मतम्": 8816,
      "मयी": 8817,
      "य्या": 8818,
      "रिति": 8819,
      "लल": 8820,
      "हविषा": 8821,
      "ूनां": 8822,
      "ṃśca": 8823,
      "yaśa": 8824,
      "yaśo": 8825,
      "haviṣā": 8826,
      "vāt": 8827,
      "vāṁ": 8828,
      "vānara": 8829,
      "vibu": 8830,
      "kati": 8831,
      "kada": 8832,
      "kaśya": 8833,
      "rājya": 8834,
      "tābhyāṃ": 8835,
      "विहित": 8836,
      "dari": 8837,
      "dayo": 8838,
      "प्रसिद्ध": 8839,
      "śatam": 8840,
      "नादं": 8841,
      "निम्": 8842,
      "निवर्त": 8843,
      "kāram": 8844,
      "dhūr": 8845,
      "suprabhā": 8846,
      "संबुद्ध": 8847,
      "संख्ये": 8848,
      "saṃjña": 8849,
      "saṃkhye": 8850,
      "pitara": 8851,
      "dhā̍": 8852,
      "tvān": 8853,
      "nupa": 8854,
      "lāni": 8855,
      "जाग्र": 8856,
      "vīkṣya": 8857,
      "tasyāṃ": 8858,
      "र्यमा": 8859,
      "वृष्टि": 8860,
      "मोघ": 8861,
      "cchu": 8862,
      "दृशं": 8863,
      "jine": 8864,
      "गाढ": 8865,
      "भुङ्": 8866,
      "bhuṅ": 8867,
      "kṣipya": 8868,
      "त्मज": 8869,
      "त्मजः": 8870,
      "hṛt": 8871,
      "pekṣa": 8872,
      "भोक्त": 8873,
      "stadā": 8874,
      "stataḥ": 8875,
      "जिने": 8876,
      "lambi": 8877,
      "सीतां": 8878,
      "dhī̱": 8879,
      "दर्भ": 8880,
      "sītāṃ": 8881,
      "व्रजे": 8882,
      "रूपो": 8883,
      "tante": 8884,
      "pīḍa": 8885,
      "līlā": 8886,
      "kṣetraṃ": 8887,
      "क्षेत्रं": 8888,
      "सत्त्वान्": 8889,
      "सृष्ट": 8890,
      "bodhiṃ": 8891,
      "बोधिं": 8892,
      "भृत्य": 8893,
      "yamānā": 8894,
      "lakṣaṇā": 8895,
      "dhūpa": 8896,
      "क्ष्यते": 8897,
      "क्षीण": 8898,
      "hanū": 8899,
      "पतेर्": 8900,
      "भ्राता": 8901,
      "चैत": 8902,
      "आत्मना": 8903,
      "hṛdaya": 8904,
      "druma": 8905,
      "भावात्": 8906,
      "ndriya": 8907,
      "हस्तं": 8908,
      "kaścit": 8909,
      "kaścid": 8910,
      "kurvīta": 8911,
      "आयुर्": 8912,
      "राघवः": 8913,
      "rāghavaḥ": 8914,
      "yogāt": 8915,
      "e̱vā": 8916,
      "मार्क": 8917,
      "पश्चाद्": 8918,
      "आसीत्": 8919,
      "ब्रुवन्": 8920,
      "प्रकीर्तितः": 8921,
      "prakīrtitaḥ": 8922,
      "काञ्चन": 8923,
      "शक्यते": 8924,
      "stathaiva": 8925,
      "asma": 8926,
      "hri": 8927,
      "kruddho": 8928,
      "spha": 8929,
      "uru": 8930,
      "śvinā": 8931,
      "̱te": 8932,
      "̱tam": 8933,
      "अमा": 8934,
      "अस्त्र": 8935,
      "आर": 8936,
      "उदी": 8937,
      "जर": 8938,
      "जन्त": 8939,
      "तनू": 8940,
      "धन्व": 8941,
      "पती": 8942,
      "यशो": 8943,
      "रह": 8944,
      "वस्व": 8945,
      "शतम्": 8946,
      "सचि": 8947,
      "raiḥ": 8948,
      "vaśa": 8949,
      "vasthā": 8950,
      "saci": 8951,
      "saptā": 8952,
      "्वी": 8953,
      "yāś": 8954,
      "yāṇāṃ": 8955,
      "vāso": 8956,
      "vādya": 8957,
      "vidh": 8958,
      "vidā": 8959,
      "vistā": 8960,
      "tiṣṭhe": 8961,
      "ka̍": 8962,
      "tāś": 8963,
      "विस्ता": 8964,
      "dadh": 8965,
      "māsa": 8966,
      "niṣa": 8967,
      "praśa": 8968,
      "pradhā": 8969,
      "laye": 8970,
      "bhavi": 8971,
      "राज्ञा": 8972,
      "निरो": 8973,
      "kāt": 8974,
      "kārī": 8975,
      "pāśā": 8976,
      "सुप्रभा": 8977,
      "पाला": 8978,
      "पाण्ड": 8979,
      "साक्षि": 8980,
      "ciki": 8981,
      "रुह": 8982,
      "ज्ज्वल": 8983,
      "भा̱": 8984,
      "कृत्व": 8985,
      "कृताः": 8986,
      "kṛtāḥ": 8987,
      "tvayy": 8988,
      "medha": 8989,
      "जाते": 8990,
      "tīḥ": 8991,
      "चाप": 8992,
      "मानाः": 8993,
      "gul": 8994,
      "र्यु": 8995,
      "सोम̱": 8996,
      "soma̱": 8997,
      "समम्": 8998,
      "न्दी": 8999,
      "samācaret": 9000,
      "समाचरेत्": 9001,
      "gopā": 9002,
      "दीनि": 9003,
      "dīni": 9004,
      "samam": 9005,
      "śobhā": 9006,
      "त्रिभुवन": 9007,
      "dvidhā": 9008,
      "ṣitaḥ": 9009,
      "द्विजः": 9010,
      "dheḥ": 9011,
      "vanto": 9012,
      "ज्ञात": 9013,
      "व्री": 9014,
      "śīti": 9015,
      "शीति": 9016,
      "vraje": 9017,
      "̱m̐": 9018,
      "लीला": 9019,
      "varaṇa": 9020,
      "maharṣa": 9021,
      "sadā̍": 9022,
      "सदा̍": 9023,
      "jena": 9024,
      "mana̍": 9025,
      "mātre": 9026,
      "pannaḥ": 9027,
      "carati": 9028,
      "चरति": 9029,
      "दुःखम्": 9030,
      "arca": 9031,
      "arthā": 9032,
      "puruṣaḥ": 9033,
      "śritaḥ": 9034,
      "sūryo": 9035,
      "पूजां": 9036,
      "चिन्तयेत्": 9037,
      "साधनम्": 9038,
      "पन्नः": 9039,
      "kṣīṇa": 9040,
      "vidhau": 9041,
      "duḥkham": 9042,
      "sādhanam": 9043,
      "कौश": 9044,
      "श्रेय": 9045,
      "siddhir": 9046,
      "kauśa": 9047,
      "viṣṇuḥ": 9048,
      "पुरुषः": 9049,
      "घृत": 9050,
      "विश्वा̱": 9051,
      "क्लेशा": 9052,
      "mithyā": 9053,
      "भाषितम्": 9054,
      "kadācana": 9055,
      "कदाचन": 9056,
      "nāśanam": 9057,
      "नाशनम्": 9058,
      "cintayet": 9059,
      "pūjāṃ": 9060,
      "मायया": 9061,
      "श्वेत": 9062,
      "दद्यात्": 9063,
      "क्रुद्धो": 9064,
      "विपुल": 9065,
      "vyāghra": 9066,
      "कश्चिद्": 9067,
      "त्वय्य्": 9068,
      "सामान्य": 9069,
      "adhyā": 9070,
      "cyā": 9071,
      "ive": 9072,
      "āśca": 9073,
      "īśvara": 9074,
      "̍म": 9075,
      "̍सो": 9076,
      "अध्या": 9077,
      "कꣳ": 9078,
      "गन्त": 9079,
      "चय": 9080,
      "जिते": 9081,
      "थं": 9082,
      "मिता": 9083,
      "ल्यं": 9084,
      "वसा": 9085,
      "सञ्": 9086,
      "हन्य": 9087,
      "िका": 9088,
      "िरे": 9089,
      "ैते": 9090,
      "॥॥": 9091,
      "ṛ̍": 9092,
      "raca": 9093,
      "tayoḥ": 9094,
      "hai": 9095,
      "र्चि": 9096,
      "mabhi": 9097,
      "mali": 9098,
      "mahaṃ": 9099,
      "matir": 9100,
      "saj": 9101,
      "patat": 9102,
      "vica": 9103,
      "kaṁ": 9104,
      "विष्ठ": 9105,
      "dala": 9106,
      "daye": 9107,
      "mālya": 9108,
      "प्रत्य्": 9109,
      "niga": 9110,
      "्याम्": 9111,
      "pravar": 9112,
      "वाञ्": 9113,
      "ष्णि": 9114,
      "kāmān": 9115,
      "न्त्व्": 9116,
      "स्तम्भ": 9117,
      "syate": 9118,
      "syanti": 9119,
      "yojana": 9120,
      "संग": 9121,
      "त्त्र": 9122,
      "पुल": 9123,
      "toṣa": 9124,
      "द्रवि": 9125,
      "bhāgya": 9126,
      "ज्झ": 9127,
      "yudha": 9128,
      "cārī": 9129,
      "तो̍": 9130,
      "भूः": 9131,
      "bhūḥ": 9132,
      "द्यैर्": 9133,
      "nī̍": 9134,
      "र्ये": 9135,
      "ग्रो": 9136,
      "ग्रहम्": 9137,
      "śitā": 9138,
      "तीव": 9139,
      "cchaṃ": 9140,
      "गुल्": 9141,
      "yamo": 9142,
      "jitendri": 9143,
      "trāhi": 9144,
      "tmajā": 9145,
      "yitā": 9146,
      "khyāṃ": 9147,
      "kṣipet": 9148,
      "syāsya": 9149,
      "ṇeṣu": 9150,
      "samar": 9151,
      "त्मकम्": 9152,
      "बुद्ध्या": 9153,
      "ryamā": 9154,
      "vido": 9155,
      "ceṣṭā": 9156,
      "jīvā": 9157,
      "sīd": 9158,
      "bhaven": 9159,
      "इन्द्र̍": 9160,
      "दाने": 9161,
      "rūpaḥ": 9162,
      "शंस": 9163,
      "kvacid": 9164,
      "सत्त्वानां": 9165,
      "a̍sya": 9166,
      "विषम्": 9167,
      "darśanā": 9168,
      "लक्षणा": 9169,
      "smṛtvā": 9170,
      "पद्मा": 9171,
      "niḥsṛ": 9172,
      "विष्णुः": 9173,
      "निःसृ": 9174,
      "अर्च": 9175,
      "ख्यो": 9176,
      "हरति": 9177,
      "dānavā": 9178,
      "वक्त्रं": 9179,
      "ब्राह्मणा": 9180,
      "cetasā": 9181,
      "कुर्वन्ति": 9182,
      "surāsura": 9183,
      "सुरासुर": 9184,
      "स्येव": 9185,
      "कर्तव्य": 9186,
      "प्रसन्न": 9187,
      "kalyāṇa": 9188,
      "nārāyaṇa": 9189,
      "बहिः": 9190,
      "bahiḥ": 9191,
      "māyayā": 9192,
      "रात्रौ": 9193,
      "kurvanti": 9194,
      "bhāṣitam": 9195,
      "rājendra": 9196,
      "rātrau": 9197,
      "narmadā": 9198,
      "ṅghri": 9199,
      "anṛ": 9200,
      "jju": 9201,
      "̍या": 9202,
      "̍वे": 9203,
      "̍तः": 9204,
      "ंश्च": 9205,
      "अज्ञान": 9206,
      "गान्": 9207,
      "घण्": 9208,
      "जङ्": 9209,
      "जला": 9210,
      "ज्यं": 9211,
      "नानु": 9212,
      "पदः": 9213,
      "मयः": 9214,
      "मध्व": 9215,
      "ळ्": 9216,
      "सग": 9217,
      "ऽस्मा": 9218,
      "ैर्व": 9219,
      "ṣmā": 9220,
      "yaiva": 9221,
      "yatī": 9222,
      "vadhū": 9223,
      "र्न": 9224,
      "hāni": 9225,
      "विदा": 9226,
      "विधु": 9227,
      "विदित": 9228,
      "विहाय": 9229,
      "dade": 9230,
      "māsā": 9231,
      "प्रपञ्च": 9232,
      "माग": 9233,
      "वाच्य": 9234,
      "वामहे": 9235,
      "jayati": 9236,
      "dhanyā": 9237,
      "निग": 9238,
      "त्रित": 9239,
      "काया": 9240,
      "पार्व": 9241,
      "पात्रे": 9242,
      "संघा": 9243,
      "संख्य": 9244,
      "संवत्स": 9245,
      "saṃga": 9246,
      "saṃvatsa": 9247,
      "सार्थ": 9248,
      "pitaṃ": 9249,
      "दाह": 9250,
      "मुदित": 9251,
      "mud": 9252,
      "भिक्ष": 9253,
      "ष्टी": 9254,
      "योप": 9255,
      "ज्जु": 9256,
      "dhikā": 9257,
      "meṣa": 9258,
      "metat": 9259,
      "त्वद": 9260,
      "स्वधा": 9261,
      "cāpa": 9262,
      "ांशु": 9263,
      "loha": 9264,
      "ेनैव": 9265,
      "vī̍": 9266,
      "चारी": 9267,
      "ग्नं": 9268,
      "duhi": 9269,
      "gāyat": 9270,
      "पूरु": 9271,
      "tattvam": 9272,
      "न्द्रस्य": 9273,
      "kil": 9274,
      "किन्न": 9275,
      "mandi": 9276,
      "स्याम्": 9277,
      "लोकस्य": 9278,
      "वीक्ष्य": 9279,
      "ण्डा": 9280,
      "गायत्र": 9281,
      "चितम्": 9282,
      "mokṣo": 9283,
      "लिका": 9284,
      "syāḥ": 9285,
      "śoṣa": 9286,
      "राजं": 9287,
      "त्रिलोक": 9288,
      "त्रिदश": 9289,
      "गोविन्द": 9290,
      "भ्यु": 9291,
      "a̱yaṁ": 9292,
      "अ̱न्त": 9293,
      "अ̱यꣳ": 9294,
      "pūru": 9295,
      "dvijaḥ": 9296,
      "hīna": 9297,
      "hīnaṃ": 9298,
      "मूत्र": 9299,
      "patitaṃ": 9300,
      "dhīro": 9301,
      "दर्शि": 9302,
      "धी̱": 9303,
      "होम": 9304,
      "शीघ्रं": 9305,
      "śrayaḥ": 9306,
      "̍ꣳसि": 9307,
      "svāṃ": 9308,
      "गुणैः": 9309,
      "lokasya": 9310,
      "̍ṁsi": 9311,
      "स्वां": 9312,
      "दर्शना": 9313,
      "दर्शनात्": 9314,
      "स̱त्य": 9315,
      "विषया": 9316,
      "darśanāt": 9317,
      "mūlaṃ": 9318,
      "vṛttaṃ": 9319,
      "guṇaiḥ": 9320,
      "स्मृत्वा": 9321,
      "ग्राह्य": 9322,
      "vi̱d": 9323,
      "रक्षतु": 9324,
      "kṛṣṇaṃ": 9325,
      "पतितं": 9326,
      "garbho": 9327,
      "तिष्ठते": 9328,
      "सरतां": 9329,
      "सहस्रशः": 9330,
      "saratāṃ": 9331,
      "गर्भो": 9332,
      "harati": 9333,
      "उत्तर": 9334,
      "कृष्णं": 9335,
      "क्षीर": 9336,
      "śabdaḥ": 9337,
      "शब्दः": 9338,
      "rakṣatu": 9339,
      "bhrātṛ": 9340,
      "dharmātmā": 9341,
      "भ्रातृ": 9342,
      "वरु̍णो": 9343,
      "sahasraśaḥ": 9344,
      "पर्यन्त": 9345,
      "व्यवहा": 9346,
      "vasudhā": 9347,
      "jyotir": 9348,
      "śāntaṃ": 9349,
      "गौरी": 9350,
      "gaurī": 9351,
      "योगात्": 9352,
      "लङ्घ": 9353,
      "aprame": 9354,
      "अप्रमे": 9355,
      "guroḥ": 9356,
      "गुरोः": 9357,
      "nimittaṃ": 9358,
      "śīghraṃ": 9359,
      "कश्चित्": 9360,
      "siddhya": 9361,
      "ahi": 9362,
      "amṛta": 9363,
      "ito": 9364,
      "pyaṃ": 9365,
      "rṣi": 9366,
      "stān": 9367,
      "upari": 9368,
      "ās": 9369,
      "ākhyā": 9370,
      "ślā": 9371,
      "śle": 9372,
      "̍tā": 9373,
      "̍षा": 9374,
      "अनृ": 9375,
      "इतो": 9376,
      "ईश्वर": 9377,
      "उपरि": 9378,
      "ऊ̱र्": 9379,
      "ऋद्धि": 9380,
      "कटा": 9381,
      "गलित": 9382,
      "त̍ः": 9383,
      "तयोः": 9384,
      "दयो": 9385,
      "वरि": 9386,
      "शां": 9387,
      "स̍ः": 9388,
      "हव्य": 9389,
      "ऽग्नि": 9390,
      "ṃśu": 9391,
      "ṣve": 9392,
      "tare": 9393,
      "tadi": 9394,
      "ta̱ṁ": 9395,
      "mayam": 9396,
      "saga": 9397,
      "sa̍ḥ": 9398,
      "्वे": 9399,
      "vāmahe": 9400,
      "cand": 9401,
      "विज्ञानं": 9402,
      "māga": 9403,
      "प्रयोज": 9404,
      "प्रताप": 9405,
      "teṣā": 9406,
      "śaśa": 9407,
      "lag": 9408,
      "वारु": 9409,
      "jaṅ": 9410,
      "राहु": 9411,
      "निपात": 9412,
      "tumar": 9413,
      "ताभ्यां": 9414,
      "kāmaḥ": 9415,
      "कामः": 9416,
      "कामान्": 9417,
      "स्यन्द": 9418,
      "pādaṃ": 9419,
      "pārva": 9420,
      "yod": 9421,
      "सुभग": 9422,
      "saṃca": 9423,
      "saṃbuddha": 9424,
      "pitaḥ": 9425,
      "pula": 9426,
      "rohi": 9427,
      "द्धे": 9428,
      "कृद्": 9429,
      "kṛd": 9430,
      "ङ्कुश": 9431,
      "ङ्घ्रि": 9432,
      "वेष": 9433,
      "si̍": 9434,
      "cānye": 9435,
      "śāni": 9436,
      "śāst": 9437,
      "śāstrā": 9438,
      "धिं": 9439,
      "ntas": 9440,
      "भूतेषु": 9441,
      "मनस्": 9442,
      "महादेव": 9443,
      "प्राप": 9444,
      "gād": 9445,
      "भवन्": 9446,
      "ttare": 9447,
      "ण्डि": 9448,
      "bhujā": 9449,
      "samākhyā": 9450,
      "triṣu": 9451,
      "tmane": 9452,
      "tmakam": 9453,
      "त्रिषु": 9454,
      "त्राहि": 9455,
      "hīṃ": 9456,
      "मूर्त": 9457,
      "paśū": 9458,
      "हृत्": 9459,
      "dhīrā": 9460,
      "ज्ञाय": 9461,
      "धीरो": 9462,
      "धीमान्": 9463,
      "इन्द्रो̍": 9464,
      "parṇa": 9465,
      "tanū": 9466,
      "क्वचिद्": 9467,
      "va̱n": 9468,
      "va̱yam": 9469,
      "हीनं": 9470,
      "indro̍": 9471,
      "व̱यम्": 9472,
      "panno": 9473,
      "guṇair": 9474,
      "grāme": 9475,
      "धेहि": 9476,
      "kṛṣṇo": 9477,
      "lokeśa": 9478,
      "garbhe": 9479,
      "yūyaṃ": 9480,
      "पन्नो": 9481,
      "तत्त्वम्": 9482,
      "bṛ̱ha": 9483,
      "pṛthivyā": 9484,
      "मूर्छ": 9485,
      "नायक": 9486,
      "पृथग्": 9487,
      "samantāt": 9488,
      "striyaḥ": 9489,
      "bhūmiṃ": 9490,
      "spṛśa": 9491,
      "भूमिं": 9492,
      "स्त्रियः": 9493,
      "श्रेष्ठं": 9494,
      "dvitīyā": 9495,
      "vāsinaḥ": 9496,
      "पत्त्र": 9497,
      "ित्वं": 9498,
      "dadyād": 9499,
      "दद्याद्": 9500,
      "वासिनः": 9501,
      "dā̱śuṣe": 9502,
      "prayatnena": 9503,
      "प्रयत्नेन": 9504,
      "दा̱शुषे": 9505,
      "मिथ्या": 9506,
      "जानाति": 9507,
      "cūḍā": 9508,
      "mārkaṇḍe": 9509,
      "मार्कण्डे": 9510,
      "ajñā": 9511,
      "ajñāna": 9512,
      "chṛ": 9513,
      "enam": 9514,
      "ite": 9515,
      "iṣi": 9516,
      "mye": 9517,
      "pte": 9518,
      "̍सा̱": 9519,
      "̱त्रा": 9520,
      "इन्द": 9521,
      "एनम्": 9522,
      "कस्या": 9523,
      "जया": 9524,
      "णैः": 9525,
      "यमानः": 9526,
      "वꣳ": 9527,
      "वश्": 9528,
      "वली": 9529,
      "सच": 9530,
      "सन्तो": 9531,
      "सपदि": 9532,
      "ऽप": 9533,
      "ṇyam": 9534,
      "vatāṃ": 9535,
      "malā": 9536,
      "sapadi": 9537,
      "्वं": 9538,
      "vādī": 9539,
      "vimṛ": 9540,
      "vidhu": 9541,
      "vipre": 9542,
      "vijñānaṃ": 9543,
      "vidāṃ": 9544,
      "kaśca": 9545,
      "ित्या": 9546,
      "ितस्य": 9547,
      "ितुं": 9548,
      "त्था": 9549,
      "प्रदाय": 9550,
      "nār": 9551,
      "nāthā": 9552,
      "prathi": 9553,
      "pratāpa": 9554,
      "वाथ": 9555,
      "वाꣳ": 9556,
      "वासं": 9557,
      "dhanam": 9558,
      "kākut": 9559,
      "काकुत्": 9560,
      "स्तो̱": 9561,
      "सुव्रते": 9562,
      "suvrate": 9563,
      "पाक": 9564,
      "पाशा": 9565,
      "sārtha": 9566,
      "संय": 9567,
      "pituḥ": 9568,
      "muṣ": 9569,
      "महर्": 9570,
      "roga": 9571,
      "bhās": 9572,
      "दिना": 9573,
      "कृतिः": 9574,
      "kṛtiḥ": 9575,
      "णा̱": 9576,
      "kṣaṇe": 9577,
      "śāra": 9578,
      "sarvadharmā": 9579,
      "रोहि": 9580,
      "mahādeva": 9581,
      "युव": 9582,
      "मनसो": 9583,
      "homa": 9584,
      "ान्तरा": 9585,
      "ṣān": 9586,
      "शार": 9587,
      "gāmi": 9588,
      "śira": 9589,
      "śinī": 9590,
      "tattve": 9591,
      "bhavataḥ": 9592,
      "ttaraṃ": 9593,
      "ttaram": 9594,
      "रण्ये": 9595,
      "mṛ̱": 9596,
      "voca": 9597,
      "लोकानां": 9598,
      "भुञ्ज": 9599,
      "वैदेही": 9600,
      "tmano": 9601,
      "केचि": 9602,
      "gotra": 9603,
      "kṣitam": 9604,
      "syām": 9605,
      "भ्यस्": 9606,
      "madhyā": 9607,
      "vidyāṃ": 9608,
      "bhedo": 9609,
      "सीद्": 9610,
      "धीरा": 9611,
      "śīṃ": 9612,
      "parāṃ": 9613,
      "जननी": 9614,
      "ब्रह्मणो": 9615,
      "भेदो": 9616,
      "śrayā": 9617,
      "brahmaṇo": 9618,
      "पितुः": 9619,
      "jananī": 9620,
      "pathe": 9621,
      "agho": 9622,
      "dharmeṇa": 9623,
      "yasya̍": 9624,
      "anv": 9625,
      "अन्व्": 9626,
      "लक्ष्य": 9627,
      "वज्रयोगि": 9628,
      "घोरा": 9629,
      "dhvani": 9630,
      "शुद्धि": 9631,
      "janmā": 9632,
      "धर्मेण": 9633,
      "धर्मात्मा": 9634,
      "सप्ता": 9635,
      "यन्तं": 9636,
      "vajrayogi": 9637,
      "gurur": 9638,
      "देशेन": 9639,
      "प्रेर": 9640,
      "विद्यां": 9641,
      "yogataḥ": 9642,
      "datto": 9643,
      "gniṃ": 9644,
      "śreṣṭhaṃ": 9645,
      "stotraṃ": 9646,
      "वरु̍ण": 9647,
      "स्तोत्रं": 9648,
      "rasāya": 9649,
      "ततश्": 9650,
      "मन्दि": 9651,
      "वसुधा": 9652,
      "वीर्यवान्": 9653,
      "̱रꣳ": 9654,
      "त्रीणि": 9655,
      "munīndra": 9656,
      "niyataṃ": 9657,
      "vīryavān": 9658,
      "निमित्तं": 9659,
      "śrāddha": 9660,
      "ऽनन्त": 9661,
      "ऊर्ध्वं": 9662,
      "gocaram": 9663,
      "द्रष्टुं": 9664,
      "chrutvā": 9665,
      "sākṣāt": 9666,
      "विशिष्ट": 9667,
      "क्रूर": 9668,
      "छ्रुत्वा": 9669,
      "साक्षात्": 9670,
      "draṣṭuṃ": 9671,
      "nimitta": 9672,
      "amā": 9673,
      "aṅgā": 9674,
      "gram": 9675,
      "̍थ": 9676,
      "̍ṇā": 9677,
      "̍ती": 9678,
      "इन्": 9679,
      "ई̍": 9680,
      "कन्य": 9681,
      "ख्यां": 9682,
      "गणाः": 9683,
      "चैक": 9684,
      "तरे": 9685,
      "धनम्": 9686,
      "बली": 9687,
      "मत्वा": 9688,
      "यमु": 9689,
      "यताम्": 9690,
      "रञ्ज": 9691,
      "वैः": 9692,
      "सतः": 9693,
      "ोपा": 9694,
      "ौद": 9695,
      "vani": 9696,
      "vakta": 9697,
      "hato": 9698,
      "haraṃ": 9699,
      "hatyā": 9700,
      "matvā": 9701,
      "mart": 9702,
      "padaḥ": 9703,
      "viha": 9704,
      "rāmam": 9705,
      "विभ": 9706,
      "विमृ": 9707,
      "विघ्न": 9708,
      "विशोध": 9709,
      "प्रल": 9710,
      "tebhyo": 9711,
      "मातु": 9712,
      "śakta": 9713,
      "्याय": 9714,
      "jalaṃ": 9715,
      "तेर्": 9716,
      "bhag": 9717,
      "dhani": 9718,
      "क्षौ": 9719,
      "tulaṃ": 9720,
      "kāś": 9721,
      "kāṣṭha": 9722,
      "न्त̱": 9723,
      "syanda": 9724,
      "ṣṭiḥ": 9725,
      "dāri": 9726,
      "dāne": 9727,
      "देक": 9728,
      "deka": 9729,
      "veṣṭi": 9730,
      "saṃvṛ": 9731,
      "pito": 9732,
      "pibe": 9733,
      "reṇā": 9734,
      "muṣṭi": 9735,
      "दिकं": 9736,
      "dhiṃ": 9737,
      "tvaṣṭā": 9738,
      "मेतत्": 9739,
      "मेकं": 9740,
      "mevā": 9741,
      "balī": 9742,
      "त्वष्टा": 9743,
      "कुलो": 9744,
      "hetoḥ": 9745,
      "भूति": 9746,
      "bhūti": 9747,
      "gā̱": 9748,
      "भवतः": 9749,
      "ccho": 9750,
      "देवम्": 9751,
      "गुप्त": 9752,
      "rambha": 9753,
      "mantha": 9754,
      "dṛśya": 9755,
      "vor": 9756,
      "jitvā": 9757,
      "nirmi": 9758,
      "भुक्ति": 9759,
      "भुवः": 9760,
      "bhukti": 9761,
      "bhuvaḥ": 9762,
      "devam": 9763,
      "सहे": 9764,
      "yiṣyati": 9765,
      "शोभा": 9766,
      "राजी": 9767,
      "hṛta": 9768,
      "a̱mṛ": 9769,
      "अ̱द्य": 9770,
      "अ̱मृ": 9771,
      "रम्भ": 9772,
      "dyau": 9773,
      "ṣita": 9774,
      "cchati": 9775,
      "vantu": 9776,
      "dhīr": 9777,
      "यिष्यति": 9778,
      "śraddha": 9779,
      "pīḍā": 9780,
      "va̱d": 9781,
      "तृप्ति": 9782,
      "प्रि̱": 9783,
      "ya̱ḥ": 9784,
      "ख्यातो": 9785,
      "गतौ": 9786,
      "मनोर": 9787,
      "śriyā": 9788,
      "मण्डला": 9789,
      "साधकः": 9790,
      "उ̱क्थ": 9791,
      "kṣīra": 9792,
      "कृष्णो": 9793,
      "तस्यां": 9794,
      "pratyaya": 9795,
      "sādhakaḥ": 9796,
      "naumyahaṃ": 9797,
      "prīto": 9798,
      "प्रीतो": 9799,
      "यूयं": 9800,
      "नौम्यहं": 9801,
      "भ्रात": 9802,
      "snāna": 9803,
      "trīṇi": 9804,
      "क्रियासुः": 9805,
      "kriyāsuḥ": 9806,
      "नियतं": 9807,
      "जित्वा": 9808,
      "द्भुतम्": 9809,
      "कुण्डल": 9810,
      "गोचरम्": 9811,
      "दशबलवर": 9812,
      "vihāya": 9813,
      "भरणभूष": 9814,
      "वर्षाणि": 9815,
      "दुर्लभम्": 9816,
      "पिशाच": 9817,
      "सखी": 9818,
      "bharaṇabhūṣi": 9819,
      "durlabham": 9820,
      "';": 9821,
      "cur": 9822,
      "eṣāṃ": 9823,
      "icchāmi": 9824,
      "kūr": 9825,
      "syur": 9826,
      "̍ते̱": 9827,
      "̱द्र": 9828,
      "इ̍व": 9829,
      "इच्छामि": 9830,
      "एषां": 9831,
      "जलं": 9832,
      "जयति": 9833,
      "टी": 9834,
      "न̱ः": 9835,
      "पशू": 9836,
      "रच": 9837,
      "वस्था": 9838,
      "हरं": 9839,
      "ḍh": 9840,
      "ṅkuśa": 9841,
      "yajño": 9842,
      "vari": 9843,
      "vaiva": 9844,
      "sataḥ": 9845,
      "vāc": 9846,
      "vāli": 9847,
      "caki": 9848,
      "kaṭ": 9849,
      "विका": 9850,
      "विदां": 9851,
      "mārī": 9852,
      "प्रौ": 9853,
      "प्रदी": 9854,
      "प्रसङ्ग": 9855,
      "प्रभः": 9856,
      "द्भिः": 9857,
      "माह": 9858,
      "मारी": 9859,
      "gaṇḍa": 9860,
      "वार्": 9861,
      "वासो": 9862,
      "रामम्": 9863,
      "निर्ण": 9864,
      "क्ष्वा": 9865,
      "tumi": 9866,
      "यात्रा": 9867,
      "dhyaṃ": 9868,
      "dhva̱": 9869,
      "स्युर्": 9870,
      "syaṃ": 9871,
[...]
